[PAD]
[UNK]
[CLS]
[SEP]
[MASK]
!
#
$
%
&
'
(
)
*
+
,
-
.
/
0
1
2
3
4
5
6
7
8
9
:
;
<
=
>
?
@
A
B
C
D
E
F
G
H
I
J
K
L
M
N
O
P
Q
R
S
T
U
V
W
X
Y
Z
[
\
]
^
_
`
a
b
c
d
e
f
g
h
i
j
k
l
m
n
o
p
q
r
s
t
u
v
w
x
y
z
{
|
}
~
´
—
₩
、
。
々
〇
】
〜
〰
〽
あ
い
う
え
お
か
が
き
く
け
こ
ご
さ
ざ
し
す
た
だ
ち
っ
つ
て
で
と
ど
な
に
ね
の
は
ば
ひ
び
ぽ
ま
み
め
も
ゃ
や
ょ
よ
ら
り
る
れ
ろ
わ
ん
゜
イ
ウ
ェ
ガ
キ
ク
ゴ
サ
ザ
ジ
チ
ト
ド
ナ
ニ
ノ
ハ
パ
ビ
ブ
ヘ
ボ
マ
ミ
ム
メ
ャ
ヤ
ョ
ヨ
ラ
リ
ル
レ
ヲ
ン
・
ー
ヽ
ㄱ
ㄲ
ㄳ
ㄴ
ㄵ
ㄶ
ㄷ
ㄸ
ㄹ
ㄺ
ㄻ
ㄼ
ㄽ
ㄾ
ㄿ
ㅀ
ㅁ
ㅂ
ㅃ
ㅄ
ㅅ
ㅆ
ㅇ
ㅈ
ㅉ
ㅊ
ㅋ
ㅌ
ㅍ
ㅎ
ㅏ
ㅐ
ㅑ
ㅒ
ㅓ
ㅔ
ㅕ
ㅖ
ㅗ
ㅘ
ㅙ
ㅚ
ㅛ
ㅜ
ㅝ
ㅞ
ㅟ
ㅠ
ㅡ
ㅢ
ㅣ
㖈
一
三
上
下
不
专
丕
世
丙
丨
中
主
乂
乃
久
之
乙
也
了
予
事
于
五
人
亼
什
仁
仆
今
仔
他
以
们
伊
会
位
体
你
來
信
個
做
傅
傷
像
兇
光
八
关
兵
再
出
刁
分
列
判
利
别
制
前
剑
剧
劇
力
加
动
勁
勃
動
包
化
北
医
十
午
半
卜
卟
厚
去
及
友
収
发
受
古
只
可
司
吃
名
后
吧
告
员
味
呼
和
品
哒
員
哥
哦
啊
問
喜
嗎
嗯
嘛
嘟
回
国
圈
國
土
在
圾
坚
垃
基
堂
复
夜
夠
大
天
太
夷
奇
女
奶
好
如
妈
姐
姦
嫌
嬢
子
孝
安
完
宝
实
家
容
导
寿
小
少
就
展
層
山
岛
己
已
师
師
常
年
幸
幹
开
张
張
强
归
当
彩
待
很
徐
從
心
忍
怎
性
恋
恢
恩
恭
悲
情
想
意
愛
感
慾
我
技
拉
持
播
操
支
放
故
敏
文
新
施
日
早
旭
时
昇
昌
明
是
晚
暝
曜
曰
曲
最
會
月
有
服
望
朝
期
本
朴
李
来
果
根
桓
棒
様
樣
欢
欺
歡
正
死
殺
每
气
気
氷
永
池
沒
没
油
法
泣
注
洩
活
派
海
消
清
湖
滾
漁
演
澯
激
火
热
無
煙
煮
燃
爱
物
特
犬
王
瑛
甜
生
甲
申
男
番
疲
病
發
的
盧
直
看
真
眨
眼
着
短
石
硕
礼
祝
神
禍
福
空
突
竹
笑
米
粉
精
終
給
經
緊
级
组
续
罗
罪
署
美
翻
耀
肉
自
至
致
舍
色
芜
花
苗
英
草
藝
虾
螂
融
蟑
蟲
行
衣
被
要
視
覚
见
言
記
詐
話
誠
誰
請
讣
谁
谢
貞
賊
贊
贺
赞
走
起
超
趣
車
載
迎
近
进
远
迫
送
這
運
達
選
遼
部
都
配
酒
金
钟
開
间
阳
阵
院
離
電
非
面
韓
韩
頑
顺
领
飯
馬
高
魔
鮮
鴿
麼
黄
龙
가
각
갂
간
갇
갈
갉
갋
갍
감
갑
값
갓
갔
강
갖
갗
갘
같
갚
갛
개
객
갞
갠
갡
갤
갬
갭
갮
갯
갰
갱
갲
갴
갵
갶
갷
갸
갹
갼
갽
갿
걀
걈
걉
걋
걌
걍
걐
걑
걔
걘
걜
걨
걩
거
걱
건
걵
걷
걸
걹
걺
걻
걿
검
겁
것
겄
겅
겆
겈
겉
겋
게
겍
겎
겐
겓
겔
겜
겝
겟
겠
겡
겢
겤
겦
겧
겨
격
겪
견
겮
겯
결
겱
겷
겸
겹
겻
겼
경
겾
겿
곀
곁
곃
계
곅
곈
곌
곗
곘
곙
곜
고
곡
곢
곤
곧
골
곩
곪
곯
곰
곱
곲
곳
곴
공
곶
곷
곸
곹
곺
곻
과
곽
관
괁
괃
괄
괌
광
괒
괔
괗
괘
괜
괞
괫
괭
괴
괵
괸
괼
굄
굉
굌
굏
교
굔
굗
굘
굠
굡
굣
굤
굥
굨
구
국
굮
군
굲
굳
굴
굵
굶
굷
굼
굽
굿
궀
궁
궂
궃
궄
궅
궇
궈
궉
권
궐
궘
궛
궜
궝
궤
궨
궹
귀
귁
귄
귇
귈
귐
귑
귓
귔
귕
귗
귘
규
귝
균
귣
귤
귬
귭
귯
귱
귴
귷
그
극
근
귾
귿
글
긁
긂
긇
금
급
긋
긌
긍
긎
긏
긐
긑
긒
긓
긔
긕
긘
긜
긤
긧
긩
긫
기
긱
긲
긴
긶
긷
길
긺
긿
김
깁
깂
깃
깄
깅
깆
깇
깈
깉
깊
깋
까
깍
깎
깐
깑
깒
깔
깖
깜
깝
깞
깟
깠
깡
깢
깣
깤
깥
깦
깨
깩
깪
깬
깰
깸
깹
깻
깼
깽
깾
깿
꺀
꺄
꺅
꺆
꺋
꺌
꺔
꺕
꺗
꺙
꺜
꺠
꺤
꺨
꺰
꺱
꺳
꺴
꺵
꺼
꺽
꺾
껀
껄
껌
껍
껏
껐
껑
껒
껔
껕
껗
께
껙
껚
껜
껨
껫
껬
껭
껲
껴
껸
꼇
꼈
꼉
꼐
꼒
꼠
꼣
꼤
꼬
꼭
꼮
꼰
꼳
꼴
꼵
꼷
꼹
꼻
꼼
꼽
꼿
꽁
꽂
꽃
꽄
꽅
꽆
꽈
꽉
꽊
꽌
꽐
꽝
꽤
꽥
꽦
꽹
꾀
꾐
꾜
꾲
꾳
꾸
꾹
꾺
꾼
꾾
꾿
꿀
꿁
꿂
꿇
꿈
꿉
꿋
꿍
꿎
꿏
꿐
꿑
꿓
꿔
꿕
꿘
꿜
꿤
꿧
꿨
꿩
꿰
꿴
뀀
뀌
뀐
뀔
뀜
뀝
뀠
뀡
뀤
뀨
뀪
뀬
뀰
뀸
뀽
끀
끄
끅
끈
끉
끊
끋
끌
끍
끓
끔
끕
끗
끙
끛
끜
끝
끞
끠
끡
끤
끰
끵
끼
끽
끾
낀
낄
낅
낌
낍
낏
낐
낑
낔
낗
나
낙
낚
낛
난
낝
낞
낟
날
낡
낢
낣
낧
남
납
낪
낫
났
낭
낮
낯
낰
낱
낳
내
낵
낶
낸
낻
낼
냄
냅
냇
냈
냉
냊
냌
냍
냏
냐
냑
냒
냔
냘
냠
냡
냣
냤
냥
냦
냨
냪
냫
냬
냼
넀
넄
너
넉
넋
넌
넎
넏
널
넑
넒
넓
넖
넘
넙
넛
넜
넝
넞
넠
넡
넢
넣
네
넥
넨
넫
넬
넴
넵
넷
넸
넹
넺
넼
넽
넾
넿
녀
녁
년
녅
녆
녇
녈
념
녓
녔
녕
녖
녘
녜
녠
녤
녬
녴
노
녹
논
녿
놀
놂
놈
놉
놋
놌
농
놎
놐
높
놓
놔
놕
놘
놜
놤
놥
놧
놨
놩
놬
놯
놰
놸
뇁
뇌
뇐
뇜
뇤
뇨
뇩
뇬
뇰
뇸
뇽
눀
누
눅
눈
눊
눋
눌
눍
눔
눕
눙
눚
눜
눞
눠
눤
눨
눳
눴
눼
뉍
뉑
뉔
뉘
뉙
뉜
뉨
뉩
뉴
뉵
뉸
뉼
늄
늅
늇
늉
늊
늌
늍
늏
느
늑
늒
는
늕
늗
늘
늙
늚
늛
늜
늟
늠
늡
늣
늤
능
늦
늧
늨
늩
늪
늫
늬
늰
늼
닁
니
닉
닊
닋
닌
닏
닐
님
닙
닛
닜
닝
닞
닟
닠
닡
닢
닣
다
닥
닦
닧
단
닩
닪
닫
달
닭
닮
닯
닰
닲
닳
담
답
닶
닷
닸
당
닺
닼
닽
닾
닿
대
댁
댄
댇
댈
댐
댑
댓
댔
댕
댖
댗
댘
댛
댜
댤
댬
댭
댯
댰
댱
댲
댴
댵
댸
덌
덍
더
덕
덖
던
덙
덛
덜
덝
덞
덟
덢
덤
덥
덧
덨
덩
덪
덫
덬
덮
덯
데
덱
덴
덵
덷
델
덹
뎀
뎁
뎃
뎄
뎅
뎆
뎇
뎈
뎉
뎊
뎋
뎌
뎐
뎓
뎔
뎜
뎟
뎠
뎡
뎤
뎦
뎨
도
독
돈
돋
돌
돔
돕
돗
돘
동
돚
돛
돜
돝
돞
돟
돠
돡
돤
돧
돨
돪
돰
돱
돳
돴
돵
돼
돽
돾
됀
됄
됌
됍
됏
됐
됑
됒
됔
됗
되
된
될
됨
됩
됫
됬
됭
됮
됰
됴
됵
됸
됻
둉
둏
두
둑
둔
둖
둗
둘
둠
둡
둣
둥
둦
둨
둩
둬
둴
둿
뒀
뒁
뒄
뒈
뒙
뒛
뒝
뒠
뒤
뒥
뒨
뒬
뒵
뒷
뒹
뒺
듀
듁
듄
듈
듐
듕
듘
드
득
듟
든
듢
듣
들
듥
듦
듫
듬
듭
듯
등
듲
듳
듴
듵
듷
듸
듼
딀
딋
딍
딎
디
딕
딘
딙
딛
딜
딝
딞
딤
딥
딧
딨
딩
딪
딫
딬
딮
따
딱
딲
딴
딷
딸
딹
딻
땀
땁
땃
땄
땅
땈
땋
때
땍
땐
땔
땜
땟
땠
땡
땤
땨
땩
땬
땰
땻
땽
떄
떅
떆
떈
떋
떌
떔
떗
떘
떙
떜
떠
떡
떢
떣
떤
떧
떨
떫
떰
떱
떳
떴
떵
떷
떸
떻
떼
떽
떾
뗀
뗄
뗌
뗏
뗐
뗑
뗔
뗘
뗫
뗬
뗴
뗵
뗸
뗼
똉
똌
또
똑
똒
똔
똗
똘
똠
똡
똣
똥
똦
똨
똫
똬
똭
똮
똴
뙁
뙇
뙈
뙜
뙤
뙨
뚀
뚁
뚊
뚜
뚝
뚞
뚠
뚣
뚤
뚥
뚧
뚫
뚬
뚭
뚯
뚱
뚴
뚷
뚸
뚹
뛀
뛔
뛰
뛴
뛷
뛸
뜀
뜃
뜅
뜌
뜍
뜛
뜜
뜨
뜩
뜬
뜯
뜰
뜷
뜸
뜹
뜻
뜼
뜽
띀
띁
띄
띅
띈
띔
띕
띙
띠
띡
띢
띤
띨
띰
띱
띳
띵
띺
띻
라
락
띾
란
랁
랂
랃
랄
랆
랈
랋
람
랍
랏
랐
랑
랒
랓
랔
랕
랖
랗
래
랙
랜
랟
랠
램
랩
랫
랬
랭
랮
랰
랲
랳
랴
략
랶
랸
랼
럄
럇
럈
량
럐
럒
럣
럤
럪
러
럭
럮
런
럲
럳
럴
럷
럻
럼
럽
럾
럿
렀
렁
렂
렃
렄
렅
렆
렇
레
렉
렌
렐
렑
렘
렙
렛
렜
렝
렞
렠
려
력
렦
련
렫
렬
렴
렵
렷
렸
령
렺
렼
렿
례
롁
롄
롑
롓
롕
롘
로
록
론
롡
롣
롤
롥
롧
롪
롬
롭
롯
롱
롲
롴
롵
롶
롷
롸
롹
롼
뢀
뢈
뢉
뢋
뢌
뢍
뢔
뢘
뢩
뢰
뢴
뢸
룀
룁
룃
룅
룆
룈
료
룐
룔
룜
룝
룟
룡
룤
루
룩
룪
룬
룯
룰
룸
룹
룻
룽
뤀
뤁
뤂
뤃
뤄
뤈
뤌
뤔
뤕
뤗
뤘
뤙
뤜
뤟
뤠
뤡
뤤
뤱
뤼
뤽
륀
륄
륌
륍
륑
류
륙
륜
률
륨
륩
륫
륭
륰
르
륵
륶
른
륹
륻
를
륽
륾
릃
름
릅
릇
릉
릌
릍
릎
릏
릐
릑
릔
릘
릡
릥
리
릭
릯
린
릳
릴
릶
릹
림
립
릿
맀
링
맂
맃
맄
맅
맆
맇
마
막
맊
맋
만
맍
많
맏
말
맑
맒
맔
맕
맖
맗
맘
맙
맚
맛
맜
망
맞
맟
맠
맡
맢
맣
매
맥
맨
맪
맫
맬
맴
맵
맷
맸
맹
맺
맻
맼
맽
먀
먁
먄
먆
먈
먐
먕
먖
먘
먚
먜
머
먹
먺
먻
먼
먽
먾
먿
멀
멅
멈
멉
멊
멋
멌
멍
멎
멏
멐
멒
멓
메
멕
멘
멜
멤
멥
멧
멨
멩
멫
멬
며
멱
멲
면
멶
멷
멸
멺
멻
몀
몁
몃
몄
명
몆
몇
몈
몋
몌
몐
몟
몣
모
목
몫
몬
몯
몰
몸
몹
못
몼
몽
몾
몿
뫀
뫁
뫃
뫄
뫅
뫈
뫌
뫔
뫙
뫚
뫠
뫨
뫳
뫼
묄
묏
묘
묜
묠
묨
묫
묭
무
묵
묶
묷
문
묹
묻
물
묽
뭀
뭃
뭄
뭅
뭇
뭈
뭉
뭊
뭋
뭌
뭍
뭏
뭐
뭑
뭔
뭘
뭞
뭠
뭡
뭣
뭤
뭥
뭦
뭨
뭩
뭫
뭬
뭰
뭴
뮈
뮉
뮋
뮌
뮍
뮐
뮛
뮜
뮝
뮤
뮦
뮨
뮫
뮬
뮴
뮵
뮷
뮹
뮻
므
믁
믄
믇
믈
믐
믑
믓
믕
믖
믘
믜
믝
믣
믯
미
믹
믺
민
믽
믾
믿
밀
밁
밂
밃
밈
밉
밋
밌
밍
밎
및
밐
밑
밒
밓
바
박
밖
밗
반
밚
받
발
밝
밞
밟
밡
밢
밣
밤
밥
밧
밨
방
밪
밫
밬
밭
밮
밯
배
백
밲
밴
밷
밸
밿
뱀
뱁
뱃
뱄
뱅
뱆
뱈
뱉
뱌
뱍
뱐
뱔
뱜
뱝
뱡
뱨
뱩
버
벅
벆
번
벊
벋
벌
벍
벎
벐
범
법
벖
벗
벘
벙
벚
벛
벜
벝
벞
벟
베
벡
벢
벣
벤
벧
벨
벰
벱
벳
벴
벵
벶
벸
벹
벻
벼
벽
벾
변
볁
별
볌
볍
볏
볐
병
볒
볔
볕
볗
볘
볠
볭
보
복
볶
본
볹
볻
볼
볾
봄
봅
봆
봇
봈
봉
봊
봌
봍
봎
봏
봐
봑
봒
봔
봗
봘
봙
봟
봣
봤
봥
봦
봨
봪
봫
봬
봭
봵
봽
뵀
뵁
뵈
뵉
뵌
뵐
뵘
뵙
뵛
뵜
뵤
뵥
뵨
뵬
뵴
뵹
부
북
분
붅
붇
불
붉
붊
붋
붌
붎
붏
붐
붑
붓
붔
붕
붖
붘
붙
붚
붜
붠
붤
붵
붸
붹
붼
뷀
뷁
뷃
뷄
뷍
뷐
뷔
뷕
뷘
뷜
뷩
뷰
뷱
뷴
뷷
뷸
븀
븃
븅
븈
븉
븋
브
븍
븐
븓
블
븕
븜
븝
븟
븡
븢
븣
븤
븥
븧
븨
븰
븹
비
빅
빈
빋
빌
빎
빏
빐
빔
빕
빗
빘
빙
빚
빛
빜
빝
빞
빠
빡
빢
빣
빤
빧
빨
빩
빭
빯
빰
빱
빳
빴
빵
빶
빷
빸
빻
빼
빽
뺀
뺃
뺄
뺌
뺍
뺏
뺐
뺑
뺒
뺕
뺗
뺘
뺙
뺠
뺨
뺩
뺴
뺵
뺸
뺻
뺼
뻄
뻇
뻈
뻉
뻐
뻑
뻒
뻔
뻗
뻘
뻠
뻡
뻣
뻤
뻥
뻦
뻨
뻫
뻬
뻭
뻰
뼁
뼈
뼉
뼊
뼏
뼘
뼛
뼝
뼤
뼨
뽀
뽁
뽂
뽄
뽇
뽈
뽐
뽑
뽕
뽘
뽚
뽜
뽝
뽠
뽤
뽬
뽭
뽯
뽱
뽷
뾰
뾱
뿁
뿅
뿌
뿍
뿐
뿓
뿔
뿕
뿛
뿜
뿝
뿟
뿠
뿡
뿤
뿨
뿩
뿰
뿽
쀄
쀅
쀍
쀙
쀠
쀨
쀵
쀼
쁀
쁄
쁌
쁍
쁑
쁘
쁙
쁜
쁟
쁠
쁨
쁩
쁫
쁭
쁮
쁴
삐
삑
삓
삔
삘
삠
삡
삣
삥
삦
삪
사
삭
삯
산
삲
삳
살
삵
삶
삻
삼
삽
삿
샀
상
샂
샃
샄
샅
샆
샇
새
색
샊
샋
샌
샏
샐
샘
샙
샛
샜
생
샞
샠
샡
샣
샤
샥
샨
샬
샴
샵
샷
샸
샹
샼
샾
섀
섁
섔
섕
섘
서
석
섞
섟
선
섣
설
섥
섫
섬
섭
섮
섯
섰
성
섲
섴
섵
섶
섷
세
섹
섺
섻
센
섿
셀
셈
셉
셋
셌
셍
셎
셐
셑
셒
셓
셔
셕
션
셜
셤
셥
셧
셨
셩
셬
셯
셰
셱
셴
셸
솁
솃
솄
솅
솈
솊
소
속
솎
손
솑
솒
솓
솔
솜
솝
솟
송
솢
솤
솥
솦
솧
솨
솩
솬
솰
솸
솻
솼
쇄
쇅
쇈
쇙
쇜
쇠
쇡
쇤
쇳
쇵
쇸
쇺
쇼
쇽
쇿
숀
숃
숄
숍
숏
숑
숓
숔
숕
숖
수
숙
숛
순
숟
술
숡
숧
숨
숩
숫
숭
숮
숯
숰
숱
숲
숳
숴
숸
숼
쉅
쉇
쉈
쉉
쉌
쉐
쉑
쉔
쉗
쉘
쉡
쉣
쉥
쉨
쉪
쉬
쉭
쉰
쉴
쉺
쉻
쉼
쉽
쉾
쉿
슀
슁
슂
슄
슅
슆
슈
슉
슌
슏
슐
슘
슙
슛
슝
슟
슠
슡
스
슥
슦
슨
슫
슬
슭
슲
슴
습
슷
승
슺
슻
슼
슽
슾
슿
싀
싁
싄
싇
싈
싑
싓
시
식
싞
신
싡
싢
싣
실
싥
싦
싨
싪
싫
심
십
싮
싯
싰
싱
싲
싳
싴
싵
싶
싷
싸
싹
싺
싼
싾
싿
쌀
쌂
쌈
쌉
쌋
쌌
쌍
쌏
쌐
쌓
쌔
쌕
쌘
쌜
쌤
쌥
쌧
쌨
쌩
쌬
쌰
쌴
썀
썁
썄
썅
썋
썌
썍
썎
썐
썔
썜
썟
썡
썤
써
썩
썪
썬
썰
썸
썹
썻
썼
썽
쎀
쎄
쎅
쎆
쎈
쎋
쎌
쎔
쎕
쎗
쎘
쎙
쎠
쎤
쎨
쎳
쎴
쎵
쎼
쎾
쎿
쏀
쏄
쏌
쏍
쏏
쏑
쏘
쏙
쏚
쏜
쏟
쏠
쏨
쏩
쏫
쏬
쏭
쏱
쏳
쏴
쏵
쏸
쏼
쐇
쐈
쐉
쐋
쐌
쐏
쐐
쐣
쐬
쐿
쑈
쑉
쑌
쑛
쑝
쑤
쑥
쑦
쑨
쑬
쑴
쑹
쑻
쒀
쒑
쒓
쒔
쒕
쒘
쒜
쒯
쒱
쒵
쒸
쒹
쒼
쓉
쓋
쓐
쓑
쓒
쓔
쓕
쓩
쓰
쓱
쓲
쓴
쓸
쓹
씀
씁
씃
씅
씆
씈
씉
씌
씐
씓
씝
씟
씡
씤
씥
씧
씨
씩
씪
씬
씯
씰
씸
씹
씻
씼
씽
씾
앀
앁
앂
아
악
앆
앇
안
앉
않
앋
알
앍
앎
앏
앓
암
압
앖
앗
았
앙
앚
앛
앜
앝
앞
앟
애
액
앤
앦
앧
앨
앩
앰
앱
앳
앴
앵
앶
앸
앹
앺
앻
야
약
얀
얂
얃
얄
얅
얇
얌
얍
얎
얏
얐
양
얒
얔
얕
얖
얗
얘
얙
얚
얜
얠
얨
얩
얫
얬
얭
어
억
얶
얷
언
얹
얺
얻
얼
얽
얾
엀
엃
엄
업
없
엇
었
엉
엊
엋
엌
엍
엎
엏
에
엑
엒
엔
엕
엗
엘
엙
엠
엡
엣
엤
엥
엦
엨
엩
엪
엫
여
역
엮
엯
연
엲
엳
열
엸
엻
염
엽
엾
엿
였
영
옂
옃
옄
옅
옆
옇
예
옉
옌
옏
옐
옘
옙
옛
옜
옝
옞
옠
옢
옣
오
옥
옦
온
옩
옫
올
옭
옮
옲
옳
옴
옵
옶
옷
옸
옹
옺
옻
옼
옽
옾
옿
와
왁
왂
왃
완
왇
왈
왉
왐
왑
왓
왔
왕
왖
왗
왘
왙
왚
왛
왜
왝
왞
왠
왤
왭
왱
왴
왶
외
왹
왼
욀
욋
욌
욍
욐
요
욕
욖
욘
욛
욜
욝
욤
욥
욧
욨
용
욪
욫
욬
욭
욮
욯
우
욱
욲
욳
운
욵
욷
울
욹
욺
욽
욿
움
웁
웂
웃
웄
웅
웆
웈
웉
웊
웋
워
웍
웎
원
웑
웓
월
웕
웜
웝
웞
웟
웠
웡
웤
웦
웧
웨
웩
웪
웫
웬
웰
웱
웸
웹
웻
웽
윀
윁
윂
윃
위
윅
윆
윈
윋
윌
윔
윕
윗
윘
윙
윜
윝
윟
유
육
윢
윤
윥
율
윰
윱
윳
융
윶
윷
윸
윹
윺
윻
으
윽
윾
윿
은
읁
읃
을
읅
읆
읈
읉
읊
읋
음
읍
읎
읏
읐
응
읒
읓
읔
읕
읖
읗
의
읙
읜
읠
읨
읫
읭
읮
읰
이
익
읶
읷
인
읹
읺
읻
일
읽
읿
잀
잁
잂
잃
임
입
잆
잇
있
잉
잊
잋
잌
잍
잎
잏
자
작
잒
잔
잖
잗
잘
잚
잛
잜
잟
잠
잡
잣
잤
장
잦
잧
잨
잩
잪
잫
재
잭
잯
잰
잲
잳
잴
잼
잽
잿
쟀
쟁
쟂
쟃
쟄
쟆
쟈
쟉
쟌
쟍
쟎
쟐
쟘
쟙
쟛
쟜
쟝
쟞
쟠
쟤
쟥
쟨
쟬
쟴
쟼
저
적
젃
전
젅
젆
젇
절
젊
젋
젏
점
접
젓
젔
정
젖
젘
젙
젚
젛
제
젝
젠
젡
젣
젤
젬
젭
젯
젰
젱
젲
젴
젵
젷
져
젹
젺
젼
젾
젿
졀
졁
졈
졉
졋
졌
졍
졎
졏
졐
졑
졓
졔
졘
졜
조
족
졲
졳
존
졵
졷
졸
졻
졽
졿
좀
좁
좂
좃
종
좆
좇
좈
좉
좊
좋
좌
좍
좐
좓
좔
좜
좝
좟
좠
좡
좢
좤
좨
좸
좽
죃
죄
죈
죔
죕
죗
죘
죙
죜
죠
죡
죢
죤
죧
죨
죯
죰
죱
죳
죴
죵
죶
죷
죸
죹
죺
죻
주
죽
준
줃
줄
줉
줋
줌
줍
줏
줐
중
줒
줓
줔
줕
줗
줘
줙
줜
줝
줟
줠
줡
줨
줫
줬
줭
줮
줰
줱
줳
줴
줵
줸
쥄
쥇
쥍
쥐
쥑
쥔
쥘
쥠
쥣
쥤
쥥
쥦
쥨
쥪
쥬
쥭
쥰
쥱
쥴
쥼
쥽
쥿
즁
즂
즆
즈
즉
즌
즍
즎
즏
즐
즔
즘
즙
즛
증
즞
즠
즣
즤
즥
즨
즬
즵
즹
지
직
짂
짃
진
짅
짆
짇
질
짊
짐
집
짒
짓
짔
징
짖
짗
짘
짙
짚
짛
짜
짝
짞
짟
짠
짢
짣
짤
짦
짧
짪
짬
짭
짯
짰
짱
짲
짳
짴
짶
째
짹
짼
쨀
쨈
쨉
쨋
쨌
쨍
쨎
쨐
쨓
쨔
쨕
쨘
쨜
쨟
쨤
쨥
쨧
쨨
쨩
쨰
쨱
쨲
쨴
쩀
쩁
쩃
쩄
쩅
쩌
쩍
쩎
쩐
쩓
쩔
쩖
쩜
쩝
쩟
쩠
쩡
쩣
쩦
쩧
쩨
쩩
쩰
쪄
쪅
쪈
쪌
쪔
쪕
쪗
쪘
쪙
쪠
쪴
쪼
쪽
쪾
쫀
쫃
쫄
쫌
쫍
쫏
쫑
쫒
쫓
쫗
쫘
쫙
쫜
쫨
쫩
쫭
쫵
쬐
쬑
쬠
쬬
쬭
쬲
쭁
쭈
쭉
쭌
쭐
쭘
쭙
쭛
쭝
쭤
쭬
쭵
쮀
쮁
쮓
쮜
쮠
쮱
쮸
쮹
쯀
쯉
쯍
쯔
쯕
쯘
쯜
쯤
쯥
쯧
쯨
쯩
쯪
쯫
쯰
찁
찌
찍
찎
찐
찓
찔
찜
찝
찟
찠
찡
찢
찣
찤
찧
차
착
찬
찮
찯
찰
찳
찷
참
찹
찻
찼
창
찾
찿
챀
챂
채
책
챈
챌
챔
챕
챗
챘
챙
챝
챟
챠
챡
챤
챦
챨
챱
챳
챴
챵
챶
챸
첐
처
척
첚
천
첞
철
첥
첧
첨
첩
첫
첬
청
첮
첰
첳
체
첵
첸
첼
쳄
쳅
쳇
쳉
쳋
쳌
쳍
쳐
쳑
쳒
쳔
쳘
쳠
쳣
쳤
쳥
쳨
쳬
쳰
촀
초
촉
촋
촌
촏
촐
촘
촙
촛
총
촞
촟
촠
촣
촤
촥
촨
촬
촴
촵
촹
촺
쵀
쵁
쵐
최
쵝
쵠
쵤
쵬
쵯
쵱
쵲
쵴
쵸
쵹
쵼
춀
춉
춋
춌
춍
춎
춐
추
축
춖
춘
춚
춛
출
춝
춣
춤
춥
춧
충
춫
춬
춯
춰
춱
춴
춸
췃
췄
췅
췈
췋
췌
췍
췐
췟
췡
췤
취
췩
췬
췯
췰
췸
췽
츀
츄
츅
츈
츌
츑
츔
츕
츗
츙
츜
츠
측
츤
츨
츩
츰
츱
츳
츴
층
츶
츷
츸
츼
츽
칀
칌
칑
칔
치
칙
친
칝
칞
칟
칠
칡
칣
침
칩
칫
칬
칭
칮
칯
칰
칱
칲
칳
카
칵
칸
칻
칼
캃
캄
캅
캇
캈
캉
캊
캌
캍
캎
캏
캐
캑
캔
캗
캘
캠
캡
캣
캤
캥
캨
캬
캭
캳
캽
캿
컁
컄
컆
커
컥
컧
컨
컫
컬
컴
컵
컷
컸
컹
컻
컼
컽
컾
컿
케
켁
켄
켈
켐
켑
켓
켔
켕
켘
켙
켜
켝
켠
켤
켬
켭
켯
켰
켱
켴
켵
켸
코
콕
콘
콛
콜
콤
콥
콧
콩
콫
콬
콭
콮
콯
콰
콱
콴
콷
콸
쾅
쾈
쾌
쾍
쾐
쾡
쾤
쾧
쾨
쾽
쿄
쿌
쿔
쿗
쿜
쿝
쿠
쿡
쿤
쿧
쿨
쿰
쿱
쿳
쿵
쿸
쿺
쿻
쿼
퀀
퀄
퀏
퀔
퀘
퀙
퀜
퀭
퀰
퀴
퀵
퀷
퀸
퀼
큄
큅
큇
큉
큐
큑
큔
큗
큘
큡
큥
큨
큩
큪
크
큭
큰
큱
큲
큳
클
큼
큽
큿
킁
킂
킄
킅
킈
킌
킙
키
킥
킨
킫
킬
킭
킰
킲
킴
킵
킷
킹
킼
킽
킾
킿
타
탁
탂
탄
탆
탇
탈
탉
탏
탐
탑
탓
탔
탕
탖
탘
탙
탚
탛
태
택
탞
탠
탣
탤
탬
탭
탯
탰
탱
탲
탴
탵
탶
탸
탹
탿
턀
턉
턌
턍
턔
턩
터
턱
턴
털
텀
텁
텂
텃
텄
텅
텆
텈
텉
텊
텋
테
텍
텐
텑
텔
템
텝
텟
텡
텢
텣
텤
텥
텨
텬
텻
텼
텽
텾
톄
토
톡
톤
톨
톰
톱
톳
통
톸
톻
톼
퇄
퇌
퇘
퇫
퇭
퇴
퇵
퇸
퇼
툇
툌
툐
툣
툤
툥
투
툭
툰
툴
툼
툽
툿
퉁
퉂
퉃
퉄
퉅
퉆
퉈
퉌
퉛
퉜
퉤
퉥
퉵
퉷
퉸
퉼
튀
튁
튄
튈
튐
튓
튕
튖
튘
튜
튠
튤
튬
튭
튱
튵
트
특
튼
튽
튿
틀
틁
틇
틈
틉
틊
틋
틍
틎
틐
틑
틒
틓
틔
틜
틩
티
틱
틴
틷
틸
틿
팀
팁
팃
팄
팅
팈
팉
팊
파
팍
팎
팏
판
팓
팔
팕
팜
팝
팟
팠
팡
팢
팤
팥
팦
팧
패
팩
팬
팯
팰
팸
팹
팻
팼
팽
팾
퍀
퍄
퍈
퍌
퍙
퍞
퍠
퍼
퍽
펀
펄
펌
펍
펏
펐
펑
펔
펖
페
펙
펜
펟
펠
펨
펩
펫
펭
펰
펴
편
펹
펺
펼
폄
폇
폈
평
폌
폎
폐
폔
폣
폨
포
폭
폰
폳
폴
폼
폽
폿
퐁
퐂
퐄
퐇
퐈
퐉
퐌
퐐
퐘
퐙
퐛
퐝
퐠
퐤
푀
표
푝
푠
푭
푯
푱
푲
푴
푸
푹
푼
풀
풇
품
풉
풋
풍
풎
풐
풒
풓
풔
풕
풜
풰
풱
풴
퓌
퓔
퓡
퓨
퓩
퓰
퓸
퓽
퓿
픂
프
픅
픈
픋
플
픍
픏
픒
픓
픔
픕
픗
픙
픚
픜
픞
픟
픠
픨
픵
피
픽
핀
필
핈
핉
핌
핍
핏
핑
핓
핔
핕
핗
하
학
핚
핛
한
핝
핞
핟
할
핡
핢
핣
핤
핥
핧
함
합
핫
핬
항
핮
핰
핱
핲
핳
해
핵
핶
핸
핺
핻
핼
핽
햄
햅
햇
했
행
햊
햌
햍
햎
햏
햐
햑
햔
햘
햙
햛
햝
햠
햣
햤
향
햨
햫
햬
햰
햲
햿
헀
헁
허
헉
헊
헋
헌
헏
헐
헑
헗
험
헙
헛
헜
헝
헞
헠
헡
헣
헤
헥
헨
헫
헬
헯
헲
헴
헵
헷
헸
헹
헼
헾
헿
혀
혁
현
혈
혐
협
혓
혔
형
혘
혙
혛
혜
혠
혤
혬
혰
혲
호
혹
혼
혽
혾
혿
홀
홁
홂
홄
홇
홈
홉
홋
홍
홎
홐
홒
홓
화
확
홗
환
홚
홛
활
홤
홥
홧
황
홬
홰
홱
홴
횃
횅
횆
회
획
횏
횐
횓
횔
횝
횟
횡
횢
횤
횥
효
횩
횬
횰
횸
횻
횽
훀
훃
후
훅
훇
훈
훉
훋
훌
훍
훑
훓
훔
훕
훗
훙
훚
훛
훜
훟
훠
훡
훤
훨
훯
훵
훻
훼
휀
휄
휏
휑
휘
휙
휜
휠
휨
휩
휫
휭
휴
휵
휸
휼
흅
흇
흉
흌
흎
흏
흐
흑
흒
흔
흗
흘
흙
흠
흡
흣
흥
흦
흨
흩
흫
희
흰
흴
흼
흿
힁
힇
히
힉
힋
힌
힏
힐
힒
힗
힘
힙
힛
힝
힞
힠
힢
힣
##없
##어
##졌
##나
##보
##내
##원
##사
##꼬
##라
##지
##봐
##네
##글
##래
##머
##던
##냥
##하
##고
##가
##져
##오
##ㅋ
##았
##본
##데
##굴
##니
##넘
##좋
##아
##요
##좀
##배
##우
##는
##순
##장
##인
##이
##었
##있
##으
##려
##팔
##뚝
##문
##신
##저
##작
##권
##수
##정
##했
##마
##세
##시
##게
##쁘
##말
##로
##변
##따
##냐
##생
##활
##잖
##같
##다
##ㅡ
##병
##을
##도
##차
##님
##혼
##랑
##살
##진
##연
##임
##겜
##됬
##주
##점
##프
##리
##막
##혔
##성
##욕
##에
##찌
##들
##렸
##은
##전
##현
##무
##빼
##자
##돼
##야
##예
##르
##모
##델
##토
##짤
##또
##ㄷ
##4
##년
##치
##기
##짜
##색
##면
##용
##영
##잡
##음
##린
##알
##불
##쌍
##해
##ㅠ
##맡
##돈
##젠
##꽃
##길
##만
##걸
##삼
##옥
##서
##벌
##레
##간
##넌
##랐
##러
##번
##증
##국
##눈
##싶
##든
##건
##각
##랍
##그
##필
##비
##소
##귀
##거
##못
##받
##떠
##크
##2
##되
##죠
##적
##궄
##쳐
##심
##둥
##준
##표
##넓
##안
##ㅎ
##군
##침
##탈
##녀
##꼴
##깝
##떨
##즘
##맞
##싸
##씹
##능
##형
##망
##응
##겟
##짱
##송
##혜
##교
##민
##폐
##바
##갓
##명
##런
##씨
##여
##a
##n
##1
##B
##b
##캐
##겻
##확
##히
##쓰
##였
##위
##윌
##쩔
##업
##추
##드
##셀
##식
##와
##를
##란
##대
##의
##피
##구
##먼
##셔
##약
##난
##질
##듯
##방
##잘
##함
##외
##부
##온
##느
##제
##될
##티
##걷
##긴
##벨
##직
##젊
##감
##폰
##조
##미
##친
##개
##햇
##m
##버
##겠
##합
##떻
##뇌
##뚜
##편
##6
##백
##v
##s
##좌
##쭈
##3
##할
##희
##왜
##타
##슴
##투
##5
##킬
##봤
##믿
##짓
##쁜
##행
##등
##학
##동
##랬
##ㄲ
##당
##쩌
##착
##범
##누
##집
##유
##퍼
##일
##줄
##옌
##태
##황
##w
##F
##l
##갈
##올
##속
##ㄱ
##스
##돌
##료
##분
##겐
##률
##죄
##닐
##새
##썩
##o
##c
##t
##S
##한
##좐
##카
##총
##7
##공
##왁
##욘
##즌
##징
##종
##너
##멋
##묵
##독
##셨
##훈
##슬
##춰
##혀
##코
##밀
##악
##뭐
##목
##엇
##계
##박
##남
##트
##금
##퇘
##선
##테
##더
##싫
##물
##론
##설
##빵
##날
##갔
##ㄹ
##ㅇ
##름
##끼
##ㅔ
##케
##움
##잼
##쓴
##빈
##화
##찍
##9
##노
##웃
##잉
##엽
##빨
##품
##출
##냈
##단
##h
##d
##빰
##별
##두
##숙
##줌
##재
##밋
##석
##까
##파
##플
##청
##0
##쿵
##션
##맨
##앞
##퀴
##덱
##옹
##결
##e
##g
##겨
##북
##습
##암
##통
##렇
##닉
##럽
##낰
##늘
##존
##싹
##즈
##꾸
##씀
##츠
##뜨
##높
##뿡
##림
##때
##딱
##밤
##련
##람
##달
##닌
##칼
##템
##먹
##팅
##반
##갑
##렝
##빤
##ㅊ
##ㄴ
##발
##견
##숭
##열
##삭
##앗
##울
##후
##볼
##휴
##워
##체
##터
##복
##밌
##많
##홈
##골
##척
##격
##풍
##덜
##힌
##딸
##벵
##헌
##캔
##중
##왓
##뭔
##왈
##ㅉ
##관
##잊
##않
##싱
##써
##댜
##초
##걍
##털
##쭉
##뻗
##듀
##끝
##처
##놓
##듣
##땅
##콩
##답
##루
##쾅
##힘
##슨
##된
##호
##판
##맛
##역
##겹
##닭
##돋
##얘
##봉
##쥬
##턴
##류
##쥐
##충
##I
##월
##량
##픈
##엿
##펑
##튀
##김
##엔
##꺼
##댓
##걱
##깨
##억
##립
##켜
##언
##잇
##령
##꼐
##ㅜ
##닮
##산
##컬
##ㅂ
##굽
##셈
##콧
##입
##8
##붙
##술
##매
##둘
##락
##몰
##엄
##베
##넹
##놀
##록
##E
##램
##u
##참
##운
##꾹
##촌
##릭
##틸
##폭
##왠
##얼
##경
##흠
##애
##념
##창
##력
##흔
##봅
##실
##짰
##R
##i
##딩
##덕
##뽑
##쌀
##ㅈ
##묻
##밍
##뜬
##픔
##놨
##칙
##뺏
##뭘
##퀄
##왤
##최
##메
##럼
##짝
##딴
##것
##팬
##딕
##뜯
##웅
##꼭
##께
##읎
##웠
##왔
##십
##근
##흘
##뻐
##ㅃ
##센
##챙
##늙
##궈
##잔
##갖
##끊
##놈
##회
##깔
##양
##룹
##됐
##디
##빠
##상
##겼
##며
##른
##완
##뛰
##축
##줘
##핑
##곡
##퇴
##떴
##렛
##솔
##포
##키
##긋
##탓
##뎌
##웩
##넼
##ㅓ
##ㅌ
##급
##엑
##클
##읽
##극
##샷
##컷
##맴
##찢
##쉬
##랰
##취
##깡
##패
##뤠
##ㅟ
##ㅣ
##과
##쳤
##쑈
##닥
##쇼
##겁
##탱
##풀
##밴
##쁨
##홍
##딜
##낭
##째
##손
##옆
##벗
##빡
##법
##랭
##롱
##찮
##짘
##볍
##쟁
##ㅁ
##ㅒ
##줍
##릇
##강
##궁
##링
##략
##y
##H
##욬
##콘
##죽
##끌
##떡
##컵
##몽
##낌
##낳
##늨
##짐
##밉
##뿐
##쩐
##멀
##놔
##닷
##벽
##엘
##앤
##닝
##칸
##셧
##V
##뒈
##킨
##p
##브
##왕
##잠
##럴
##낔
##ㅏ
##촬
##멈
##랄
##멘
##틱
##촉
##ㅆ
##쿠
##냅
##쑥
##릴
##검
##옷
##벼
##쓸
##뎅
##짬
##튄
##쵸
##뒤
##렵
##커
##널
##닦
##x
##담
##ㅅ
##r
##곤
##롤
##족
##깥
##꽤
##놧
##맙
##젤
##승
##혐
##넣
##팽
##험
##철
##효
##빕
##헤
##렁
##앙
##빽
##났
##윤
##킷
##염
##페
##촤
##칠
##랗
##접
##득
##졸
##G
##특
##줬
##몇
##릿
##밟
##띵
##끔
##채
##캄
##욤
##떼
##낙
##찾
##혁
##땜
##섭
##겄
##괴
##쾌
##씬
##큰
##훨
##낫
##괜
##덩
##빅
##렬
##헐
##탑
##뭉
##꾼
##흉
##렙
##틴
##셋
##뻔
##천
##향
##믄
##팩
##늬
##잭
##팟
##탕
##찬
##곳
##볶
##몸
##섬
##큼
##녕
##빛
##쌓
##흐
##힣
##슷
##튼
##엥
##됴
##굿
##논
##C
##익
##굳
##몬
##슈
##절
##뤄
##횽
##율
##먄
##흥
##큐
##땐
##값
##측
##덮
##닙
##멍
##탄
##탁
##웡
##쫌
##택
##W
##껀
##윗
##농
##엉
##톡
##됩
##뻣
##봨
##폿
##M
##잗
##텐
##뚱
##듵
##펙
##평
##규
##허
##끄
##깜
##쫓
##댈
##헨
##뉴
##룡
##균
##녹
##옴
##갠
##뷰
##꿀
##흡
##땡
##빙
##뱡
##뱀
##헝
##항
##컸
##숨
##뜻
##밑
##덞
##랫
##쉽
##섹
##찼
##긍
##둠
##둑
##숀
##봄
##껴
##띄
##챌
##렐
##넽
##븐
##압
##엌
##젖
##쯧
##숏
##텔
##옛
##밥
##틀
##뎀
##떤
##J
##왘
##낸
##팀
##렀
##얔
##깊
##맥
##됏
##쪘
##굔
##떵
##럭
##츄
##킹
##광
##꼰
##육
##딨
##롯
##O
##곧
##꼇
##맘
##멸
##렘
##쯤
##튜
##쪄
##좈
##욥
##삘
##됨
##빻
##례
##깐
##늦
##혈
##엠
##껑
##휘
##윽
##뮤
##곽
##밖
##왼
##삽
##썼
##둬
##쳨
##렌
##젭
##챔
##쉴
##툰
##Z
##봇
##묶
##눀
##룰
##탭
##꿔
##캠
##욺
##빔
##웓
##A
##잃
##홉
##컨
##셉
##빌
##ㅛ
##혹
##뷔
##쳣
##뺐
##숱
##푼
##쿤
##갸
##푸
##뀌
##컴
##뽕
##팠
##냄
##륨
##샨
##뿌
##욱
##햄
##횐
##켄
##졋
##뽀
##삐
##햐
##k
##턱
##댄
##밸
##셰
##멤
##ㄸ
##뜀
##벳
##첬
##콤
##홧
##끗
##셐
##괘
##씸
##꼈
##욜
##쏜
##쨩
##ㅑ
##긶
##D
##롬
##댘
##므
##겤
##잣
##쁠
##춘
##짠
##얻
##냔
##눚
##앨
##맵
##짚
##납
##릹
##짯
##획
##뚫
##똥
##힐
##쒀
##블
##롭
##랜
##낚
##P
##뿜
##늗
##닛
##힙
##햏
##묘
##숰
##샵
##찡
##앉
##튭
##픽
##둔
##벅
##앵
##힉
##쏴
##T
##밝
##폴
##쿡
##헉
##뻑
##쟞
##환
##뻤
##썬
##댐
##잎
##쌈
##곰
##닠
##윅
##짭
##캉
##꼼
##굼
##셩
##춤
##꽉
##럿
##쪽
##궤
##몫
##샀
##쏘
##랙
##퍈
##짴
##챗
##륙
##웋
##걔
##찔
##룬
##U
##X
##f
##갚
##듄
##냨
##ㅗ
##깍
##좃
##쌩
##ㅕ
##찜
##곀
##L
##z
##딘
##펜
##귈
##j
##됫
##떄
##싮
##쎄
##쌤
##켰
##찰
##쫀
##덤
##벤
##킴
##깃
##쩜
##갤
##끈
##맇
##멜
##랏
##뎈
##쩍
##퀘
##썹
##쏙
##뺀
##햌
##꿈
##찻
##팝
##귄
##Y
##뻘
##뜌
##핏
##뵈
##댑
##샤
##뼈
##N
##챤
##밭
##뺌
##댕
##텍
##겉
##텅
##갇
##뱅
##쯔
##챈
##뺴
##렉
##뿔
##꼽
##똑
##퀸
##찿
##랩
##섴
##싀
##켓
##책
##펭
##K
##잰
##뎋
##잨
##쳬
##옳
##딙
##낀
##뱃
##룸
##쉑
##넛
##얜
##텨
##늠
##쇠
##팤
##윈
##얍
##쿨
##껏
##첨
##핵
##탐
##숲
##넠
##켸
##렿
##꽝
##삶
##ㅄ
##웬
##렴
##캬
##쟈
##낼
##틿
##씌
##걀
##댁
##읨
##톤
##쏨
##읍
##짧
##퉤
##넉
##협
##뢴
##렷
##쳌
##쑨
##휩
##ㅐ
##곸
##닼
##딤
##긁
##쌉
##섞
##눌
##샼
##껄
##엣
##찐
##웨
##잤
##쏠
##넨
##뇬
##벡
##륭
##뚯
##툴
##q
##귓
##객
##앱
##뀜
##샠
##깈
##힠
##뮬
##왚
##톸
##콜
##겪
##췄
##쪌
##숯
##퐁
##쿜
##콰
##돠
##둡
##툽
##Q
##랴
##뭇
##춧
##넝
##뵛
##띠
##팡
##맄
##헛
##듬
##즐
##닜
##긱
##샌
##옵
##붕
##푹
##빴
##겸
##덫
##귤
##쉰
##녁
##젱
##웹
##융
##늄
##컥
##쎈
##볐
##쎼
##삿
##쥭
##쌋
##뒀
##쪼
##겧
##뵹
##덟
##탔
##층
##퓰
##옇
##껍
##깄
##뛴
##샙
##캡
##펀
##켈
##핀
##챱
##웁
##훅
##탤
##쥰
##콕
##넷
##싼
##뜰
##똘
##ㅍ
##씁
##틐
##깠
##꽂
##갱
##꿧
##흑
##액
##앰
##즙
##졐
##헷
##핫
##칫
##탬
##칭
##퐉
##겈
##릎
##꿇
##팍
##씩
##숴
##뺨
##뒷
##얗
##띁
##귑
##픅
##즉
##퇄
##쫄
##핸
##풋
##얄
##홀
##틈
##혓
##쥔
##썸
##맺
##렆
##쉐
##죤
##홐
##깤
##섯
##펴
##봣
##꽈
##릅
##츸
##슥
##냡
##컽
##튕
##븋
##붘
##댱
##쬐
##잦
##셤
##젓
##덴
##꽁
##녓
##컼
##떢
##듸
##앜
##썎
##얒
##렠
##샐
##쳉
##넴
##폼
##윷
##떳
##톰
##뱌
##췩
##킵
##긐
##빚
##욧
##랖
##썻
##샴
##쫙
##낮
##킥
##첫
##츤
##갋
##껬
##숔
##곱
##윕
##냠
##욷
##콥
##힝
##찹
##쟤
##켠
##얐
##챘
##덧
##랔
##훔
##멕
##쌘
##짼
##즤
##뉸
##윳
##횡
##뜸
##쉔
##닫
##줭
##흙
##녜
##씻
##잌
##샘
##쮸
##룩
##꺠
##죙
##쐈
##튠
##넬
##쌔
##빳
##핟
##뤼
##쥑
##튬
##썰
##쨈
##맑
##훼
##쇄
##갘
##뎁
##헬
##뿍
##낑
##냉
##い
##뼛
##믕
##툭
##뢰
##읭
##톱
##찎
##봊
##쩡
##죶
##핮
##캣
##탠
##뻇
##쑤
##윙
##섰
##짖
##앴
##죵
##뗑
##졷
##괗
##썌
##맠
##붐
##묭
##퉁
##쭝
##릉
##샛
##숟
##젬
##뭡
##짇
##쟝
##붓
##낯
##쉿
##깬
##녤
##벙
##뱉
##윾
##쵝
##헀
##쫑
##눅
##맬
##솤
##됌
##햅
##꿨
##뇨
##뿅
##둨
##첸
##귕
##킁
##꺽
##졓
##뭄
##툇
##좆
##깼
##땀
##닿
##뿝
##웟
##뀐
##첩
##믹
##옮
##떱
##퉷
##쉼
##벋
##륜
##뺍
##깅
##곁
##켁
##웤
##펠
##엊
##뭍
##웰
##첼
##괔
##얌
##멧
##풉
##깎
##텀
##갬
##굥
##톨
##쨰
##쩝
##긔
##띢
##띡
##훌
##돕
##옺
##녔
##춌
##붉
##걌
##뉘
##젝
##렼
##젋
##읹
##숩
##쉗
##듴
##쎅
##맼
##뵙
##폈
##빗
##넿
##쏑
##뺑
##딬
##츈
##옻
##맍
##팥
##쨋
##쭘
##꿘
##줫
##뀀
##퐈
##텢
##맹
##씽
##둦
##됀
##탯
##눴
##땋
##ㅝ
##퓨
##칩
##쳑
##촘
##갯
##젹
##챀
##멎
##옶
##쎀
##쁀
##숫
##퍞
##댔
##펄
##왑
##쫘
##죗
##냌
##꿩
##슝
##탘
##얏
##쇽
##죈
##퉄
##낟
##썪
##똫
##됔
##슼
##닯
##콸
##팁
##잽
##꽥
##얽
##쪗
##킼
##얀
##닪
##엨
##솜
##쌌
##셜
##엮
##펐
##앟
##죧
##뷴
##넵
##엎
##갛
##쿼
##펩
##싷
##냇
##덛
##흫
##짙
##넥
##슛
##옄
##끕
##횰
##묜
##멩
##딥
##팰
##뎃
##뵜
##앸
##샹
##룤
##눜
##눞
##딧
##눕
##졍
##땄
##컄
##귐
##샇
##뿰
##눠
##텃
##텄
##쥴
##낍
##갗
##짢
##괞
##듢
##놉
##퀭
##륵
##낵
##욌
##좁
##낄
##ㄳ
##멉
##펍
##끾
##뢈
##횃
##밎
##읏
##넫
##뜩
##븅
##뮨
##뵤
##쌨
##쯩
##엋
##롹
##듭
##딛
##괁
##썽
##쉡
##땃
##햣
##얇
##몃
##짛
##롴
##뚤
##롥
##ㄺ
##흣
##챠
##뭥
##뭣
##빢
##놐
##쳇
##뎨
##먀
##뮫
##쭐
##싯
##놯
##뚠
##맀
##욐
##겱
##콭
##죰
##겅
##횟
##봏
##슙
##떰
##렜
##쒸
##몄
##삥
##뽄
##젔
##궃
##밐
##긿
##읔
##띤
##섀
##쟎
##랸
##맟
##훤
##똭
##뇽
##괭
##땟
##쎔
##꺄
##눔
##렺
##텻
##캇
##ㄻ
##턔
##뎄
##쇺
##쾨
##혤
##겯
##ㅖ
##썅
##왹
##믈
##켘
##폣
##닊
##좔
##겆
##앆
##맣
##켯
##돚
##잜
##몹
##쳔
##껐
##혘
##샸
##긑
##쨌
##헠
##돗
##갴
##쓱
##룻
##롸
##쟼
##끓
##뫼
##멱
##굨
##뀔
##쭁
##읕
##롷
##싄
##딪
##핼
##긷
##윰
##꿍
##뻰
##젼
##밈
##뫌
##밬
##싲
##찝
##롼
##덬
##빯
##앀
##떈
##싴
##봌
##뽈
##웧
##쉨
##뵐
##쌜
##삳
##돔
##즣
##뜹
##숄
##땨
##햔
##슠
##쿧
##켔
##싿
##솟
##흰
##홰
##튁
##뫀
##닳
##큘
##쿄
##븝
##및
##밣
##쏟
##쫃
##헿
##깽
##킄
##셬
##햬
##눼
##펫
##깟
##륀
##뵘
##찟
##캌
##뗴
##킈
##쨍
##꺳
##얹
##갭
##젛
##쨔
##껌
##뽜
##튽
##틔
##뛸
##붑
##쳅
##랓
##췌
##뿨
##눙
##꾀
##췬
##맏
##팎
##췃
##슘
##윜
##뿟
##햫
##핍
##쫍
##븡
##넡
##켬
##콬
##뽐
##훠
##꿰
##픚
##춥
##듈
##빜
##슄
##줰
##캥
##죜
##즹
##렄
##슺
##텟
##っ
##ぽ
##ん
##だ
##겮
##틍
##숑
##텼
##퇫
##딲
##ㅙ
##얖
##흼
##씼
##핧
##겡
##팜
##뺄
##굶
##낅
##깁
##훗
##탉
##셍
##뽚
##햤
##줴
##쮜
##쏭
##큲
##ㄿ
##쟀
##샞
##햠
##얶
##꾜
##첮
##싳
##な
##먜
##뻡
##밨
##릐
##칰
##캅
##짔
##꺾
##섣
##덥
##띨
##솨
##뮈
##좟
##묫
##뻥
##쎌
##앎
##녘
##줜
##뜽
##넙
##쑌
##벘
##싣
##샃
##욯
##맜
##깰
##벜
##샬
##캨
##뱁
##룪
##홎
##탸
##쵀
##뎠
##옜
##괄
##훜
##핕
##떽
##슌
##씰
##큿
##밷
##갿
##쿸
##륾
##퓽
##넋
##봥
##붜
##쐇
##펨
##돜
##빱
##읗
##ㅀ
##즁
##콷
##쎠
##놕
##톄
##늣
##꿋
##돰
##웍
##룐
##컹
##몐
##쬬
##똴
##줠
##슂
##옼
##긎
##슉
##둉
##낏
##깉
##핡
##잏
##챴
##넜
##밧
##ㅚ
##윀
##힛
##쭤
##읅
##흏
##짞
##땤
##팸
##틋
##쯥
##팼
##땠
##굵
##몈
##롵
##딞
##믓
##됄
##맃
##엏
##뙤
##맷
##칻
##퐄
##ま
##샏
##홤
##픕
##퀵
##졉
##텝
##쥼
##룽
##큽
##떔
##낡
##쉣
##럒
##켑
##벟
##읙
##팻
##읒
##늑
##깞
##듦
##덯
##굉
##텡
##뢀
##휨
##뎊
##뾰
##랟
##걐
##쟘
##땈
##봬
##ㄼ
##앖
##잫
##럐
##뺠
##셯
##곙
##댸
##읊
##젴
##뷸
##욖
##귿
##몀
##뱔
##뗐
##젙
##뻬
##헣
##갉
##앻
##늅
##캑
##쬭
##덷
##끤
##냘
##줵
##앓
##콱
##붸
##쎘
##홥
##멓
##탇
##멥
##븀
##핌
##곹
##땩
##쭙
##킭
##뭬
##욀
##휜
##쉘
##깻
##닸
##큨
##륻
##샄
##쥘
##닏
##핳
##펌
##엸
##끠
##び
##럤
##핱
##륰
##횤
##뤘
##뗏
##혠
##싢
##홋
##빋
##퉂
##쎨
##퀼
##넒
##잿
##곗
##떆
##폇
##괸
##곃
##먖
##릳
##뀨
##츰
##벞
##옿
##읋
##옅
##쥣
##곘
##됭
##칬
##쁩
##팓
##쀨
##숮
##퍄
##넄
##훟
##뚹
##꾾
##홓
##옲
##쏵
##뭌
##븜
##찤
##졔
##봑
##굣
##퓿
##엳
##삻
##줏
##뎟
##쿰
##쭵
##횅
##솢
##럲
##뀤
##춬
##껫
##슐
##췍
##캍
##젇
##꾿
##햍
##ㅢ
##ㅘ
##밮
##얩
##갰
##븈
##죱
##셓
##쁟
##ら
##걘
##쨓
##좉
##봘
##귱
##걑
##쫒
##휠
##쐬
##뎐
##쟠
##춍
##쨴
##쟉
##헹
##믝
##웄
##픗
##듁
##딫
##렫
##꿎
##궉
##퍽
##볏
##꿉
##핥
##놌
##푠
##럷
##먚
##텈
##랠
##왝
##횬
##썟
##쒜
##섵
##롣
##쩨
##깸
##믺
##됍
##챵
##엡
##탴
##썡
##텁
##뗀
##굮
##텤
##읠
##톼
##핬
##쟜
##캘
##욪
##떙
##갵
##옐
##짆
##콮
##힗
##쭌
##훵
##씅
##겋
##먕
##찧
##뗄
##쇤
##쬠
##₩
##읰
##섶
##싨
##씃
##쎕
##쐏
##엍
##춴
##뫄
##웜
##뺸
##쌰
##궜
##끙
##랲
##듲
##엾
##젘
##롧
##맸
##줐
##칵
##솩
##촐
##촣
##뉜
##릍
##웻
##핈
##쐌
##ㄶ
##쪙
##뤌
##츙
##쉅
##닲
##뿛
##꽆
##웈
##멶
##룁
##댖
##쟨
##궂
##쓩
##ㄵ
##넢
##똡
##흴
##몆
##뻠
##씯
##멬
##쇙
##펏
##낱
##쎗
##밁
##츷
##룟
##쟌
##튈
##얾
##빸
##엪
##썐
##쩃
##쉥
##밲
##쁭
##윸
##겔
##깆
##봦
##칲
##뚣
##뺼
##됑
##얺
##릌
##졑
##쯍
##릏
##팹
##탵
##뻄
##텽
##쟬
##쏚
##잲
##の
##か
##싑
##갼
##홇
##꽹
##눍
##밯
##꼉
##쏼
##웸
##긩
##쩠
##죕
##줔
##괒
##멨
##됒
##잟
##뻨
##갞
##솎
##꺜
##쌕
##옽
##샾
##쉭
##롄
##낐
##몯
##럾
##큭
##륑
##놰
##툿
##뭞
##쳄
##돳
##줃
##걈
##쥨
##뭨
##닧
##핢
##닞
##쀼
##삯
##곷
##펼
##툼
##셥
##뫈
##샊
##줗
##옘
##썜
##틷
##얷
##잴
##짅
##귘
##벚
##쫗
##귴
##촥
##욨
##칝
##붅
##듕
##핰
##핻
##븤
##쪈
##픠
##삔
##뱄
##칳
##쪾
##싰
##쨜
##랳
##앍
##쟄
##횔
##둗
##ビ
##サ
##펖
##쩖
##に
##쎴
##멷
##둣
##뽁
##섮
##먆
##や
##す
##み
##で
##읺
##덙
##츗
##옾
##랂
##꿜
##욮
##솥
##몌
##꺨
##셌
##샥
##퐘
##쌥
##뭅
##볗
##깂
##읶
##샅
##읓
##캏
##팧
##뇸
##됸
##럄
##롶
##쉈
##닽
##뫳
##쉉
##깿
##듐
##듷
##냑
##먿
##덪
##딍
##왱
##붇
##ㅞ
##귾
##젰
##튱
##끽
##럳
##겾
##욛
##햝
##욭
##텥
##좠
##쟛
##뷱
##켴
##뺒
##돟
##볕
##쑝
##멏
##좇
##턍
##찯
##앚
##굄
##퐝
##묽
##퐛
##숍
##짪
##횢
##햲
##칞
##촛
##벸
##셕
##럇
##엲
##늤
##븧
##슾
##샜
##핚
##똔
##놤
##싦
##묠
##냣
##컾
##섷
##굏
##밞
##겓
##풕
##괌
##읮
##갷
##씈
##쨐
##녠
##쌐
##엗
##띈
##촨
##컫
##뺻
##걋
##잆
##놎
##짊
##궹
##읁
##쿱
##퐌
##뵨
##눋
##뛀
##껨
##휭
##쯕
##씐
##룃
##뇜
##쯫
##믾
##뗸
##챦
##늛
##짳
##캤
##팈
##밪
##쾤
##랼
##읻
##젯
##ヨ
##ン
##뗔
##옭
##밂
##앇
##쏄
##겢
##긌
##얙
##붹
##뤀
##랃
##잍
##밓
##늉
##혰
##쪠
##웱
##뱐
##쇈
##걹
##힢
##흨
##얕
##븟
##뵀
##뮌
##캈
##뽝
##킫
##꺰
##픓
##즠
##녖
##퍀
##렂
##픙
##쎵
##뤡
##빝
##웎
##핔
##휑
##젷
##옠
##젲
##펔
##뀰
##됵
##땔
##푴
##짹
##긒
##륽
##죳
##헜
##욽
##읆
##몁
##껜
##읜
##땁
##넺
##멌
##됰
##ㄽ
##홬
##왐
##옸
##ブ
##뻈
##쑛
##굤
##빧
##뭠
##쏌
##땽
##횆
##뵥
##좝
##몋
##뺘
##뫃
##죸
##섕
##즍
##뷁
##좍
##붤
##꽄
##뿩
##퐤
##좡
##뇩
##셑
##꼿
##곻
##춋
##츨
##껭
##텋
##쮹
##댤
##쏀
##꺵
##턀
##샂
##좜
##펟
##は
##쎳
##줮
##돞
##짟
##뱈
##믁
##녅
##꺅
##쯘
##첵
##팕
##잛
##놬
##돝
##잁
##쀵
##씪
##뽘
##챝
##풓
##졎
##녬
##튖
##촹
##숸
##먐
##젺
##퐂
##퇭
##둿
##뉨
##옫
##햿
##떣
##줸
##즛
##럈
##쏬
##윃
##ー
##귝
##긘
##궛
##꺤
##욍
##뒛
##짣
##셸
##킿
##쿻
##쨕
##뚥
##퀀
##샋
##뎡
##쁫
##켐
##냬
##븍
##묏
##찁
##깦
##쫏
##얬
##떸
##닣
##뙇
##뭀
##귔
##꽐
##냤
##탞
##첰
##꽊
##꺗
##봍
##뒺
##쓔
##삑
##늫
##듫
##젅
##팦
##슽
##け
##벐
##뎆
##뭏
##룝
##삡
##샆
##뫙
##뢍
##븹
##츕
##똬
##갹
##륩
##헥
##혾
##싪
##넞
##솓
##튐
##롲
##핣
##짦
##풔
##똨
##텆
##랁
##쑦
##끉
##돤
##뎜
##숳
##깹
##뒄
##뼉
##듘
##쑉
##쯪
##떗
##렃
##츼
##텣
##풰
##짂
##쓉
##먈
##뀬
##믖
##챟
##웽
##얃
##찷
##줓
##흩
##깒
##쥥
##팃
##쯨
##궐
##ち
##쏏
##죻
##왙
##똣
##お
##녿
##벝
##꼤
##췈
##켭
##곅
##럣
##쳘
##휼
##ょ
##う
##뢉
##믜
##쨘
##볔
##봵
##쳒
##뀠
##줙
##봭
##쮓
##듥
##륄
##잳
##쟙
##읿
##쌬
##횝
##폳
##빎
##씧
##댗
##팢
##웞
##헸
##픜
##툐
##왭
##뚁
##캃
##た
##る
##し
##캳
##뒹
##뜅
##쨲
##풜
##띔
##볌
##뺵
##봫
##츳
##띳
##쫩
##챕
##슦
##됻
##뙈
##뻉
##꺴
##퐇
##맗
##펰
##욹
##쉌
##밫
##큄
##셎
##휙
##귬
##씾
##쌧
##씟
##쟃
##훙
##븨
##욵
##갲
##뷘
##죨
##껔
##왴
##뽯
##촀
##띾
##믘
##뎉
##덝
##둏
##윶
##앋
##さ
##늌
##뚞
##됗
##쉇
##뉙
##겎
##퓌
##졀
##늪
##큔
##뽂
##줒
##늕
##돡
##닢
##떘
##휸
##앝
##쎾
##벴
##뀝
##튵
##튘
##벹
##횥
##틑
##쒵
##툌
##곶
##탏
##훀
##솼
##슀
##늧
##킅
##돧
##잂
##졵
##눳
##뼤
##츜
##믐
##쇡
##チ
##ャ
##닩
##텉
##섻
##틉
##힇
##졈
##룔
##넸
##꼮
##딋
##슆
##끅
##뼝
##냏
##껒
##잋
##뮍
##뱜
##멐
##칀
##픂
##볠
##냼
##퍠
##띰
##땍
##폄
##깢
##놩
##ば
##わ
##뒁
##픵
##뇁
##뱝
##줟
##얎
##볘
##믇
##り
##て
##く
##릥
##렞
##냍
##텂
##뤃
##씤
##휫
##댇
##쵹
##볾
##섁
##끍
##깪
##뤱
##볻
##딎
##줉
##엤
##놥
##묷
##댬
##뙁
##옙
##긺
##봙
##넀
##맻
##쳍
##뚀
##큗
##뤔
##벻
##퇵
##딝
##붚
##햑
##훋
##퓸
##죔
##젆
##웫
##뜷
##챸
##귁
##닾
##섫
##썤
##뀡
##뛷
##앳
##쫭
##뵌
##읫
##닟
##줳
##똮
##め
##탖
##쩩
##륍
##뚬
##춚
##꽌
##즔
##쩦
##셒
##곪
##웕
##똗
##삣
##덢
##쥤
##읐
##곯
##뽭
##놋
##뗘
##켱
##뜼
##줡
##톳
##똌
##쾡
##썔
##섔
##쒯
##쵤
##뱩
##벆
##겍
##쨉
##솃
##뜛
##놸
##뾱
##웦
##큥
##컻
##걉
##윟
##휏
##똒
##솊
##띅
##뗬
##딻
##탹
##큪
##꾐
##뭩
##팉
##쥿
##팏
##뱍
##앹
##곺
##뒥
##엙
##끋
##탶
##ガ
##ル
##옩
##긓
##졳
##픞
##췟
##뎇
##쉪
##섿
##츌
##혽
##웂
##깑
##잀
##쩟
##푱
##꿤
##읉
##눤
##윿
##꼻
##힞
##윆
##캭
##맫
##좽
##콴
##몾
##걜
##찣
##낞
##띙
##귯
##엀
##륹
##젣
##픟
##휀
##뤗
##봔
##윘
##궇
##앏
##먽
##꿏
##뇤
##곜
##챨
##덨
##늇
##듼
##섲
##꺱
##뵬
##좨
##쩀
##휵
##픋
##숼
##퓔
##봽
##죷
##솝
##죘
##먾
##닺
##뵴
##졜
##솒
##늡
##훓
##췋
##굷
##웊
##꼳
##촙
##쭛
##핶
##풐
##솰
##벶
##늼
##췽
##욫
##잪
##밿
##밢
##녈
##튿
##쯜
##슿
##쾐
##쫜
##챂
##돨
##헙
##븓
##뼘
##킾
##눨
##닡
##셱
##뽱
##쥍
##씝
##끛
##뗵
##왇
##솅
##끞
##삠
##띻
##꺀
##됮
##봟
##핺
##뉵
##큡
##뺕
##섘
##촠
##볁
##낗
##돵
##쳥
##슫
##랒
##굘
##헴
##숖
##촺
##밚
##꽅
##맚
##쨨
##왛
##뿓
##꽦
##ㄾ
##쑴
##삲
##レ
##キ
##흿
##뼊
##릃
##딷
##쀄
##빩
##췰
##궨
##혲
##궅
##츅
##멺
##쏳
##옞
##싵
##쒼
##앂
##똠
##윝
##퀏
##흗
##맆
##붼
##묄
##쒔
##빘
##윺
##슁
##즵
##맂
##띀
##턉
##켕
##끡
##퍙
##롓
##먁
##랆
##뤤
##춸
##촵
##춎
##イ
##돪
##뭦
##큳
##맋
##돘
##졲
##핉
##밗
##쾽
##탰
##훻
##뮷
##엫
##ゃ
##즂
##좸
##땻
##푝
##뜃
##껸
##냊
##턩
##괫
##욲
##쨥
##솦
##튤
##밡
##훑
##돛
##핲
##헼
##싺
##쇜
##롪
##ざ
##헁
##뽤
##넎
##ヲ
##쨀
##쟴
##댯
##뮉
##멊
##왃
##풴
##큱
##뤽
##륌
##꺔
##덖
##똦
##앦
##녴
##쏩
##떾
##딀
##솸
##냫
##싡
##끰
##훕
##욳
##맅
##뢔
##듳
##뭃
##껗
##숕
##켙
##돾
##휄
##띕
##닶
##쪔
##콯
##붎
##뮜
##쳰
##럪
##쩄
##캎
##헑
##퀜
##탂
##뭴
##꿐
##윂
##쓐
##쉾
##뫨
##춱
##씡
##뽠
##떜
##첞
##짃
##횏
##랈
##뤙
##뱨
##ど
##ひ
##띺
##ゴ
##リ
##홂
##쐐
##흒
##봪
##읃
##빭
##띱
##땬
##틇
##텑
##꺕
##햊
##픨
##큅
##쏱
##떫
##뻦
##걵
##얨
##볭
##뗌
##퐐
##핤
##겦
##슻
##짶
##뮋
##싁
##겝
##ご
##퉜
##긏
##뿤
##쁙
##왉
##앁
##틓
##솁
##폽
##줱
##걺
##냒
##켤
##쟥
##븢
##츑
##쨎
##댴
##햨
##굡
##뮴
##즨
##빐
##릔
##횩
##얠
##횓
##랕
##듟
##쪴
##맖
##홚
##턌
##と
##섥
##옝
##쳋
##쪅
##댵
##댭
##섟
##늟
##쥱
##큉
##좤
##힁
##먘
##뒬
##こ
##씥
##꾺
##쵠
##꿓
##훃
##늩
##샡
##퉅
##き
##졏
##텊
##췸
##킰
##쵐
##쳠
##걻
##싾
##햘
##벰
##낛
##샣
##뇐
##멫
##졽
##챡
##붠
##츶
##엯
##뫔
##뎔
##뷷
##쌏
##훉
##が
##빞
##잚
##긤
##ニ
##マ
##큇
##졁
##쟐
##삵
##틜
##첥
##쭬
##겷
##홗
##솄
##픍
##쩧
##핓
##뉩
##쩁
##칡
##곈
##쇅
##뚭
##쑹
##뗼
##퉃
##깩
##뫠
##쁴
##뎓
##뒵
##돽
##졿
##쮱
##꾳
##뉑
##옂
##쮀
##ろ
##퍌
##픒
##곌
##슏
##쨟
##앧
##벖
##욿
##흇
##봆
##뿠
##´
##롕
##췯
##긧
##쇸
##흌
##붏
##뒝
##끜
##녆
##팊
##륫
##퉛
##퐠
##궘
##쿔
##よ
##렦
##れ
##뉍
##웪
##벣
##걿
##췤
##옉
##첧
##ザ
##핽
##쒓
##쥇
##솑
##홱
##숧
##쾍
##쁄
##웝
##괵
##웆
##괼
##븃
##쒕
##늰
##깋
##냪
##늏
##즎
##펹
##콛
##횻
##넑
##죃
##헡
##뵁
##ラ
##칑
##맒
##뻒
##믽
##둖
##꿑
##껙
##훚
##쀅
##잧
##뻭
##웑
##뭑
##죯
##늍
##렑
##썋
##맔
##퉈
##욋
##벱
##쀠
##쾧
##쩓
##븰
##읈
##춐
##뭤
##꿁
##쵯
##굌
##깖
##쒱
##귭
##뢋
##풱
##쏫
##늜
##붵
##뤈
##삪
##죺
##뢌
##롁
##릡
##윢
##엻
##맢
##벾
##썄
##뚧
##댛
##ド
##얭
##먺
##떌
##긲
##낧
##홛
##뻫
##뺃
##긂
##윱
##굲
##햎
##펺
##촋
##놘
##븉
##옏
##둴
##쿺
##췐
##칱
##뙨
##릶
##윥
##윔
##넏
##땰
##갂
##묨
##쑬
##쇳
##끀
##폌
##쁌
##멅
##쵼
##쎤
##춫
##쒹
##싥
##탲
##뉔
##ウ
##칮
##숡
##몟
##깾
##쐉
##퉵
##떧
##뛔
##랮
##녇
##퉥
##걨
##큑
##츀
##텾
##ェ
##돱
##탚
##줋
##츴
##봈
##랶
##ョ
##ハ
##찠
##탛
##줕
##댲
##릘
##쒑
##젏
##틊
##짗
##꿕
##헫
##캗
##ヤ
##짒
##쓕
##텬
##혙
##뒨
##잒
##씆
##폎
##あ
##빶
##냦
##탆
##꼵
##싞
##럮
##늚
##윻
##솻
##츩
##췡
##홁
##솧
##믑
##귣
##핝
##틩
##젚
##읖
##뢩
##툥
##낻
##룆
##뭊
##랋
##탣
##꿴
##챳
##봗
##꾲
##킲
##챶
##킙
##혛
##쵁
##낣
##싇
##햙
##얅
##슭
##쩰
##뇰
##췅
##뤟
##롡
##얚
##젾
##릯
##훍
##춉
##츔
##쵴
##ね
##뒙
##쌴
##뮛
##뚸
##ナ
##멻
##잩
##렅
##쥠
##꼣
##볹
##힏
##갶
##헾
##젿
##콫
##죡
##맪
##셴
##늊
##뮹
##쇿
##놂
##쎋
##쎙
##푯
##뵉
##넾
##쩎
##춝
##뺗
##퉸
##꺋
##뀪
##칟
##캽
##갍
##쓋
##숃
##뽷
##깇
##툤
##뽬
##싓
##썁
##쬑
##튓
##쫨
##뷩
##쪕
##혬
##웉
##숛
##좊
##쨱
##쨤
##짲
##뀸
##믣
##썀
##뎤
##몿
##폨
##뤂
##쏍
##쿗
##뭋
##궀
##큩
##봒
##슟
##칣
##탙
##칯
##놜
##넖
##뿽
##싈
##즆
##뚷
##낪
##뱆
##틎
##밃
##ク
##툣
##찳
##빏
##켝
##벢
##븥
##낶
##삦
##픏
##깣
##킌
##쿌
##뤕
##엩
##좓
##퐙
##벧
##엦
##롑
##슲
##쥽
##닰
##첐
##엕
##윁
##껲
##앛
##뫅
##돴
##곢
##쬲
##꼠
##룜
##쌂
##컧
##욝
##쐣
##춣
##앶
##뮝
##곴
##긇
##뜍
##쟂
##핗
##좢
##벍
##톻
##첚
##떋
##앺
##뷍
##붊
##왂
##덍
##쏸
##틁
##덹
##쯉
##밒
##솬
##읷
##컆
##뤜
##씉
##댰
##꼷
##メ
##쁮
##럻
##퉆
##홴
##쓲
##캿
##덌
##뫁
##팄
##팾
##뼨
##먻
##꿂
##몣
##졘
##힒
##엃
##쩅
##롘
##덵
##꼹
##찓
##쿝
##숓
##뷐
##죴
##딹
##즞
##쮠
##윋
##빣
##ム
##춯
##옦
##몼
##껚
##봎
##낝
##혿
##룯
##젡
##썍
##즥
##죹
##ㅋㅋ
ㅋㅋㅋ
ㅋㅋ
##는데
진짜
##니다
너무
##ㅋㅋㅋ
##세요
아니
##는거
##네요
##으로
##으면
##ㅠㅠ
##어요
ㅋㅋㅋㅋ
##에서
ㄷㄷ
##이네
그냥
##하고
##하는
##인데
##하네
##이다
##이라
그래
##하다
##인가
이제
연기
##은데
여자
##합니다
##들이
##겠다
##구나
사람
ㅠㅠ
##야지
근데
결혼
##하지
##니까
이쁘
좋아
##이야
아이
##이지
나오
행복
##하게
##던데
얼굴
##해라
##하면
##라마
응원
재밌
##라고
##까지
##보다
##다고
이거
축하
##고싶
##나요
남자
역시
##지마
##ㅋㅋㅋㅋ
기사
##렇게
오늘
##사람
이게
ㅎㅎ
##해요
##하세요
##이팅
이런
그만
##한테
##한다
많이
##는게
ㄹㅇ
우리
누구
##이랑
##ㅜㅜ
##해서
재미
아닌
##ㄷㄷ
##잖아
정말
##더라
힘내
방송
##이나
드라마
지금
##00
##아니
생각
연예
##겠네
##들은
##나오
노래
사랑
##부터
이상
##이가
기대
##어서
##습니다
화이팅
무슨
기자
모르
##하시
아직
##는건
##리가
##레기
어디
예쁘
##입니다
##같이
##한거
##아요
제발
좋은
최고
##진짜
##주세요
##리는
다시
하나
##같은
##ㅎㅎ
##구만
보기
이건
##대로
언제
##너무
##겠지
##하나
연예인
누가
##하자
##이면
##거같
##럽다
##보고
배우
여기
##가요
##인줄
ㅜㅜ
둘다
##에요
사진
댓글
대박
응원합니다
##이냐
빨리
요즘
##것도
##라도
보고
##한데
잘생
##들어
이미
그런
그러
##아서
##이는
이쁜
둘이
##어울
##소리
ㅡㅡ
완전
그래도
엄마
프로
##했다
##해야
들어
누군
솔직
나이
그럼
##하는거
##다니
하지
##이었
하는
귀여
ㅉㅉ
##려고
스타
##ㅡㅡ
##정도
게임
##oo
##시다
아님
이걸
군대
##해도
##려요
##보네
나도
##an
정신
##하냐
##했네
대단
한국
저거
10
ㅠㅠㅠ
내가
아무
나와
##어야
##이스
##나라
##없다
별로
##가지
##리고
멋있
영화
ㄱㄱ
##리네
##여자
##기가
같은
##면서
##고싶다
엄청
##배우
안되
##좋아
##지않
머리
한번
악플
##기사
##인이
뭐야
저런
##았네
이뻐
이번
다른
##지만
##처럼
매력
이렇게
솔직히
##말고
얼마
##지도
하고
##문에
아빠
문제
##지는
진심
그래서
잘못
##았다
##을듯
##었다
관심
##없는
##을까
괜찮
##스트
귀엽
##기는
느낌
같은데
어떻
힘내세요
##들아
##ng
##지마라
##아닌
멋지
##아님
##아라
행복하세요
##스타
좋다
##다가
ㄷㄷㄷ
제일
축하드
이혼
원래
##보면
##줌마
##어도
같이
ㅇㅇ
계속
보여
다음
불쌍
##가자
승리
건강
##호감
##텐데
##된다
##중에
그거
##으니
아까
어울
##했는데
이쁘다
##새끼
##이쁘
##었는데
##은거
##ㅏㅏ
##드라마
##즈아
쓰레기
##기네
##고있
##시간
##해보
바로
##나와
md
방탄
20
어떻게
하네
인생
##gd
##연기
예쁜
##아가
남편
항상
##아야
개같이
##하는데
성형
다들
##나가
##었네
나왔
##는다
노잼
##없어
일본
없어
##인듯
##린다
##인가요
아니라
인간
mdgd
벌써
좋겠다
##했어
##상이
##프로
##지가
시간
##수도
아깝
이러
가자
##시길
얼굴이
하면
아직도
못생
어제
##자나
##수가
##보는
##얼굴
##거야
##라이
ㅈㄴ
언니
##남자
미친
##지네
뭔가
##보기
##더니
##건가
없다
이름
##수있
오래
##이고
##이라고
연애
일단
##같은데
좋아요
##러워
##같다
플레
사귀
##사랑
##ㅠㅠㅠ
##혜진
문재
잘어울
사실
기다
보는
생겼
##방송
##어라
나가
가능
##다는
해라
뭐가
제목
##할듯
##님이
부럽다
##이들
##게임
##았는데
##하라
혼자
##봐도
이분
30
만나
##이네요
비호감
미쳤
예뻐
##머니
##지막
##인지
##해주
그렇
그렇게
##성이
##있는
사기
왜이
##정이
저게
는데
##현무
##자기
그게
ㅇㅈ
##생각
부럽
이유
니다
관종
아들
##적인
##거지
궁금
##언니
##인다
##난다
##나보네
##끼리
시작
처음
그건
보면
친구
얼마나
##었어
##냐고
듣보
인정
##없음
기안
##수록
한혜진
어쩌
##OO
없는
##재밌
누나
아줌마
##는거지
##아아
##커플
이야
힘들
아닌가
##있어
내일
두분
돌아
##었음
헤어
가즈아
잘하
##보니
어케
##간다
시즌
##만에
##전드
귀여워
##라는
있는
아쉽
##는거야
중국
마지막
광고
자기
가족
##보여
해야
##el
시청
전현무
조용
##긴해
##이였
소리
축하해요
나는
##라서
이기
##on
##러운
부부
##에게
애들
아니고
##가는
##라니
안타
##주는
##han
이해
세상
잘생겼
##있네
마음
##전에
##혜선
##봐라
##없네
##복을
보고싶
100
##때문에
예능
어차
니가
##하지마
##지말
##저씨
아이유
김치
##재현
하자
##진다
##거같은데
정준
없네
##온다
나라
##시네
이젠
한다
다이
겁나
##스럽
눈물
있어
##사진
안나
##결혼
##이크
하차
##기도
사람이
##ㄱㄱ
##인의
이래
러너
살아
믿고
##을때
저렇게
##같네
##재석
그래픽
아구
##나래
##이상
롤체
사이
어차피
##자가
갑자기
##보이
##있다
##있음
유미
기억
고생
##립니다
1등
##놓고
##그래
가지
##od
##ea
##했음
멋진
##같아
##그램
##는지
##이형
커플
##해야지
아주
##축하
##조건
ㅎㅎㅎ
존나
세요
좋음
##머리
##스터
##가서
자꾸
개웃
##심히
누군지
##많이
아프
##스가
##사가
기레기
##하네요
##기만
안돼
##좋다
##들도
이즈
##먹고
부모
##혜교
좋겠
여자가
##부부
##거리
성공
왜케
싶다
떨어
점점
##하니
꿀잼
##나네
레전드
##그만
같다
##는구나
수준
##졌네
##모르
수지
싫어
##보자
만들
##마다
에휴
##하는게
축하드려요
자랑
##게요
##없이
##밖에
##하시길
무서
있네
대상
##기를
박나래
##인은
결국
이승
일반
##적으로
##나는
##리지
무섭
절대
멋져
얘는
있다
##er
##ic
오빠
미안
범죄
애기
##었나
나올
##아이
인성
그럴
##으니까
필요
장난
상대
##종원
##겹다
무조건
쿵쾅
##같음
좋은데
하세요
전라도
##라가
어우
##예요
##한게
아닌데
마약
송혜교
우승
폐지
예쁘다
뭐냐
##좋은
목소리
##하셨
없음
##응원
있음
##거임
##혼자
##해줘
##드라
##에도
루태
##건데
몸매
대체
하다
어쩔
나만
페미
##았어
아깝다
종우
플레임
앞으로
##노래
##본다
##구요
행복하게
40
라이
##레이
다행
##느낌
한남
안타깝
이시
##ㅉㅉ
저기
##하기
##걸로
##행복
##식이
##봐야
##겠는데
##소년
현실
50
하쿠
실력
말이
미국
##하긴
축하합니다
임신
##에는
##노잼
모습
##나서
##가스
##민이
아니야
백종원
##할때
##치는
안재현
##했으면
##리스
하시
돼지
티비
##버지
돈이
뭔데
짜증
오지
구혜선
##재미
##이라니
##영이
##보단
##나이
살인
이다
왤케
##리면
아이돌
나쁜
명복을
생긴
유재석
##대체
이영
비슷
고소
##정도면
##안되
안보
서폿
##만원
맛있
말고
자연
##시켜
##래요
##당히
##하길
##사는
##친구
가수
##애들
열심히
남자가
##그냥
보이
##일이
1위
보다
김종
##는건가
##오빠
정도
맨날
설마
에이
연습
괴물
송중
나온
김태
봐도
##해주세요
조용히
##았음
작가
##크스
##기대
##워요
##ing
저러
##려서
합니다
##나봐
사과
##이라도
먹고
##생겼
현빈
박보
##쟁이
맞아
##odel
##려나
##인거
##동안
##분이
##지말고
##진이
##라리
피해
##어야지
3성
소속
이쁘네
당연
동생
##그러
치킨
vi
정해
오랜
확실
##아치
옛날
##엄마
##아닌가
##신이
##지면
이네
있지
##가면
##디어
재미있
불편
네요
##장이
##모습
##영화
아이고
해줘
##가라
##ye
빕니다
자살
가슴
어휴
보내
##원이
##rt
##am
##다니엘
##졌다
마이
이지
##장님
##더만
12
OOO
##이뻐
극혐
다니
몰랐
거의
##었어요
스토
ㄴㄴ
성격
##보소
##시키
돌려
##까요
##연예
멸망
##이에요
해주
그걸
##한듯
##라지
나오면
알아
##시고
##군요
아름
아니다
출연
##누나
제대로
잘해
##미가
##럽게
다르
때문에
듣보잡
강남
##났네
정상
##주가
##가고
실망
##이트
안나오
부정
##어나
멋지다
싫다
##은듯
##차이
##돼지
ㅅㅂ
##치고
많네
##ou
##소년단
감사
##이제
아냐
##는듯
봐야
화장
웃기
하는거
카이
어린
##운데
##인간
##최고
대회
##자는
##ay
유튜
하루
국민
알고
외모
아닐
걱정
사람들
해도
호감
##싫다
모두
##나왔
재밋
거기
올라
거짓
##ㄱㅋ
##현이
무도
좋네
##니깐
##은이
##주고
너도
표정
따라
##체가
아니지
서로
본방
##가네
##수님
개꿀
##하겠
미모
##던가
아니냐
##려라
왜저
##빼고
##생님
있는데
##이여
15
##였어
##ak
##였네
대한
##을텐데
같아
##좋아요
##져라
진정
누군데
강다니엘
이겨
라인
##했어요
먼저
혹시
아저씨
개그
캐리
바람
##가리
있나
##지고
##들의
##가능
없는데
메갈
얘도
그리
viic
도대체
구하라
여전
눈이
난리
##렸다
##렸네
음주
으로
말자
##사람이
인데
이뿌
##예진
홧팅
있었
조심
보고싶다
은퇴
##시는
이딴
재미없
##in
##만큼
인기
스포
적당히
같음
##un
사세요
##Bye
##준이
드디어
이쁨
##겟다
몰라
##리아
##리오
mdgd7
##일듯
##이긴
##떨어
##께요
##진영
##생활
이뻐요
##았어요
##eart
##인공
스트
##했지
여기서
형이
##리자
##리기
아는
mdgd5
중요
일반인
##을거
##파이
감동
저건
매니
본인
역대
힘내요
##와서
##종우
아니면
##되는
모든
##하세
##부러
##한번
##잘못
채팅
끼리
##화이팅
했네
##문제
viichan
##하하
##나게
마라
징크스
질문
새끼
그랬
##드가
복귀
어려
##른다
##스는
##님은
자주
##냥이
방탄소년단
본다
##운전
내려
설리
이병
##누구
플러
##예쁘
##랍니다
언플
##수는
섹시
와우
##ㅇㅇ
라고
뭐지
시청률
조합
##보임
11
##자너
##사수
우와
##줄알
나혼자
##되면
이미지
고마
모르겠
##좋음
##하죠
학살
기부
##he
##말이
나오네
이수
##한건
외국
##ir
차라리
##에선
내용
##땜에
인가
##씨가
영원
##드는
웃겨
멤버
여자는
##아도
##셨네
공개
유명
사랑해
##그룹
##라스
지겹다
우주
빼고
얘기
해요
이래서
바이
##민국
했는데
당신
프로그램
신기
##at
에서
##봤는데
##했나
빅토
맞는
박보검
어요
송중기
조금
정준영
문재앙
했다
은근
방금
캐릭
기자가
문재인
##하던데
훨씬
기분
영상
##들만
##는거임
##지민
이민
간다
어떤
##한다고
만들어
##궁금
잘살
##위치
해서
이형
##네ㅋㅋㅋ
누구냐
어디서
굳이
##하면서
활동
##명이
형님
on
zz
옵치
자식
##이기
팩트
##시네요
##사기
논란
재밌게
##어가
사람은
##력이
해야지
##적이
이겼
##었으면
##이도
나중에
유리
##았나
##이쁘다
##주면
##네ㅋㅋ
다리
고인의
##하러
##ㅜㅜㅜ
오늘도
엔딩
얘네
실화
입니다
이새끼
##만나
나오는
##길만
##번째
이것
##하신
채널
##있어요
억까
##il
있어요
##있는데
##였음
베인
##가지고
용병
YG
##ㄷㄷㄷ
존잘
분위
##형이
유치
##르는
정해인
소름
알바
##시대
##이니
실검
##대박
아내
사고
이세
멋있다
##라면
##도안
##기다
2성
##무슨
예전
대단하다
박서
우르
미드
지가
##봐요
삼식
고현
##씨는
##이버
수고
거지
##있지
##이쁜
해체
##한가
##거나
##산다
끝나
##거면
##oong
예뻐요
이새
##dc
왠지
이쁘고
지랄
된다
ㅠㅠㅠㅠ
##자들
유튜브
##였다
##우성
괴물쥐
경찰
냄새
먹어
##이래
정글
응원해요
축하드립니다
구속
##인트
잔나
##ㄹㅇ
##합니
미투
##있나
마닷
##잖아요
엑소
는거
##이요
와이
김재
그만좀
송가
##보내
어이
##으세요
##나옴
연기도
서지
소속사
양아치
나옴
안어울
조선
##어디
빅뱅
평생
##아는
나래
##10
어지
조사
그림
손예진
까지
##스럽다
이승기
무관
축하해
닮았
작품
무한
맞음
못생겼
멋져요
yodel
컨셉
물쥐
ydc
김민
올해
재밌어
근본
개잘
이병헌
화사
이쁘게
##그모
전부
홍보
##지마세요
##정신
##없는데
봤는데
##먹어
##아니고
이종
거짓말
도망
아기
알았
으면
##비가
##아주
한심
##것들
ㅈㄹ
그저
##났다
서넹
##아빠
트와
달라
##연예인
##im
초가스
능력
여러
이쁜데
##ㅏㅏㅏ
아가
##아니냐
우리나라
##다리
끝까지
운동
##둥이
같아요
해주세요
##귀여
정치
##양이
##별로
이유가
##져서
없나
##석이
##워서
##힘내
wak
기자님
##라인
박종우
##어트
yodelay
어머
형은
완벽
많은
신경
##싫어
가라
##만들
매니저
요네
귀엽다
고정
세월
##따라
맞지
##시면
선택
잘사
죽어
눈치
가야
응원할
이런거
##아냐
데뷔
##였는데
##오나
찾아
잘하네
##대가
##셔야
사라
타이
##히려
##일까
바보
##뭐야
##수준
##이구나
##것같
##전자
좋아하는
poong
##리도
이시언
한명
##기자
##구먼
닮았네
##불쌍
시즌2
개인
조작
퇴물
##do
한데
##보고싶
남자는
##정말
##엔딩
가서
빅토르
않나
##연이
암살
##가락
##긴함
##그런
박수
가장
음악
##치네
##ov
최고의
가만
나무
가면
어서
뢴트
여전히
애가
역대급
##정은
##제로
김희
되는
없지
어찌
##디오
이사람
이효
선생님
##유천
재수
좋지
새로
구나
어디가
오늘은
욕먹
모델
아나
##어주
김도
주인공
잘되
##려면
##줘요
##요일
했어
약간
보니
풍신
여친
woo
구라
본방사수
김성
##하더라
##레스
제이스
보자
얘가
좌파
단독
추카
sp
##귀엽
##eart2
저도
시켜
갈수록
##셔요
다녀
없어서
도박
##우는
##었지
ㄷㄷㄷㄷ
##오래
이모
##개월
##없고
##지원
##카이
양세
##분들
모자
##십니다
대한민국
##니가
ㅉㅉㅉ
##영상
zzam
슬슬
가는
시키
한거
##겠냐
가져
건들
박서준
그나
리얼
추천
존예
잘가
##대상
200
##으면서
들이
무지
인스타
올려
##줘라
바꿔
많아
카이사
안녕
이영자
올리
못참
##이즈
##국이
하는데
잘한다
하늘
##란다
재밌다
##지게
##op
##ㅠㅠㅠㅠ
##스크
아무리
##그로
##할거
##스팅
##보인다
##하늘
예쁘게
여자들
##됩니다
##겠어
할머니
##식당
보인다
##아깝
봐라
트수
부활
##하니까
뉴스
##좋네
##해지
ㅁㅊ
##좋겠다
##아줌마
##심이
지디
그때
뭐하는
오히려
되게
여성
잘함
안가
잡아
착한
##시죠
김수
##돌아
변현
사회
요새
지옥
##길래
이동
##에서도
사는
어때
##하겠네
하스
##세여
제작
##다시
##버려
아름다
##하고싶
##리는데
슬프
##만한
역배
##년들
##되네
방종
저걸
주세요
슈퍼
##하겠다
우리가
##물이
woohan
끼리끼리
안됨
##럽네
##나오네
##빨리
현아
성훈
##될듯
하냐
19
고수
vs
버려
나대
공감
##지않나
##인생
여주
이럴
상관
##됐네
담배
파이팅
직업
연기는
##동생
음주운전
##가족
안해
##오오
개웃기네
관리
##우면
억울
보소
연예계
보여주
##리야
yg
오버
##이죠
죄송
캐릭터
의미
트와이스
리롤
쳐내
##기고
##관리
그립
##리얼
감성
이상해
##겟네
얼굴은
고현정
하지마
하필
불러
도구
heart2
블랙
기도
뭐임
##수형
이정도면
##자꾸
있으면
다이어트
콩콩
모르는
##언제
눈빛
파카
##댓글
이것도
같네
악마
시집
쌈디
##겠네요
8등
##던지
전혀
이용
##넼ㅋㅋㅋ
##화가
요들
도네
##냄새
아닌듯
아쉽다
좋았
##주의
##으신
가식
꼴보기
부터
##리다
30대
물어
하게
야지
가요
##하지않
이나
재밌음
##응원합니다
##통령
어느
1년
그런거
##갔다
##매력
일베
##주도
눈꽃
퇴출
##희가
크리스
지마
##셔서
알려
이진
##아니라
##태현
안봄
홍진영
##이드
##아저씨
##하지마라
##잘어울
준비
받아
워너
##자연
피오
##좋은데
##졌어
생겼네
스타일
주작
오바
일부러
##치가
꺼져
브라
##어어
사기꾼
김남
잘하는
spoo
##던거
나오지
찌질
실사
아재
##되는데
인줄
##가야
피자
겠다
##릭스
이리
##르네
포기
##ㅎㅎㅎ
왜이리
##이름
순간
억지
지지
웃음
##스박
그대로
악질
기대된다
##르고
낫다
확실히
애들이
##버리
##이유
스토리
정신차
넘나
##할까
똑같
ㅎㄷㄷ
어렵
##on7
##나오면
하하
##or
아무도
아쉬
괜히
##겨서
은데
살빼
##놈들
##자랑
##필요
세계
무섭다
저격
이상한
존잼
메인
여신
맞네
송가인
블츠
##되지
하나도
##애가
엄마가
모르겠다
넘어
우파
##ns
강호
시원
몰입
한테
##블리
##키로
뒤에
##아버지
미쳤다
만든
지나
네이버
온다
##시작
옥냥이
##없지
##긴한데
변현제
황금
##바로
애니
서울
막장
##팔이
10년
지켜
아칼
##했냐
##마스
해설
나와서
##제발
##st
훈훈
좋네요
##스러워
ㄱㅊ
악플러
자숙
드라
##건모
있을
##구마
무시
책임
이번엔
되지
범죄자
분위기
알리
##린거
##겠죠
원딜
언제나
멘탈
반성
한녀
spooon7
알아서
##빕니다
어쩌라고
##아니야
내년
서현
의사
정신병
바꾸
그룹
설레
##가나
장동
##진거
애는
이길
연두
지민
##때마다
브금
##하나요
오른
오랜만에
안쓰
##연애
김정
버닝
##많네
질투
그닥
##아프
기자야
키우
설현
##라구
나쁘
##원은
살려
보네
위험
##관심
노무
마술
용서
챙겨
재밌어요
피해자
##아들
##유리
##월량
전장
흥해라
이슈
##둬라
회사
##나올
##지말자
##크로
마세요
##전이
얼른
13
##쓰레기
꽃길만
누구야
답답
##예뻐
##겠어요
주말
멀티
초반
수상
트위치
##시지
진정한
멋짐
##84
진실
아웃
불쌍하다
코그모
##이거
ㄱㄱㄱ
안봐
##형님
아닌가요
어떡
못해
느껴
##드려요
##보고싶다
차이
어그로
변기
어딜
이태
축구
뻔뻔
대표
별루
##으려고
부탁
어색
이서
오우
힐링
오타
##됐다
따로
공부
돌아가
최악
##스러
##먹는
럭스
헨리
조아
사건
##ㅓㅓ
편집
만두
똑똑
##le
##나온
그리고
##야함
남주
##이이
ㅜㅜㅜ
존경
늙은
##와중에
##ac
잘하고
바랍니다
당당
룰루
##지컬
전에
살인마
재혼
##만해
연기가
아버지
운전
##이라서
##든데
##자리
장나라
##유미
결혼은
##시오
쓰레
최민
정우성
##는건데
우르곳
동안
생각보다
충격
실수
남친
힘내라
후추
추억
북한
##ove
끝났
##이런
생김
짱깨
##아나
##드네
플러리
포인트
##있으면
라면
##스로
유승
달달
##주자
졸라
도와
스파이
개꿀잼
징그
##많은
##기로
데려
부정형
안맞
##사건
##사장
소유
집에
과연
죽여
##는거냐
것도
아파
빠순
행복하
천보
##가즈아
##합시다
이러면
##어지
##대단
게이
##ㅜㅑ
이정
괜찮아
##마리
이름이
니까
##헤드
무엇
##으셨
##하는건
가짜
##있냐
##you
##들을
##시안
현무
탈출
이하
##때가
##트가
말을
비교
닮았다
모름
순방
##주지
한지민
뭐라
양띵
돈벌
조국
닮음
##다녀
나와라
거야
##캐리
보통
##잘해
그만해라
##러가
예정
##하노
##했다고
풍형
연기력
아니네
루루
인형
##거같다
##때문
김건모
이효리
##희는
행복한
잘생긴
ㅅㄱ
##고생
넣어
신호
이쁘긴
삼가
마법
요즘은
##기야
ㅇㅈㄹ
지금은
##아야지
아오
옆에
열애
섭외
##치기
1인
없으면
확인
드가자
나이가
ye
초딩
자체
대신
작작
##했던
교수님
예쁨
##은게
잼있
##이란
##남편
태양
##갔네
대륙
##아닌데
마인
웃기네
갔다
##스타일
못함
우린
##하시네
##것같은데
##bs
##님도
##정환
이라
웃김
##선수
##호가
40대
열폭
인터
양심
유아
##상은
잘생겼다
김영
##아지
강타
##갔어
##사이
못생긴
들어가
##이라는
난다
개념
##주얼
##신지
지루
김종국
##마이
불륜
##는중
##없어서
함소
미우
될듯
박명
##사람들
##이쁨
##스러운
타릭
많다
순수
##에서는
18
그렇지
##하시고
kim
##였나
기가
나의
##출신
고싶
바닥
생겼다
##자체
나요
밖에
아침
좋고
남편이
##1위
##동이
지금도
남의
3분
##al
머야
이가
미리
##0년
고인
2개
##Cu
더러운
##마자
##없나
##받고
중간
##긴다
조만
##주네
빨간
기본
안된다
출신
아미
도끼
##되나
던데
##알아
##엄청
##거라
장윤
기사가
했으면
탈진
평범
당연히
말자하
두번
##먹을
너는
##대는
##리나
저래
##멤버
싸이
나혼자산다
##는건지
무친
박민
##공개
쿵쾅이들
해보
구독
미포
표절
##하던
##운서
가야지
산다
##생김
아들이
죽을
##사람은
인피
프리
##하지만
부끄
천재
하는게
##사귀
목소
끝내
ㅠㅜ
니들
##부럽
##이니까
##지지
##시절
조보
예쁘고
##사고
예쁘네
미래
##감이
마음이
야스
##초에
노력
했음
이종석
##봤다
저는
25
안타깝다
##하지말
노래는
##한거지
##워라
발전
식상
컴백
김지
재앙
의심
최고다
설정
집행
그런가
파이
못하는
꽃뱀
볼수록
바뀌
##랜드
얼굴에
벌레
지겨
##달라
##기에
##여서
##바이
##루파
응원해
##비는
##도가
부러
레오나
부르
아칼리
하라
##완전
##지나
##도전
##웃겨
가정
하여
김종민
지코
##겠습니다
하셨
카트
연기잘
##세용
##박이
검색
남궁
##올라
나랑
##웃기네
딸이
순산
범인
자동
빠른
맞다
부러워
피부
큰일
삼가고
수술
##en
어딨
피곤
예상
##았으면
안본다
화이
##이잖아
##나나
둘째
이팅
##우가
버그
##예정
##이었는데
##장훈
솔로
##오면
##보지
##치면
박해
ㅅㅅ
있는거
자유
금방
쯧쯧
좋겠어요
해피
전설
##예능
칭찬
충분
다고
하이
조카
감독
조만간
와이프
기사를
학교
주연
박한
전소
집중
##사딘
##모가
나온다
빠져
##제목
않음
서인
##조합
##근데
오랜만
저번
아아
##가수
고양이
##나와서
최종
무료
방구
라마
##부럽다
##000
##트릭스
##느라
##림이
##그케
이쁘네요
생각이
여행
##시나요
귀여운
키스
##는것
자라
어허
##ㅠㅜ
클렘
기다려
느낌이
##ㅌㅌ
가지고
##안해
##선이
때문
그러면
저리
알아야
마니
봐야지
김태희
##구리
없고
불쌍해
##ol
본인이
##수지
젊은
건강하게
그놈
케이
니네
##포터
실패
감사합니다
자리
죽은
개그맨
##준다
강호동
잘했다
무서워
##줘야
##하실
개나
김소
블루
민폐
미우새
##긴하네
반대
##리는거
##있고
진심으로
함께
##드립니다
개못
##hd
수도
##현석
그러게
고만
살아라
말도
머리가
##조아
처럼
윤아
간만에
해결
##아직
대본
오열
빠르
##극혐
비율
gil
##렸어
증거
누구지
##드만
##성은
그마
생기
김현
담주
##와요
하기
##거든
라도
아요
##인정
신동
##어버
대단한
##인줄알
생존
혜교
##ar
##왔네
##데요
부족
##미는
레니
가카
똑같은
##나도
##되요
아우
미쳤네
처벌
안죽
바텀
이사
이후
##충들
##얘기
응원한다
보기좋
영자
##정상
있어서
해외
알았는데
왜저래
9렙
귀엽고
부담
보임
##우스
제니
천사
##보이네
대학
아래
버닝썬
박유천
비주얼
다이아
못참지
여배우
##로는
애국
자신
대충
##로우
홍수
탈퇴
느끼
반응
해명
ㅊㅋ
이런게
##타임
##누군
사장
검사
##는줄
이자
##버스
ㅎㅎㅎㅎ
그런데
##스럽게
##50
##ot
사망
##고은
##꺼야
에바
##는데요
자체가
##멸망
아마
##신기
##는걸
##S2
피디
##보다는
##나온다
잘생김
풍월량
##건지
할배
##건가요
무대
나왔으면
24
##든가
##때부터
##살이
영원히
뭐해
안궁금
##핑크
찍어
디스
깜짝
##행복하세요
##이미
16
##였으면
##아니다
미스
죽음
실화냐
전화
##괜찮
침착
2번
하긴
##시켜라
##지다
##맞음
##수저
기안84
##성공
정배
##와라
14
1도
이해가
박한별
##거다
##수야
잼나
이제는
안티
죄다
##ap
##봐서
가만히
##오늘
##다른
이정도
##꿀잼
##보니까
되나
좀비
##리냐
방장
##년이
아닙
너가
##범죄
없이
##영은
전형
빌드
가엔
차돌
##부분
##먹음
알았네
##세상
##리카
##시즌
gilyou
먹을
너무너무
트페
##비호감
개돼지
갓겜
##씨도
골드
승리는
캐스팅
##로나
정리
##누가
편히
##프트
재능
조이
가지가지
##같아요
ap
##폭행
##조선
하지말
##먹네
##아아아
##렸는데
훈수
가스
##라라
##힘들
##리머
그만해
##너지
강한
밝혀
레이
##었구나
어머니
집안
뭐라고
##시나
##yo
투표
이랑
##계속
야구
슈돌
상황
차은
##광고
안나왔
##하지말고
못보
두개
다음주
##가가
##ㄹㅋ
교수
##겁니다
##bc
애초에
##아까
살이
##대요
팔아
있냐
아예
아픈
##그리
##습니
##이쁘네
##거냐
잖아
유이
##경이
##타이
마이크
17
없애
이러다
##구라
케니
화면
오지게
##진은
##그렇
제2
##돌림
신호등
뭐여
인상
안함
##고있네
안볼
약국
위에
##시기
##마나
판단
하니
멈춰
ㅗㅜㅑ
애매
##보이는데
어쩔수
워너원
제가
이준
##유기
괴롭
##즈니
오지네
##쓴다
뭐하냐
##이던데
##살아
팔고
큰거
안좋
ㅈㅈ
미치
##그럼
왜이렇게
솔까
노출
##그랬
이번에
되는데
시대
##뭐냐
##명복을
##하는구나
##예쁜
신고
사업
박진
함소원
##것이
rir
싸움
딱봐도
로이
노쇼
##쳐서
##무섭
얼굴도
먹방
##받아
기어
2년
##얼굴이
##지니
##이었음
월드
하죠
말투
##마음
고급
실제로
연출
##hy
웃겼
##지섭
싸우
##왔다
##었냐
팬이
공포
##20
이득
이런기사
##gg
##안됨
##하라고
##현은
할듯
하지만
양준
##티비
카사딘
깜놀
갈리오
##오네
##om
재미가
##ab
화공
서장훈
새로운
##일러
##데이
인물
##시에
##입니
잘만
##추카
파란
##녀가
하지마라
가네
병원
공유
보여줘
##미인
낭만
1박
뇌절
신선
한달
연예인들
난동
미나
는게
아닐까
오오
이재
##애들이
유지
##비스
잘됐
이야기
##yodel
리산
결과
새벽
##친다
시청자
애들은
지는
음식
세금
##ㅊㅋ
앨범
나영
영웅
##바리
##도못
##분에
##갈비
##져요
건드
등장
##케팅
쥰내
사겨
나오지마라
##ㅂㄷ
##하차
##서트
##잖어
카드
##지금
카톡
갈아
기대할
강용
세상에
닮은
방송에서
##인데요
봤어요
드럽게
##ya
3개
다가
어울리
강경
아니라고
##봐야지
하고싶
##요미
만화
조정
미니
문제가
##인들
로아
##년전
드라마는
상상
의외
##와이
살짝
좋던데
아이즈
부인
##상관
대통령
##듣보
멋있어
결승
박지
##이해
케미
영어
보이네
##봤어요
화장실
퇴근
눈나
##국에
##돌려
무리
##이겨
보니까
이선
##활동
안될
멀리
없어요
##년생
건물
##겠지만
인성이
##많아
레바
##것같다
않아
마녀
##자네
남궁민
다니엘
지효
들고
##형은
20대
##현아
멍청
따뜻
##으러
##갑니다
너네
##미나
후회
귀신
##분은
##을까요
이수근
루시안
든든
riring
sns
이상화
거기서
누굴
스킬
##한거야
직접
재미없다
##랑은
그나마
뜬금
비밀
만드
타이밍
렇게
##부가
트리
로봇
ㅇㄷ
##되서
아빠가
예전에
##방에
##거같음
삼가고인의
크게
##자고
7범
어째
지성
##ig
쉽게
이드라마
##돌이
배가
##안돼
##십쇼
거학
도발
구원
낫지
은지원
잠깐
공격
속도
변현제식
과거
없냐
##답다
##겠군
보험
##것만
##정아
결혼식
##ㄴㄴ
##놈이
##아파
##장면
##건강
##만두
##인성
우파루파
대세
##ee
조보아
최수
##신가
어른
한판
난민
드라마가
예술
스피
희망
자가
##출연
##관계
##드립
왜자꾸
마스크
사형
2등
##사님
##싸움
##조심
##학교
장기
##운동
##중이
##빈이
질질
소지섭
바래요
개노잼
##깨비
김동
아이템
사귄
이김
##쿵쾅
아나운서
라스
도전
레드
있어야
댓글들
60
사람들이
##이라면
##세계
채아
##ad
잘가라
언리얼
##내고
먹는
가카그케
어릴
반갑
##진아
정병
##양반
##되는거
최진
매일
서플
보고싶어요
##es
광희
##어리
##들고
아버
##받네
빅헤드
몇번
오정
##다이
대기
##시원
한서
노무현
더럽게
##역시
행복하시길
상처
참나
그동안
##대한
않았
돌리
건모
기계
##부지
깔끔
죽이
드리
##되냐
뭔지
##든지
트레
##게이
과학
박명수
할만
다주
##겠음
보러
##으라고
##ww
복수
##거같아
말대
유부
##짜증
밑에
건가
마누
언급
##거에요
비비
부들
일찍
##ㅇㅈ
1억
노답
##짜리
사진은
겠네
##이었다
안되나
##할수
##아깝다
안봤
키가
공익
##불가
어쩐
##셨어요
##조사
##브라
제2의
박민영
사랑해요
님이
안했
동물
##겟지
##부르
남자들
사진이
##봅니다
##부모
##련아
서지수
알았다
카타
##없으면
##버린
취향
오른쪽
ㄹㅇㅋㅋ
문희
지면
런닝
##순간
저그
세븐
좋았는데
암튼
강하늘
행복해보
##오는
꺼져라
매트릭스
##호는
고맙
신지
##내용
장도
받을
##ㅈㄷ
박신
신혜선
안물
속이
##애들은
맞는말
연기를
##사세요
믿어
##는디
진작
##봤자
이딴게
아닌거
노래가
가고
일꾼
##하는거야
나네
우울
이성
손절
재밌는데
생각나네
이쯤
중에
배신
이상하게
탱크
##생긴
나오지마
타고
##맞아
슬퍼
##하더니
홍자
##vs
소닉
하네요
정도면
00
##하려고
유승준
이렐
행복해
##이커
문신
마스터
죽었
##키우
브라움
이뻤
시간이
##것다
유아인
##안에
군대가
스티
걸그룹
##고만
노노
리가
관심없다
최소
맞나
동네
양현석
##무서
마나
빼라
문도
생일
폐지해라
이긴
하던데
못하
##이없
##네ㅋ
ㅂㅅ
루루태
##오세요
##덩이
가나
효리
3년
수사
쟤는
탈락
여러분
낚시
인싸
##트로
고수달
김승
훈남
진화
##때는
김남길
할아버지
##이지만
##간히
##스런
##이비
여우
##부들
별걸
##보세요
##아니지
##2일
청소
합시다
##제홍
##같애
##었던
##야해
약쟁이
관상
##우리
살찐
있고
##as
##인도
이상민
##있는거
##기전에
선물
##지마요
##쓰고
선남
##다음
ㅂㄷ
##나오는
친일
##영씨
##Bg
크리
추가
쉴드
불안
믿을
##지를
벡스
##선녀
##어떻
##한것
8렙
##is
##Byeyodel
잘생기
viichanCu
안본
손해
와꾸
##말은
##소나
국룰
##뭔데
##일세
나름
힘든
박성
##랐네
존재
유일
##였지
돈을
##부로
안하고
##이안
5코
테이
##릴듯
##무리
진행
강화
알지
왜이래
여긴
가렌
어쩜
쩐다
학자
보라
피지컬
재미없어
그브
더러워
##이게
##아닐
##아니면
##새기
선미
왔다
이쁠
##먹은
##하구만
메타
입술
쁘다
##텐츠
##더맨
대박나
아녀
##는건가요
사이다
##좋고
됩니다
반가
주고
기회
##바람
##못해
예쁜데
코가
검은
들은
지수
##였구나
거임
##보라
##세연
아쉽네
##한척
##지효
##신듯
안타깝네요
##걱정
##한줄
어깨
멋있어요
구인
##발이
도경
때려
많은데
##재밋
zzamBye
이놈
##소식
위너
언제까지
게임이
##되고
귀여워요
욕심
잘어울려요
최강
피닉
##사냥
크리스마스
##까진
어캐
우리도
고구마
했지
##현우
##추행
왼쪽
##ry
##보여요
##버리네
사교
##식으로
##하다고
##지어
##ㄱㅋㄱㅋ
되네
##관종
와이지
예고
##페미
##에에
댓글이
무지성
##안함
틀딱
배우님
제이
까불
##둘이
형도
이프로
##래곤
ON
주는
##두고
보기좋아요
뭘해도
미쳐
##호사
##나보
고향
콜라
짜증나
##뉴스
##만이
그니까
니들이
##불편
##한거임
##영웅
##만봐도
막내
최수종
모렐
카메
##패치
##케이
됐네
##해봐
돌변
오픈
갈비
플레이
김혜
이뿌다
심각
거품
전문
맘에
어울려요
치료
##어질
##자식
다야
##리즈
##한사람
초월
##났어
응애
##힘내세요
행복하세
##진않
김제
구만
되는거
반전
드립
잘했
좌빨
시끄
##몰라
##장난
##오지
차은우
##이었네
##주일
##잘생겼
##할게
전형적인
백퍼
류준
나머
도시
런닝맨
##악플
##용병
애도
##일뿐
똑같이
좋더라
##았지
그분
유행
##heer
##하는거지
오글
테란
##된거
부자
몰려
미녀
##효니
##프레
받고
##있게
viichanH
##보는데
분명
졸업
##배우님
많아서
##30
##녀석
안들
배우들
보기싫
##나와라
##햇네
눈물이
##이구만
세라
나혼
##de
기생
##닮았네
좋을
말대꾸
불청
##여행
신경쓰
더라
##맞네
##42
##ha
대깨
실버
그지
빨갱
이마
요리
에효
우왁
아줌마들
##잡고
##홍철
아닙니다
보다가
##느님
몇년
토니
##으시
22
낸시
힘들어
이뽀
점수
##이었어
##집은
시절
##한국
##나보다
장윤정
많음
##반데
왜들
##세대
##이렇게
의리
아는데
할매
##하다가
나락
라니
클라스
##수술
소라
이어
제시
##치킨
##끝나
나오냐
##려는
자기가
맛이
##임이
소녀
켄치
변태
강용석
한표
ㅇㅅ
##성훈
출산
잘사세요
믿고보는
진지
연하
##줘서
지네
비전
##애는
##쳤네
저정도
무서운
패배
듣고
누구임
돈많
##에여
##학생
##준호
힙합
##면제
커엽
하드
애쉬
버티
##할만
합의
역겨
달려
행동
##ㅎㅋ
##신다
개소리
팔자
뚱뚱
유기
싶어
도둑
##닮음
##터짐
유쾌
yodelayByeyodel
차태현
##었네요
##녀들
##성형
볼만
##신분
도깨비
디코
5시
박경
##사부
돈도
콘서트
중독
##리게
##it
##홀로
배치
##난거
##대신
돈은
##캐릭
호구
##실망
에고
집에서
##패스
##르면
스킨
안먹
##간지
줌마
방송에
##액션
정유미
##안나
##하고는
##100
##같은거
뒤집
##잘함
주제
##모델
다행이다
바다
이서진
웃는
여자들이
##햇다
효린
##좀해라
보검
카밀
##바데
##내려
spooon7Bg
##장은
확정
위치
예쁘네요
##운드
##이시
걸러
두분다
팬들
시야
어어
500
you
추하다
##위가
비싸
군대는
더럽다
외국인
태연
총검
맞죠
표정이
이경
장사
이런걸
목소리가
잘어울림
서강
귀엽네
쓰는
##레전드
신부
빠지
##태가
파산
말아
이제와서
볼때마다
성인
##할수있
어쩐지
##이혼
가득
싶은
앞에
##마디
##고기
최민수
류준열
##버거
##귀여워
호그
잘생겼네
무식
##연습
액션
##순이
매력적
잘했어
인가요
안되는
센스
지리네
승리가
유튭
샤코
##ㅣㅣ
침착맨
##이뻐요
ok
부럽네
할수있
간지
조세
##교육
놀랍
##하시네요
어울린다
거미
##있어서
2차
똑같네
예서
##가다
별거
사나
##대기
이보
##매물
핑클
##닮았
##혁이
그놈의
어울림
##로만
##수도있지
##트는
아이즈원
##날듯
##축하해요
##걸까
##안이
##우승
##진심
기다릴
영능
보너
##음이
##못함
안에
탈모
##둘다
##셨네요
게스트
다크
실제
신서
##들끼리
플래
##희씨
세구
99
고기
대마
마렵
##방이
##점이
매력이
러브
스마
언제적
##장에
멜론
보면서
밉상
감옥
##진듯
아름다운
하시길
viichanCu4
되면
노래도
로이킴
노홍철
늦게
그와중에
열애설
긴장
크라니
##질듯
##불러
ㄲㅂ
스트리머
류제홍
소식
##년도
조현
##미라
##아리
거울
##조용
임수
성장
저분
##월드
##헤어
##제일
엑스
##했구나
##쳤다
마마
학생
##ㅌㅋ
봐요
##탈출
##여자가
분량
안하
##ik
자격
용기
##예쁘다
현명
3번
너프
##때도
##토리
##해야함
##내라
자막
거른다
역겹다
오리
##롱이
##집에
원탑
왜그래
전현무가
미쳣
와서
##하는지
##물고
쓰레쉬
##그래도
##일은
효과
한채
말은
조재현
보기싫다
누군지도
##저런
성폭행
##환이
##임신
##아쉽
얍얍
느그
##이구
##바닥
장인
이스
##시아
##ts
인증
겨울
케틀
그것도
뱃살
##가야지
##현씨
제목이
##바라
##야됨
##달라고
##닼ㅋㅋㅋ
##이로
설명
서현진
##할꺼
떠나
리븐
##민아
##쓰네
바라
허세
꼬라지
청하
전역
하던
갑시다
##다면
이분은
압도
운영
##론데
re
싫음
유인
##ㅔㅔ
##시러
##상도
재미도
지겹
제로
협곡
김희철
열일
삭제
괜찮은
##irac
생각나
도전자
무빙
##하시는
##때매
박시
체력
짱개
##그렇게
폭망
##작품
##잡아
공효
나은
오래오래
미인
평소
않은
##나오냐
##알바
##일도
보건
스피드
봤다
##OOO
감정
##우고
##눈물
저녁
##연은
##지영
눈에
종우야
명품
빼면
##들한테
##어떻게
귀여움
##웃기
##재가
이면
신발
못생김
일이
##현실
##40
##낳대
사생활
장자연
##낫다
##조작
##사네
오연
##일로
어떠
성추행
포장
일어
선수
자르
증강
스웨
##승리
금수저
있나요
됐다
가슴이
##이터
못하네
김나
재밌네
##대표
계집
##지요
유진
노이즈
이참
전개
김재원
##질이
##cat
아이언
언젠
##아버
국밥
##운거
##이슈
버리
사랑합니다
오면
##하심
임마
왁굳
##11
좋았다
##받을
##화는
레게
피오라
##랑이
##야한다
1박2일
사랑이
##인게
결혼하면
##쳐라
##근혜
진짜로
위해
안산
##군대
무죄
주면
선남선녀
사실상
버스
사람도
편안
가갑
##타기
##04
더럽
할거
##이리
승기
심장
입장
부스터
##안가
대리
한고은
경험
개뿔
장재
움직
즐거
##올려
나서
박신혜
싼티
##회사
혜진
쓸데
##맙시다
우리는
##피디
에라이
주지
작은
응원합니
클럽
이쁘기만
##스럽네
경기
##긴하지
##TS
나오는거
자는
문희준
와드
이국
##없어요
##ow
내용이
공장
신정환
오나
혜나
##하는듯
있구나
이것이
슈가
살빠
수영
안전
##지도않
못한
##나이에
##쓰면
##내내
일어나
좋으
##중독
어리
명예
코스
역쉬
##자라
##죽어
MB
나이스
고민
##쓰는
##표정
으악
어라
##아워
직업이
##받는
##잔아
##복이
종영
디즈니
되겠네
##김치
돌아와
##러지
##항상
헤어지
부모가
##징어
쇼진
패션
치고
듀오
이휘
##인디
피박
##3성
질문이
말파
##ul
어디갔
대놓고
렙업
##티어
ㄹㅈㄷ
맞을
##웠다
박쥐
##먼저
불법
한참
##da
##명복을빕니다
유산
##말을
울어
##폐지
배고
사람을
잘하는데
##것들이
보는데
한대
##부는
##이더
결혼까지
지만
##존잘
한남들
##이자
매크로
##제가
글쎄
##BS
##하겠지
세상이
그러니까
제정신
##졌어요
나왔네
악플러들
해봐
아휴
##구가
주식
워윅
원작
환장
산이
발연기
레알
##하구
##것네
##Shy
##이김
없는거
화나요
재밌겠다
하정
보게
##모드
ㅎㅇ
아프리카
송지효
##자도
이던
##집니다
##kg
래도
되고
말해
무한도전
##아니네
좋겠네요
##천사
##시가
역겹
기대됩니다
에코
3명
##카드
졸귀
##몸매
안하면
##만하면
그자체
쓰고
센터
##먹으면
홍현
먹었
##경호
경호
여자분
싸가지
싶어요
머독
고백
누가봐도
33
올라가
역할
##린데
충분히
좋겠네
##챙겨
기술
##웃김
공주
제주도
##켄치
기사는
대사
김수현
기획
뭐래
결론
화가
##여친
##는것도
먼가
##어쩌
ㅂㄷㅂㄷ
##엇네
이겨내
티비에
회복
쪽팔
결혼을
장가
##트롤
레기
보이는
##어머니
소유진
##한건가
리는
연예인이
##하고싶다
저정도면
천만
##상이몽
아무것도
장면
늙어
하면서
에요
##기면
##어로
생활
아스
##앗네
꽃빈
안타까
후반
거리
어떡해
데모
마크
동성
g42
지도
##적이다
##새끼들
김제동
개나소나
##맞지
한무
맞는데
##한대
##공격
##미친
라디오
시발
##르르
플플
슬프다
사장님
귀요미
태어
되어
80
했나
##피해
구인수
##다ㅋㅋㅋ
웃긴
비에
뭔죄
연말
##팔아
##yp
입대
##신은
##였어요
습니다
훌륭
크라니쉬
키워
##답게
대로
아이콘
장동건
살면
이냐
##위에
##셔도
이민정
언론
있긴
스파
쿵쾅이
아라
##나봐요
아이가
pc
옥냥
이따
이참에
##doe
##모름
코로나
##긴하다
와라
무기
6암
궁금하다
뮤비
해적
##장구
아싸
넘사
모를
##이득
수가
##지않음
아무나
좋았어요
##하다니
지금이
##술사
라는
잘어울리
##자체가
박성광
##저기
세라핀
##다운
##평가
기대합니다
##안하고
개빡
동영상
##화면
취소
꼬리
##준비
로맨
전쟁
##어여
아까워
갱플
쓰지
##0년대
##들이네
##해진
있으
이여자
몇개
여기도
안좋아
##팔고
##이길
일주일
유병
기사로
없었
##논다
한다고
##할텐데
탈론
의문
발전기
옷이
봅니다
아지
잔나비
ch
여자도
##내가
초밥
동백
땜에
##줘야지
애를
절대로
양세종
윤지
코인
면상
서강준
정신나
럽다
부모님
전지
그정도
스카이
아니겠지
##마니
넥슨
##로가
3대
히트
모습이
누구세요
##실력
않다
돌림
제작진
지리
##듯이
김우
부디
스폰
##ㅡㅡㅡ
20년
인사
##까봐
모른다
##함이
##어케
##란이
믿는다
##왜저
##졌음
마지막에
##시티
##선생님
##대회
##하잖아
왜안
한번만
##감독
크다
피바
##릅니다
혜리
##자마자
##갈통
갑질
불쌍한
얘들아
보이는데
명작
스테
할일
늘보
답이다
유연
##어는
원조
이세돌
조민
##프로그램
##자다
에결
바나나
김소연
어짜
##구려
탈세
잘어울린다
음원
좋은거
모르고
##미모
##비서
미소
깨끗
맞고
##존나
강간
벌쳐
김주
##성규
분이
##타는
이상형
좋을듯
정지
배그
좋은일
철수
아이린
최고야
낫네
##때까지
변명
기자들
한가
짐승
찐따
##홍보
개판
냅둬라
##할것
##아녀
##읍니다
##맞고
아줌
쾌차
##레임
오달
안나와
##ly
신의
##사실
너무좋아
킹아
안사
절친
가보자
머냐
ㅜㅠ
##축하드려요
닮은듯
##간거
##작가
재미는
##내요
##져야
꼰대
데바데
다는
##이건
자빠
하더라
##워치
3등
도배
양세형
소이
##한지
##igh
응원할게요
사무
##왔는데
드러
뽀뽀
##졌나
손가락
##ong
개미
만났
##99
커피
이러고
서포터
##졌는데
터렛
한서희
않네
##ㄹㄱ
##검사
볼게
##씨랑
kimdoe
##행동
개모
##만해도
하실
박해미
##ut
잘나가
기사거리
원툴
행복하길
##있을
쓰면
##디가
아무튼
전참
##봤네
애낳
어이가
재방
##장애
대가리
맞아요
대중
양반
지겨워
##요한
소문
##사자
백신
스파이더맨
##이뿌
예뻤
인생은
상남자
##적이네
선생
실명
입고
동상이몽
마누라
괜찮은데
노란
확률
피닉스박
한예
##민호
막판
짜고
있을까
이럼
야수
##주나
##많다
##top
왜그러
모르겠네
##은건
##기억
살좀
아니에요
망했
잘하더라
유난
틀린
뭐든
##ㅈㄴ
##아웃
있다고
걸어
지난
나두
카메라
##갈듯
스크
이상윤
##는거다
##쥬얼
대모
좋다고
기네
그러고
apm
말라
예의
답이
##마라
마시
계약
기대됨
##무시
타이가
파워
##짓을
한지
##는뎅
##으으
##비슷
않았나
낸시랭
영혼
자세
##져스
##도라
##년아
어울려
터지
##로서
공중
직스
할때
##하든
사이온
맙시다
홍석
어디감
##넣어
정신이
##치지
크로
##되네요
김원
ue
컨텐츠
##기싫
망한
연예인은
##어때
##만들어
##본데
여기가
넘넘
살찌
가끔
spooon7Shy
##저거
##사과
##는거봐
남태현
좋아서
##해보임
##길바
##ㅜㅠ
맞추
밥맛
정확
##토스
시즌3
만난
여진
부산
##os
##없냐
드레스
버프
완치
##ㅅㄲ
##종일
다운
몰라도
레니아워
##안타
##구멍
신인
누군가
소미
2세
비싼
##해보여
웹툰
가사
가세요
이동욱
당장
손흥
달심
패치
##ㅜㅜㅜㅜ
장도연
강아지
겠지
201
갬성
##찍고
라이브
##mr
전소민
Yg
유전
이쯤되면
미스터
tv
##한테는
국가
영원한
5년
##티가
고마워
눌러
##성격
##타고
##버림
너희
##남이
##간이
상대가
폭발
##보이는
분노
안다
연옌
##했을
5분
안들어
혼전
럭키
보살
미안해
핑크
##천재
갔네
고고
is
야무
모모
##태틱
발로
ju
##생겼네
이휘재
##상식
그립다
광주
잘봤
건강하세요
##써라
21
촬영
##나다
##달리
헷갈
어질
하차해라
엠비
기원
우아
정답
그녀
따효니
##살인
한국인
테크
안경
ㅇㅈ이지
조세호
##일수도
90
먹으면
##래기
##자님
하나요
전생
##쩐다
현역
김구라
좋게
거르는
신이
얼굴만
으휴
##사라
고멤
사쿠
아까운
##교수
트롤
한마디
나오고
있습니다
수준이
다르네
인상이
##바꾸
장지
고통
맞춰
as
심쿵
애쓴다
최근
하트
전자
보아
이쁘당
##팀이
싱글
박근혜
##수심
연락
##든다
버리고
누님
엔진
공효진
기적
재미있게
##물쥐
재벌
##렸어요
##어려
##거같아요
준희
##뒤에
##아내
일진
못생겼다
기사좀
인듯
이새기
개사기
빠순이들
별게
##지ㅋㅋ
##승장구
개같
개멋
부들부들
##겁나
트로
##하며
##부활
이중
끝이
에이스
##훈이
클라
필터
##원도
##클럽
연기자
##아무
##바보
손담
##았냐
##직업
##신데
이기면
데리고
허허
적폐
##코인
유출
##정지
임수향
자크
노틸
다름
좋긴
서인국
관계
##시간에
면서
재미없음
##었습니다
##ㅅㅂ
운빨
##랭크
혜선
##용이
비행
안나오면
##이후
완쾌
sm
채팅창
줘라
##보러
소라카
시러
별로다
##아닌가요
김숙
위로
갑니다
##신가요
신성
하는구나
##공주
##서폿
##pl
##남아
##드리
인교
##찾아
나아
##테일
계산
##그림
an
##윤아
못가
오토
##zz
의외로
건강한
우려
깡패
말하는
##지네요
나오나
빌드업
결혼하고
##했습니다
아내의
지구
##되게
같네요
##하지마세요
추카추카
##매가
양준일
없으니
##까지는
악플달
##포인트
##명은
재밌었어요
mc
보지
대화
고양
##주라
##우우
##경기
##하겠습니다
더이상
쉬세요
왔네
패스
발광
이판
자나
##ㅋㅋㅋㅋㅋㅋㅋㅋ
삼촌
없을
당신은
이대
##가도
##로운
##선언
##1등
아니죠
yeon
##아이돌
##스러움
전체
맛있게
대머리
충재
ueun
팬티
##만은
##루스
##이를
머가
틀어
포켓
홍어
나혼산
##의미
##드로
나이차
구질
그치
##처리
선넘
##운이
두번째
안보여
무슨죄
멋지네
##시청
정보
드뎌
남캠
멋지네요
정이
한물
단발
홍석천
대박이다
1000
##는대
##구질
견제
잘생겨
##해줄
##처음
##있었
결혼했
필수
##왜케
종교
소신
올인
2부
공연
원정상
걷자
보여주세요
하정우
##입고
wakD
생긴거
원빈
돌아오
마녀사냥
살기
##청원
한번도
이하늬
##이에
귀여우
있었는데
저러고
viichanHt
축복
티파
이필
oktop
안하냐
##여라
##환아
##그라
집어
##셨나요
##나은
만나서
어벤
미화
같애
기대컨
그렇다
##수상
밀어
어쨌
고마해라
##장인
##ta
이는
싫은
구멍
비슷한
##이유가
지내
##오스
변신
장혁
에구
전라
호텔
##이랑은
##한당
여유
멀쩡
오해
세월호
##러들
빨아
딸은
지니
##버렸
##피셜
##04S2
##여신
##려야
##자를
다신
속상
그래요
##가루
##랐다
##들갑
##하네ㅋㅋㅋ
차트
한잔
유천
오네
별것도
휘성
기사제목
##라나
이고
나와주세요
결별
##인기
##운터
좀더
돈으로
에임
입이
가게
이쁘면
##리스트
박시후
뭐함
ㅋㅋㅋ아
시다
재밌었음
아이들
래서
안해도
소설
하니까
##버전
나영석
##엇다
남아
ㅊㅋㅊㅋ
천보녀
사면
스트레스
새우
이렇
##여워
결정
언냐
어디까지
내세요
데스
##도는
잘자
##파티
날아
##고수
태어나
##고싶네
##년에
어짜피
##ㄱㅋㅋ
졌다
골목
부럽네요
선배
잘보고
##kw
지하
##부터가
놈들
아서
한심하다
아고
오징어
##ㅊㅊ
소리가
생겨
무고
문제지
##맛이
사네
유전자
##프다
##는거죠
안보고
티아라
##바꿔
침대
지진
300
개웃기
##홧팅
바쁘
남녀
##결합
홍수현
차우
##양아치
##글링
냅둬
특이
덕분에
장성규
빠순이
할수
철면
부러운
모야
##매니
##으론
##햇는데
지린다
##뉴뉴
##오라
##기지
레벨
먹자
몰카
##비전
존못
다시보기
황정
##단다
##의사
뭔가요
없구나
##인척
##이쁜데
##국민
크네
진국
구경
##집이
전투
고쳐
먼데
박봄
특히
하여튼
공짜
대각
환영
##하려
myo
마블
##일에
##드시
드리프트
다해
봐서
뒤로
##던데요
##받은
##디션
##목소리
홍진
##신거
스스로
임영웅
##하하하
빠진
가해
레오
매직
이악
##ㄹㅋㄹㅋ
운이
구려
주가
붕어
너나
스케
쟤가
##트리
ㅅㄲ
##이였는데
##더라구요
나음
##히는
##버렸네
고인물
귀찮
아니잖아
대단하네
##했네요
##AP
##고가
에반데
##따리
##올리
##고싶어
뛰어
도파
지원
우는
##남친
이쁜사랑
##나면
##은지
##Heart
재밌는
살고
##이네ㅋㅋㅋ
가운데
블핑
##하는거임
##ur
이연
잼민
##기기
거북
##얼마나
리신
왤캐
##어용
아니길
생각해
원합니다
알고있
황교
너무하네
넷플
대상은
물쥐야
##말든
됐지
인간들
##하이
##리언
가즈
아름답
역사
우왁굳
엠씨
배정
하여간
##소속
##좋지
기만
기레기야
국내
전무
##저리
김생
방법
표현
스페
##을수
##비율
##좀그만
일본인
건후
씹덕
공룡
##찍어
오연서
##도없
남은
심하네
니코
딱히
조여
비트
파티
바뀐
##이군
선즙
시너지
잉맘
##거네
빡세
##해짐
##먹었
그러다
오지랖
주먹
선언
주자
어울리는
지않
oktopcat
학살이
이상하다
메이
숟가락
나갔
##믿고
##여기
새봄
##살아라
매력있
##잘생
않을까
돈떨어
##줘도
ueun04S2
강동
받았
망함
지고
##ㅅㅅ
##보면서
망치
##생겼다
희생
너무재밌
나이에
지상
##리어
내눈
##피아
친일파
선예
##벅지
##우먼
폭탄
아진짜
주인
할리
##감성
안믿
in
셋째
박스
##보드
잘해서
##위반
개발
##줬으면
##책임
사펑
실시간
증말
루난
응원합
레전드네
개가
##무새
##답니다
개망
이말
##선영
##경은
끝났네
송송
그대
학폭
##없게
러블리
에릭
노예
##닮은
##시윤
##메타
작가가
앞으로도
못한다
차기
##도아니고
좀만
찬성
협찬
##래퍼
##싶다
화이팅입니다
없나요
리액션
##하구나
멜로
비쥬얼
김용
닮았네요
##거리가
##나오지
##웠어요
오프
철수형
##중요
##스톤
몸이
##계의
작가님
물건
##리트
만세
합방
인게임
매번
ha
##지랄
걸리
홍현희
70
버텨
##나무
##속도
되냐
정형
살지
##피자
23
##동네
마케팅
가까
##대네
##년은
##거예요
김연
빼박
아깝지
이러니
죽는
##금지
어떨
##2성
슈가맨
##신영
##선택
##듣고
##개념
##앗다
응원할께요
웃고
##벤트
##예뻐요
그러네
수염
##일텐데
##ight
##겠구만
가루
##인가봐
드론
오버워치
실물
엉덩이
1성
##셨나
영도
정의
##다행
##놨네
궁금해
염병
아쉽네요
##22
안주
수정
정석
##도르
주진
제홍
냄새가
토큰
쇼미
##할게요
군대나
더블
제대
##르게
해피엔딩
두고
##엌ㅋㅋㅋ
윤세
금지
##부인
##섹시
변호사
다시는
미만
##하셨어요
빨갱이
미션
중간에
초반에
##인가보네
##잘하네
잘나
2대
두사람
##뭐가
이와중에
##하는건가
인터넷
유니
소름돋
현우
##에이
인교진
##르다
##하시나요
이라고
##보가
산으로
어딘
재밌었는데
젝키
##쩌네
악플다는
조정석
크림이
골프
##능력
기생충
##et
##위로
저런거
머임
##채널
하는짓
이후로
##보게
##상태
##한걸
##조가
김희선
6렙
잘해라
##되길
##엇는데
뽀삐
##어스
##데스
손흥민
누이
##색이
끝난
죽으면
케이스
겨우
##것같아요
##닮았다
기사에
##으로도
##카트
##되어
##한테도
머지
만만
##보죠
##으시길
만원
좋은곳
4등
김태리
##개그
뇌가
개재밌
똑바로
##매매
대가
딘딘
리네
힘들다
보세요
자극
기는
잘어울려
박살
##복귀
마리
안된
##퇘지
34
##하는것
이혜
##봤어
여자친구
할말
가세연
사진을
긍정
전참시
개콘
왜캐
마동
안되지
애교
곡궁
신서유기
or
안감
졌네
개인적으로
잡고
만큼
우웩
myoya
##열심히
아프다
평타
이걸로
탐켄치
한국에서
1번
김수미
재산
##아닌듯
##웃음
고딩
##트키
##신고
##효과
김승현
로코
##수씨
##ㄷㄷㄷㄷ
맞는거
##영아
홍탁
장애
월드컵
야발
초록
##으니깐
배달
몰랐네
##덩어리
##ㄱㅋㅋㅋ
##메이
또라이
열어
##안궁
세탁
##먹자
##함께
못난
자식이
모르겠음
계획
##드려
스웨인
귀염
##쳐내
남이
##마가
멋지고
진이
##스럽고
잘하면
다르다
특별
##수사
고물
저주
마오
##긴데
개오
결혼한
잘다녀
리턴
##다들
유투
물타기
설치
잘했네
만날
##기의
불매
스윙
소주
와중에
커서
##12
##가져
모아
##ang
##지않아
갖다
결혼해라
대단하
##리를
##에겐
##여자는
흑운
나와야
방송을
템이
고준
살자
##요즘
된거
##ㅐㅐ
배꼽
진자
청순
주변
한예슬
##제이
내고
현주
두명
홍콩
윤종
방송국
##수를
##컨셉
최고지
챙기
사람들은
##해보이
##이냐고
요요
그만큼
##이였어
정용
##라고요
빚투
너만
딩거
발음
나왔다
있잖아
건들지
##재앙
만드는
딜러
잔인
덮으려고
##도우
이새낀
한게
포켓몬
##빼면
안나옴
##예쁨
너의
##도록
지들
아이구
찰떡
편하게
알게
##세끼
눈빛이
6시
1분
슬픈
대부분
##잇네
크림
지키
쓰레기들
승승장구
재밌던데
##이쁘고
보이지
1점
걸레
롯데
##물어
멋있는
꾸준
##ㅏㅏㅏㅏ
##원래
##모두
문제다
##세구
아놔
잘한
공산
##잇어
신가
이래도
좋은사람
##어쩔
순산하세요
서폿이
망할
##두번
아카
##햇어
the
##여도
중기
##애기
##디언
빼자
쉬운
치매
핵노잼
##일본
##습니까
##은왜
##타지
대단해
리즈
혁신
##것을
예인
참고
되겠다
밥먹
차우찬
보여요
한녀들
군면제
##관이
살쪄
방송은
##조용히
##겻다
토토
이새끼는
한글
못막
청원
##유치
##규리
파파
식당
##잘하고
##선생
##키스
방플
인터뷰
싸펑
싶네
프로브
기억이
승리야
장동민
이이
##논란
한혜
여진구
gilyouH
하루종일
개웃겨
##누님
아빠랑
mbc
##발언
##은아
교육
##할께요
##렸음
번역
사겨라
##꺼면
poongK
억지로
교회
결혼해
디스패치
##들어가
블랙핑크
힘이
없네요
##실듯
##을걸
##잔데
##아픈
##아직도
날씬
갑분
##히네
싶네요
##모양
##추천
##인걸
감우성
나라가
##ㅑㅑ
##입니까
발견
보답
닮아
병신
기대중
관상이
##적이야
유병재
보호
##웠음
살림
가시
##는가
일을
핸드
5개
정규
##저분
##임ㅋㅋ
##수다
##캐슬
보석
소이현
잠시
나왓
##받았
##됐어
##튜브
##보냐
##보다가
쩌네
하겠네
##전은
다죽
##자야
같던데
한심한
재밌었
##ps
팬입니다
물고
죄냐
그랩
##나봄
##빙빙
##겠니
##대장
았네
유명한
착각
##난리
##대가리
mdgdM
원더
고주
쓰네
이기사
##몰입
당신이
시체
장미
똘삼
아하
전생에
티어
트레일러
신화
어야
무뉴뉴
##버는
##ㄱㄱㄱ
##넘어
이때
이런건
##얔ㅋㅋㅋ
장재인
처음부터
##소라
어마
내리
##교수님
관심없
발언
##돈으로
한국남자
비호
싱크
통통
가르
##들이랑
10분
##시는분
##실화
되요
생긴게
##스탈
여자들은
##모습이
##고싶은
려요
##눈이
머니
##이겠지
또또
풀어
##할배
##로써
부부가
시네
김기
##각이
사다리
##머리가
##이야기
별론데
안남
##도네
뭔소리
했어요
##iki
문죄
##겠당
신혼
##는거네
김생민
재결합
존경합니다
좋았음
있던데
##대응
김재욱
전판
착하고
##이네ㅋㅋ
##당한
좋아해
모자이크
bj
옥주
초등
##NG
늘어
황제
피가
##나고
##소녀
##벌써
됐어
손담비
##컸네
오는
##바지
##잘하
훌렁
최악의
공파
고등
안대
##은거야
싸이코
##른거
애기가
##그럴
물리
끝나고
투자
찍고
놀고
세트
하겠지
극한
##ru
보는거
나홀로
정부
##입장
1렙
줘야
##지션
##었다고
나이도
파이크
##드래곤
소개
##져도
엄마는
바지
꼴찌
연상
신뢰
안마
##말로
죄가
죽는다
맞어
소년
저딴
##마렵
내놔
면제
안녕하세요
##그래픽
윤시윤
아까움
남탓
선동
터트
쿠하
맘이
너무나
##ri
저저
ad
자존
어때서
세대
##당함
##통수
1코
이별
50대
잘됐으면
었다
##주니
컸네
나이들
에혀
##공감
각성
배려
수련
올킬
한방
추잡
코코
##자나요
엘든
성격이
당황
##천히
한건
들어오
##귀엽다
안하는
ㄴㅇ
##인건
이니
##해여
욕을
텐데
##돌아가
티가
보기좋다
##걸리
##뭔가
##사람도
사재
##막장
이대로
프듀
결방
살았
다른데
띄워
싹다
이뻐서
안재
했던
할게
즉시
트런
배워
쪽바리
##감사
저번에
효니
자이라
##지노
늙었네
완성
배정남
추자
xkw
모르겠는데
정상이
##것같아
##봤음
검열
끔찍
다른거
혈석
ㅁㅈ
써라
막방
어지간히
이준기
윤계
타격
##임ㅋㅋㅋ
옛날에
##소름
이번판
최진혁
흑화
##은거지
김치녀
세나
##va
##레드
##하시죠
토끼
무섭네
조수
포셔
##카락
축하드려
똑같아
##앞에
밸류
강제
민주
작업
##솔직
했냐
보단
우울증
잼민이
##대의
아이언맨
가는구나
현재
##이였음
##정훈
초대
누구신지
##Cheer
기레기들
##열어
못생겨
너불
##있어야
집사부
착해
마무리
안타깝네
##빼라
고무
누규
김흥
물이
버린
2천
않는
협박
사귀면
미세
비에고
박진영
망해
어후
맞나요
##지는거
##티스트
##lap
좌표
힙찔
아니었
##구속
TV
BTS
성유리
##이긴해
밤에
##지기
알겠
큐브
##을려고
몰라서
쵝오
유느님
##wa
않냐
##배기
이상한데
허리
##래도
관련
흥미
떠오
##있나요
았다
나머지
호들갑
여자를
수건
##한다는
범인은
겸손
##내는
##복사
별로임
넘사벽
##주제
이경규
이쁘더라
엄마랑
인간이
4개
김준
첨부터
정손
그래봤자
##야겠다
##느리
1시간
##영주
채널돌림
##주세
탄생
##존예
단단
빵빵
결혼하
어디갔어
자제
단군
##ch
모르겠고
토스
##역할
맛집
##OP
나보다
##인건가
것들
집이
더러
갖고
신은
출근
##그거
##나여
##맞추
연우
##긋지
##벨벳
안어울림
gde
##치료
평균
##러스
4명
강경준
모르는데
만남
시길
안되네
##dol
##사진은
못알아
리듬
##진게
공식
첫번째
하아
2명
괴롭히
코스프레
스타는
82
부분
티저
1대
신랑
반반
팀원
안재현이
거르
치네
##사도
##티즌
고추
벌금
천박
##가봐
매장
매너
전략
지민이
##이였네
5천
##적은
크랭크
여주가
유민
티비에서
마린
##이러
##bb
몰래
서준
정재
##먹지
잘하세요
자낳대
와인
뭐하
해투
폭행
성이
##났음
짜증난다
##주행
쳐맞
나쁜놈
대답
##기부
못해서
기사라고
못믿
개구
그만하자
뭐에요
골룸
걸로
##루트
남자친구
##님의
일상
장르
불가능
저희
술집
박정
이들
##은혜
안달
황하나
##옆에
이필모
로드
##야돼
##Nun
아끼
인공
질린다
유튜버
윤정
니들은
##돈이
감자
멀록
진출
상자
##유정
먹지
heart2Bye
리스
##권이
시언
##병규
됐고
강성훈
여적
배우가
심하다
##쓰지
##낭비
##거는
구질구질
##dd
한국여자
##방에서
늙어서
ㅇㅋ
하라고
오르
##피스
명복을빕니다
그러지
##조리
##후에
눈썹
려고
7렙
지말
##기어
##신경
오정연
이용진
##저렇게
내내
헤어졌
건들지마라
이완
분들
성태
##리안
인기가
xkwhd
지창
송이
자고
준구
경매
준호
손이
##보네요
흑인
##iracl
##위해
##기업
사는게
##마케팅
상태
징그러
##집안
오글거
하겠다
한동
##어마
보너스박
##멋진
스카
##겻네
맞냐
쟤도
직원
##서가
뽑아
##껀데
소속사가
않는다
이정재
동갑
##왜안
잘될
##lo
모른
약쟁
레게노
##잘한다
##였던
안보이
자자
빌런
유인나
버섯
지금까지
##하셨습니다
낳냐
결말
쟤네
결혼하는
##가보네
잘생겼어
##웠는데
여자랑
연승
위한
##쪽이
##붕이
소환
저러다
염정아
즈아
##제대로
##나니
취집
##하긴해
##넼ㅋㅋ
이쁜거
욕하는
안되는데
다른사람
동방
이주
발악
##간에
##주기
##스포
##써요
안논다
어디에
인조
포자
영주
친구가
##웠어
##주냐
미노
##하여
로또
인이
##치는거
뭐하러
곱창
##부탁
##순신
술이
이언니
##나지
##벌레
##절대
##xx
사쿠라
라위
##만하지
대성
##Oh
그려
있던
하구만
한효
끌어
이제야
붙여
먹네
심지어
##gu
정령
쾌유
김치만두
곰보
장갑
대구
성우
이벤트
히키
##뭐임
##캐릭터
##할수도
##향이
섹스
듣기
사이버
스태틱
##소리가
##안감
시계
##머야
##먹어서
버거
커버
많지
싶은데
##니당
##바뀌
다음은
##OA
않은데
믿어요
##해보인다
기물
##해줘요
존버
##튀김
추방
##외모
##인대
##러쉬
##리그
1편
형제
##악질
무적
혜지
##안봄
장기용
나오는데
사미라
##순위
시즌1
마자
어려워
##나왔으면
##타령
탑은
##숭이
김선
##지내
김정훈
징그럽다
서순
##ㄹㄹ
연예인도
않고
29
넣고
준표
##길이
이런것도
##느껴
##개같이
안나왔으면
처리
날먹
##시브
징징
##시요
순삭
믿거
봤음
##미지
사귀는거
##플레이
문제야
##현주
쓰레기네
성범죄
##마법
님들
##튜버
##디나
역시나
고싶다
##오고
한번더
아닐까요
##ㅓㅓㅓ
##거든요
먹여
트럭
mb
꼴뵈
##그런가
창피
##을수도
쿵쾅쿵쾅
김서
조연
죽었다
황정음
##CL
##많음
서른
역전
스팀
한혜진이
가방
아리
그렇고
##빠져
않아요
거부
안궁
##누군지
알았어
저럴
##인물
45
인지도
##스럽네요
오나라
##겄다
들아
예비
꼴등
인물이
이겼다
언능
##났는데
mdgdMove
성별
##생연
##리라
##안하냐
데요
ㅜㅜㅜㅜ
카운터
##보이지
##엇어
##빠진
축하축하
쌍둥이
##만하네
여윽
##오자
##새키
가위
##댕이
애들아
##즈가
안되냐
죽일
힘드
##석은
##판이
똥꼬
##속에
수록
뻔한
정인
##탱이
##노우
##기엔
기사내
손예
배도
애비
즐겁
##것같음
후배
중국인
고영
##잇음
판빙빙
김보
하는거지
승부
있으니
걸린
아따
었네
놀러
더빙
무슨일
그럴수도
찢어
##무게
##땜시
##을왜
그곳
까비
##서스
먹은
전기
스토리가
닮았어요
시어머니
##왔어
박준
##전쟁
멋있음
입만
##종국
개극혐
가도
##본방
헤드
제라스
징역
나를
수지는
##엇음
열받
천천히
##했으니
한결
##렌다
안어울려
때가
거신
건방
말씀
안정환
사겼
총알
복사
##유지
인지
게임을
아이유는
잊혀
언제부터
끝날
내보내
저글링
##반대
살아요
발라
##ㅅㅋ
##얼마
##들이나
##01
달다
국민청원
성매매
##갑시다
케인
##사지
##세가
##태영
사시길
가려
붕어빵
있네요
##야되
악플이
##거같은
없잖아
아깝네
##르기
자연사
마인드
좋아했는데
캐리어
삼성
몇명
데이트
##무원
##으로는
나타
##로도
##못하는
사랑하세요
ㅏㅏ
되길
##음악
##많은데
근육
이루
아들은
##저나
김비서
벌어
##낫네
사이비
카페
그는
##고소
##걸이
할까
##웨이
할줄
황교익
##먹기
강의
정국
##하네ㅋㅋ
클래
##재훈
##결과
보나
나이들어
##박스
타임
나와도
양쪽
구분
먹는거
해골
##처녀
##존잼
##싫음
국뽕
돈만
행쇼
th
황민
##맞는
꺼지
실력이
##강호
##할줄
##같지
이상함
##했잖아
안물안궁
##ㅌㅊ
흔들
##자의
만족
##ani
##린이
문에
갔어
노인
##개는
게임은
펭수
##셨다
##잘알
미안하다
해보자
하나만
##을지도
받아야
안봐도
빵떡
수은
하세
으아
거슬
##운다
어플
존멋
그것
미안한데
시기
망해라
차단
박보영
건데
##여요
맞았
몸매가
어릴때
걸렸
감성팔이
아네
##장도
##이었으면
##한텐
서양
봤네
소녀시대
치속
##은안
##살지
가로
##돼요
먹음
##ti
##장을
딴따라
부러워요
reva
##달콩
어떰
토나온다
울고
##까스
타짜
ju10
똥싸
넘어가
##갑다
최후
고마워요
##사나
권상
레전
안걸
봉쇄
##볼까
은근히
##만남
PC
##셨으면
이국주
설렘
여눈
##되겠네
##든말든
##할머니
맛있어
##사위
##팬들
##만함
여기까지
개같이멸망
가는거
지창욱
##진진
##부자
##일을
나오겠네
백수
시점
나올듯
닮아서
##희님
정산
##사비
이혼이
##각이다
정신차려
맥주
보스
##마저
김영희
징크
수지가
##이었지
할말이
베댓
터짐
##이예요
꽃길
##라이팅
도움
##Nuna
생각난다
묘야
##겠나
##콜라
차가
##냐ㅋㅋㅋ
비해
떡상
##Bb
MBC
우왕
##지않은
지마라
진다
달아
잘만들
청춘
기사화
산타
나갈
특징
서운
##아기
감히
##만나서
##하군
##으다
##줍시다
##업자
아비
눈깔
##있다고
연애인
##테이
차이가
막아
##킹볼
무너
배경
못받
##등감
강한나
##버리고
못이기
같은거
##단계
##소서
공황
##시민
조리
##그마
##놈은
지나가
플레임이
알콩
잘했는데
##만의
의문의
##ba
포르
재석
손석
##고있다
진은
##했나요
쉽지
##급이
##정도는
문화
##나쁜
##대전
##긴했어
시험
머리카락
저여자
싫어요
##유명
##줄게
##아래
모양
고래
뉘신지
놀라
##오지네
김태호
예약
##이그
미니언
수다
심하게
##차이가
짱짱
먹튀
는건
엘든링
##십시오
##알고
##먼지
48
##편은
놓고
잘하지
아르
크갈비
##자로
사귀고
규현
한번에
마렵네
##이서
##꺼다
루태는
배찌
모르면
JY
##해주면
베스트
##름이
신봉
##구로
##안하면
빨라
##살기
##성기
##하셨네
힘들었
하길
##가는거
##한남
정권
##단이
못된
##ㅗㅗ
##리엄
미남
안뜨
##좀해
라미
##알려
##병이
##듣보잡
조인성
재밌지
##축하합니다
##햇음
끄덕
2배
연예인들은
상화
위해서
##덕에
##좋네요
##겜이
조민기
짝짝
##반이
리타
##같어
예쁜사랑
헤어진
징글
sbs
안좋은
##애니
##기레기
직히
소중
우선
##보는거
스윗
##ㅉㅉㅉ
가오
칼리
##생이
서민
암별
성형전
##자주
택시
##혀라
##CLAP
##으시네
##세윤
안할
##입대
일은
따뜻한
없는게
우정
가죠
어쩌다
SN
근대
티나
정우
##담이
가리
주문
##가냐
##생기
남자들이
말랐
조금만
도라
잘어울리는
비챤
아시
망했네
급이
깜빵
ju1050
얼굴을
##뎈ㅋㅋㅋ
오랫
이명
좋습니다
있죠
머리에
봐야겠다
##부족
했다고
##감은
헤어지면
주차
매우
##서야
##귀신
##기사가
벌써부터
있는게
##각인데
힘내시고
삼식이
##건이
26
구하
안현
##같아서
##듀오
중립
인생이
떨어지
##했나보네
나가라
연장
예진
##해줘라
리틀
영구
합류
##박사
타워
구구
사자
##한것도
닌가
몸매는
계란
술마
1승
##희롱
##지ㅋㅋㅋ
안하나
##실패
##스티
못봐
나쁘지
도구가
천국
##잇다
혐오
##어부
차짬
짬뽕
줘야지
속도위반
되나요
##님들
누구랑
박아
감탄
##범이
##만드
힘내세
##써서
정준하
얘들
##안타깝
##처벌
하지말고
광대
몇살
##해야한다
여자의
##새끼가
##하신분
아구가
별걸다
왕따
poongKiki
다를
봤어
금요일
킬러
##에만
용준
자한당
##했을까
이부부
##인드
웃긴다
##감동
전지현
##턴에
조병규
라인전
맞긴
##없으니
지우
힘들지
##개가
에일
사서
##풀이
한듯
##으려
안됐
##abb
##노답
지방
##줄알았는데
멤버들
고르
꼴페미
이제그만
콜라보
조회
완벽한
가지가지한다
김흥국
화려
어려운
##셔야죠
남성
##밀리
눈을
##버튼
하나는
오더
6학
##ㄱㅇ
##ㅎㅋㅎㅋ
치는
조선족
중계
최애
이글
##ㅌㅋㅋㅋ
김남주
봅시다
더더
돈주고
빅헤
##울듯
데드
님은
강력
전사
요란
야망
##기분
##인배
지들이
사귈
##련이
라서
어도
##ON
##이더라
##천지
##병원
개봉
을듯
알겠다
유유
##모르겠다
이도
한채아
##들이야
ㅇㄴ
세상에서
개웃김
영자언니
시나
여윽시
##가는구나
골목식당
조기
빙결
신곡
이광
##수로
##을꺼
##베인
린다
쉽다
단어
이쁘니까
먹어야
##TA
길어
능지
##해머
시켜라
디아
##상황
저질
ㅇㅂ
메갈들
어쩌라
반짝
송민호
ㅇㅅㅇ
리고
닮았어
축하한다
듣는
없었다
첫째
##민씨
써야
치면
##회견
히오스
##시게
##작은
##대사
1회
야동
##으라
여기는
##놈아
쁘네
##답답
똑같다
##일때
고생이
집단
야이
하는건
##멋지다
우리집
개구리
악플은
말랑
모기
텐션
##정을
안보면
신나
비행기
나은이
왔는데
관심도
나왔음
##정화
##겟는데
##바랍니다
싫어합니다
개이득
돈많은
##97
##사랑해
##그널
돈에
##세트
##안되는
##지우
##아름
비난
심심
##라시
##치다
어때요
뽀샵
서태
##근이
여적여
이커플
재밌고
지능
##투리
##즈는
불쌍하네
모니
유부남
밍키
거냐
##퇴출
하나씩
놀랬
여론
플스
##형제
##일반
스탈
##해ㅋㅋㅋ
케이윌
##말도
재인
##없는거
##다다
##연패
##퓨터
가족이
##프가
신동엽
돌싱
괜찮아요
no
오크
##정도로
즐기
ㄱㅇㅇ
##부다
다같이
##음ㅋㅋㅋ
최우
바른
손잡
하지않
잘가요
형이야
한국의
거결
##졌으면
ㄱㄱㄱㄱ
이나영
##고정
만나요
##잡네
왜그랬
잘해요
##ood
윤종신
손나은
아역
뭘까
셋다
운다
바꿔라
윤식당
이만
키아나
써니
##몰랐
예뻐서
잔잔
6개월
질럿
##uu
1시
그러니
가냐
나빠
##기들
멋있네
##재는
잘하시
엄청난
##고있어
기자양반
최선
후속
히히
##축하해
연좌
판박
톱스타
찍은
##사냐
김나영
크리스탈
노노그램
##tv
광수
생각하면
##기전
사귀는
볼수
##희야
날라
대장
재기
이시국에
##상종
##만하다
이악물고
한혜진은
악역
zzamCLAP
##한거냐
##가세요
##매니저
만나면
##왤케
시공
##미스
파밍
##하지도
강식당
##레인
##님을
내년에
동매
핑계
SM
노산
1개
##과의
몰랐는데
박사
##경찰
##여성
핀냐
##모그
나르
##마술
영화는
속보
##분위
결혼해서
송혜교는
시원하게
교체
ㄴㄴㄴ
##보고싶어요
생겼어
MC
죽네
크으
##무도
ㄱㅇ
55
무난
바루스
##라딘
##음식
오세요
ㅆㄹㄱ
전진
뭐니
주진모
꼬꼬
방어
kbs
옵저
기대가
##할려고
어질어질
가능한
##을거같은데
##리롤
이혼녀
OO
화나
cc
민초
송승
여기저기
기다리고
##마지막
반지
가발
기대할게요
있었네
다음에
나간
믿습니다
집착
진작에
살살
녀석
좋겟다
사이코
나을듯
##먹방
가인
##실이
##펀치
##좋아하는
가진
##했구만
##an2
사골
##하시면
##보기싫다
박형
왹져
몰랐다
##인증
이거는
경쟁
##애애
##긋지긋
없어도
진리
캡쳐
정은
개돼지들
##못차
이분도
순진
주접
천생연
카드가
##크네
알면
##너스
##쓰는거
홍자매
최초
##정부
##an1
42
필모
감방
##스토리
##거같네
살아있
술먹고
##버리기
배우는
기절
##만든
##안나오
발표
##무대
##이미지
힘들겠다
나눠
어지럽네
객관
##해야해
넣으면
사랑스러워
동생이
존윅
니달리
나온거
사진만
##rea
##님이랑
닥터
##수아
관심이
비디오
사랑한다
오늘부터
모지
##해보자
##먹어라
##거스
기안이
고생많
윤지오
##노무
##Clap
올린
##배는
의미가
##스톱
chod
건강히
이승윤
기다리
저것도
##블루
기사냐
27
이뿐
##셨는데
예쁠
미모가
레드벨벳
살다
시선
##놀이
의자
##해봐라
ㅈㅅ
는다
시리즈
##크다
골라
엑스원
오호
##방탄
지렸다
##ue
함부로
잘되길
##아ㅏ
은거
##하자나
##작권
##해놓고
##해주네
문어
컨트롤
이제부터
##에다
##데려
##날이
솔지
잼나요
##비를
##미팅
##엔진
귓말
현빈이
이쁘지
##같네요
결혼할
아무무
하러
가보
##히면
서울대
##는왜
잘못했네
방귀
클릭
된다고
목숨
오달수
이집
가나요
래퍼
떡락
##갖고
##이든
손에
##미드
##케미
말든
##야할듯
하루에
시상식
20살
유일한
망상
##의식
같지
그래픽이
병맛
##리수
끝남
들었
##원영
흘러
부럽당
##느끼
하시네
##멋져
##하셈
플러리가
상이
##아닐까
못차
##가슴
통수
독성
드라마에서
지인
##사교
천만원
초심
본거
cd
검찰
치킨랜
이채
고영욱
구리
##ve
공중파
##우네
36
좋아하
뒤에서
쿠키
리에
받은
어쨌든
나오세요
도경완
고티
상큼
재미있어요
##점점
##발견
예쁘긴
##얼굴에
패시브
그나저나
##누군데
볼매
cs
##77
내라
딸기
이세계
##색히
새끼들
##안한
##pr
아씨
##하세용
목표
짝퉁
신기하다
트런들
버전
비상
않나요
##살려
150
르블
##자이
##봤으면
##을것
##줄이
al
발작
당연한
봉가스
##확인
신가골
파트
##잖슴
35
##포기
별로던데
점프
##JA
안늙
들을
##딸이
##잘하는
씨발
김부
었어
시골
비벼
모든게
없다고
저기서
블리
수지야
가지마
때리
허벅지
죽어라
##2개
잘했어요
휴방
똥겜
팬들이
##받아라
5범
##재밌음
##은정
볼수있
드려요
하다가
##미화
웃기고
##오름
##도그
##코스
나올때
나한테
자매
##형인간
##잘살
어디로
김정은
나이를
양아
안내
ㅋㅋㅋ개
누나가
##데기
##하루
miracl
났네
인정이지
##하고있네
##면가
안한
왜저러
쩔어
한창
3분할
도장
##증강
안봤는데
여준
합니
조덕
신성록
저렇
있어도
개추
몰아
파국
개성
서인영
##엄마가
환불
##맞다
##부른
정준호
##쓰냐
야스오
보고싶네요
스포츠
##마냥
이즈가
3천
남자들은
이분이
##근본
종국
자빠졌네
##졌네요
기사만
##인형
##있네요
##게더
##뚝에
크면
크립
노관심
미개
이미지가
##눈나
관심없음
향미
##인것
##화장
신병
화질
방송이
##앗는데
박나래가
에이미
##이었나
아스달
마다
으이구
##넣고
뉴욕
##랬는데
싸워
gta
한방에
순위
##해체
보이스
굴이
어림
##의원
##혀서
이번에도
아티스트
##사를
나오나요
폭력
종현
##러너
보이네요
돈보고
다큐
##망신
쓰자
##로리
##해진다
시급
창고
백년
올드
외모가
뿜뿜
연기로
알았음
기운
##업이
##행복하게
##할뻔
모르지만
넣자
페미니
살길
##넼ㅋ
기대되요
두꺼
##저격
##차가
리그
실망이다
육아
##졌냐
걸려
좋아함
김다
##저건
de
빠이
찰싹
응원하고
자기관리
##졋네
왜이러
적당
이네요
박진희
##우드
##나왔네
##먹는거
##주는거
##집에서
생겨서
##쳐도
##이스트
전현무는
쉐옹
최대
##으려나
외모는
##ㅅㄱ
##전문
##걸요
##블랙
재밌었다
##손해
미성
올해는
알콩달콩
뭐죠
##야죠
이영애
##하지말자
깝다
##히트
있을듯
하얀
믿음
##세탁
##걸스
지연
마동석
600
##말던
유산슬
##봅시다
##짬뽕
좋아하네
##안해도
궁금하네
루머
약한
김국
지저분
입갤
2회
잘하던데
##좋던데
오진다
준내
##십니까
##지켜
유미가
결혼도
준영
##됬네
무무
타렉
대박이네
뻐요
그런듯
##웃겼
메이드
윤계상
알파
안돼요
털어
이름은
천상
있는듯
봤으면
미안요
##이겼
왜나와
백종원이
만들자
영향
##웠네
안영
조윤
##주인공
##라이트
##하나는
용발
남양
##석아
죽어서
##잔치
이엘
나미
익숙
이진욱
컴퓨터
미워
##1도
열등감
##철이
선처
##량이
아니였
랜덤
점심
##겠더라
어울리는데
민아
냐고
명수
자네
춤추
스위치
##했겠지
##리티
얼음
##롭게
없던데
올리지
민호
백지영
##데뷔
성희롱
킹받네
##손으로
##브스
착하게
재활
한수
죽어도
##애를
조여정
마요
맞는듯
##시킨
##했었는데
아지매
처형
##못생
구원파
정용화
그랬어
네이
SNS
드라마에
##연승
0점
앉아
##Ts
여기에
정신병자
코미
궁합
##Zer
군대로
##냐구
##무조건
##좋게
##지않다
##us
남았
남편은
단체
발암
보는내내
##이쁘게
##제비
##알지
아기가
호박
##겠냐고
##이자나
##징글
귀엽네요
##레이서
영태
출발
물론
흥행
일라
출동
##사람들이
캠핑
me
김경
꼴깝
##아재
##한심
4코
글로
대다
##한명
##어린
##안어울
12시
못이겨
##거봐
##됐음
고3
나뿐
##19
놀아
무릎
이민기
미친거
딜이
##뚜기
즐겨
##하실듯
나중
뭐냐고
##해주는
루트
##미니
##인거야
매주
빠르네
차피
##미쳤
##완료
괜찮음
굿굿
뭔일
##죽음
했겠지
##구는
가가
사재기
길게
노사
니고
철면수심
##기준
##ㅁㅇ
44
메모
##소가
토요일
밥은
기성
##닮아
너무좋다
마가
카르
있었어
인맥
##와도
개카
나디나
##루나
지금이라도
망가
약해
##해야됨
지현우
는듯
드가
##팩트
일요일
부검
웅장
연예인병
나라를
레즈
##집어
인연
개명
믿고거
마이크로
드립니다
증명
떻게
##오오오
##아쉬
##하느라
하려고
나이차이
##돌리
##수리
기획사
시민
##발표
##좋았
JYP
##선물
주상
##점은
##으심
마마무
난리네
##미안
##실수
구혜선이
주네
예수
콜옵
불렀
지각
놀랐
맞아야
나와요
##했는
##리앗
이번주
##멋있다
##ㅈㅇ
아주머니
스카이캐슬
안써
압도적
인천
못하는데
아유
사랑입니다
##바위
##편이
고주원
김우빈
여름
##누구냐
드세요
##지는데
##꼬라지
##Cry
비호감이다
유재석은
##이었구나
##살자
##유가
##승연
돌연
열혈
같아서
함정
##아아아아
2주
소화
여워
다섯
##슬람
건강하고
하지말자
##일차
##바다
아형
웃기다
후보
##보이네요
##미녀
##등장
##하나보네
##남자가
##린지
##치게
누구나
하고싶다
진상
팔이
괜찮다
남매
신청
얼려
필립
잘생기고
제드
서렌
잼나게
아름답다
chodan1
밀고
유일하게
##추가
박수홍
##퇴물
그만하고
러너는
개지
엘리자
밝히
진부
##겄네
끌고
##런지
누구여
되서
육지
레킹볼
민망
언냐들
##안되나
지긋지긋
##맨이
miraclM
김학
정형돈
많냐
##도시
있었음
따라가
못하고
살쪘
죽이고
어제는
##나오지마라
##ㅈㄹ
거인
김병
유재
김사랑
6년
##재미없
맛있다
멋집니다
##장에서
탱커
연패
서브
##갑네
##것지
자신감
퇴사
많으면
##유예
조건
도망가
신났네
이노래
##별루
어렵다
어벤져스
송은이
완료
이장
잘봤어요
아부지
##배우들
수능
않을
어울리네
쓸데없는
##인거지
##셧네
하는지
장훈
기자들이
짧은
거시기
여태
못하면
초기
##르지
##그렇지
##갈때
결혼하세요
##되니
##준아
가능성
발정
환자
키아
윤세아
##방은
나이는
풋살
##수정
냅두
##입은
정신나간
나비
모르겠지만
울지마
##금이
성형은
독립
##맨날
판도라
비공개
##갔으면
윌리엄
차기작
75
해인
닥치고
하시죠
연예대상
못할
##급이네
##앜ㅋㅋㅋ
##넼ㅋㅋㅋㅋ
##유진
##ip
가챠
미인이
니는
스캔
자르반
우짜
읽어
잘생기긴
##정글
중졸
불쾌
빼도
##오냐
신지드
었는데
니라
재현
##타가
천명
##그대로
헤어질
많아요
##서도
비하
##물에
##여자들
멘트
이민호
es
##한건데
법적
##멋짐
말하는거
##수있음
이유는
송승헌
##서는
##하냐고
없습니다
붙어
돈좀
ㅇㄷㄹ
유연석
달리
엄지
강남이
인도
어딨어
##투표
보정
오프닝
이온
살빼면
늘려
스킵
꽃빈님
##질문
고맙다
국회
권나라
긴해
맘대로
##챙기
분위기가
유유상종
##좋겠어요
영화가
에스
##ㄷㄱ
##덜덜
잘먹
신중
##긴하
월클
##ra
봐주
##꺼져
양파
람이
자들
##댄다
이홍
##준거
보냈
##났어요
논다
##라운드
##나오는거
안되나요
아야
주의
##남매
모르네
사야
엠넷
##꼬리
니야
뭔상관
생각남
안한다
##다은
바이브
신기하네
##어렵
배운
누구에요
흥하세요
##ce
##성우
10억
반복
제국
##에스
복하세요
##을라고
오케이
채워
청와
류승
신혜
##지않냐
너무좋
보수
미국인
감당
기분이
##변이
가왕
##어어어
##무섭다
업하고
##ae
이태임
조커
사라지
##안남
##할일
개쩔
소나
앞에서
##사회
이상하네
이아
dop
맞춤
##받아야
##연기는
##계약
##버그
받아라
김창
오메
예고편
크고
##더라도
몰라요
와사비
##기원
이명박
약속
워모그
미쳤어
마른
배도라지
사죄
아갈
##하니깐
했을까
##했어야지
들려
스시
##으며
울컥
지름
결론은
차승
##고있는
##뭐지
참지
빠르다
유노
경리
김진
##응원해요
우도
이불
##짓말
늙었
적응
드랍
있었나
적은
스노우
##정해
##15
경솔
카스
많구나
ddol
사냐
##놓은
리더
AD
놀람
추락
개모태
맞으면
미네
##나네요
댓글에
##렸나
##스데이
그것이
나이값
냥이
떡볶
월급
잘어
##소스
##거리는
강지
망했다
못먹
##코리아
없는듯
서지혜
##id
안하네
##함ㅋㅋ
##뜨면
먹고싶다
앞라인
##Lol
유사
수현
안받
주무
힐러
방구사
치즈
##방패
친한
##들이지
무거
##울어
##우파
탁재훈
애인
네ㅋㅋ
##카인
오공
트라이
살아남
민경
##정한
##동근
asmr
암살자
말하면
##군여
안봤으면
##는다고
##멋지
fd
37
##부네
저사람
##수영
옵치는
좋으면
##스케
드래곤
스튜
##aa
##서치
돼요
입은
##여우
몸에
고로
사냥
##안된다
##메이커
선한
색깔
김상
##죽을
##마약
##갔는데
##했을듯
##소울
천생연분
##나는데
##ㅎㅎㅎㅎ
식상하다
당신의
레이스
##갈수록
강인
박상
설렌다
반대로
육성
##로워
이보영
기대하고
무고죄
버튼
손호
##전환
대박이
##리스마
그러냐
넘모
후원
양말
개그우먼
회장
pd
김명
도적
##간다고
가볍
나야
휴가
##순삭
##되나요
##빠지
새삼
정선
30분
미라
성실
직도
##이번
##빠빠
건가요
몸무게
##재밌어
아이유가
최종범
##뭐해
폭풍
##일보
안정
와진짜
재미로
##피는
슬리
어둠
김혜수
##구도
##충이
한계
##됐는데
##이였다
비겁
##제도
외계
미혼
래픽
오만
조성
##배가
기대해
##장고
선바
안간다
천원
김민정
##불쌍해
##연기가
안지
아무리봐도
##살에
조합이
##으나
##셨음
나왔는데
지어
##까지만
애미
##하는중
응원함
평가
##주제에
달고
##수수
##친거
떨어짐
##버렸다
he
ㅂㅂ
신드라
구글
침장
##도둑
사가
예능은
##타이밍
9시
뭐고
뭐하나
힘든데
기름
st
흔한
기를
연결
사용
앵무
##아네
성규
##시렁
웃겼음
이왕
강은
한칸
##Ang
알면서
숨결
용식이
하는거야
찾아야
##보기싫
내꺼
##이없네
봤습니다
##죽이
##재밌다
##지용
##18
자연미인
##언이
##재수
##짘ㅋㅋㅋ
##볼수록
##치열
##있던데
불편해
넘쳐
##만화
##데레
매물
모바
##린듯
한개
놈이
임포
##블로
3부
##적이고
작작해라
##대지
##도리
언니가
그렇다고
##호그
메인에
oktopcatO
뜨면
도시어부
##본방사수
심은
##을게
웨딩
노래를
세월이
망작
기대기대
##노스
일반인이
심해
출연료
다나
rabb
ㅈ망
##마시
##판에
##졋다
반말
여럿
얼굴로
기원합니다
조각
킹받
삼시
ㅊㅊ
김준호
죽무
지존
옥주현
폭로
##르코
노이즈마케팅
##슬퍼
##공부
더욱
마카
만나고
28
쌍수
최자
##었나요
##맞나
하고싶은거
하겠
##온거
관상은
##롤체
##화공
아니었나
싫은데
지워
신세
그웬
설현이
한동숙
##하지않나
숙청
ㅅㅂㅋㅋㅋ
민수
##좀요
털털
##so
##상무
방구석
놀래
##욕심
##독교
진심이
##릴라
##있는듯
수수
하다하다
곱게
남들
##주님
안변
적이
##안하
귀여운데
마음도
꺼내
보기좋네요
못하는게
어쩌냐
##re
뒤질
##의신
바래
심리
졌어
##시켰
남주가
4년
잡았
한숨
대처
잼잼
##설레
가격
닮아가
##상을
사요
기자는
정도는
##린게
히든
##렷네
주상욱
신봉선
극복
뜯어
##종이
힘듬
실검1위
##토르
##아는데
야숨
##은요
흑운장
##확실
##스나
오구
##할거면
##한거다
31
송혜교가
pl
펀치
안보는
김성령
한별
n97
##템이
##aj
##겨라
##것같은
마리오
##줬네
옵저버
##라이즈
번호
터질
권상우
이여
##지말지
연인
자러
##진씨
롤체나
##일만
##번호
모르나
##모야
웃어
디게
대지
##있습니다
싶어서
수호
설리가
강민
나는데
내부
는구나
평범한
노브라
맛잇
##억까
살인자
보려고
일러
##던디
으니
##부턴
##줄은
##버프
용접
성격도
드라마를
##세다
볼거
더그
망신
있게
##미리
##장갑
##모자
##따로
오빠가
so
수저
##실검
대기업
응원할게
힘내시길
##버티
##디아
말지
부자연
##적임
##25
##ner
##레이드
병헌
엘리
멋지게
자연스럽게
오브
##어색
사전
조심해라
귀여웡
3시
##저러
판타지
팝콘
##ff
프로는
##조이
##필드
##을때가
뮤지컬
##은좀
##TT
피아
##hat
##자인
##잖음
베이
몰입도
##하는사람
굉장
박형식
신현
##uk
시비
종수
##렷다
입에
전소미
고장
중2
친구들
힘을
천장
생명
##불쌍하다
##ㅋㄱ
명복
무사
말로
저작권
이쁜듯
##오브
##조금
##듣는
##누구야
##폭력
##꼭지
소름끼
똑같음
사시
죄송합니다
기자회견
토마
##김에
2월
독보
##네가
##겠구나
며느리
##말자
##힌다
동양
##대통령
##ST
벌레임
##드가자
##속이
팬치
##이상해
트럼
##렉스
우결
뉴비
##야하는데
김서형
있었다
##하더만
살쪄도
##컸다
##두분
##훨씬
##아이가
요정
##할지
가는게
쓰냐
##나라로
애나
느려
감초
토나와
가족들
##과는
##지않을까
거긴
##성을
탄핵
##보구
칭찬해
나나
##솔직히
기럭
었음
잉꼬
##ㄴㅇ
하드캐리
여혐
을까
여왕
진영
##게늄
##런스
다른건
범조
없으니까
우유
어마어마
지아
머리는
##여왕
##기대된다
##만보
수련회
##애도
gilyouNuna
##진국
수고했어
##귀엽네
강동원
##앨범
싸다
이기는
##낳고
접대
12월
예측
히키킹
##영란
불리
##재산
##위키
나은데
야방
꼴뵈기
인거
루덴
한시간
기집
##하는것도
햄버거
##그래서
##도와
run
구토
김성주
##인줄알고
평소에
마지
2000
엠비씨
작년
##해봐야
남편분
페이커
##판은
스타매물
전국
##크루
못본
##정신이
부끄럽
쳐먹
노래방
닮았는데
n97a
닮았음
##카림
없죠
장수
파랑
##성도
##이었어요
장현
##테니
이요
##HH
줘요
초코
소원
##난듯
무뇌
##서로
rabban2
빠지면
##케이스
##여자랑
to
만드네
##리는게
합격
##잘생김
생각을
마음에
정상은
검색어
받는
에이핑크
##기안
##tbc
미성년
마닷이
문재앙이
##시스
##상수
하시는
##스킨
인간적으로
화해
보컬
분은
집은
##치자
귀엽당
윤은혜
##이걸
##인가여
방탄이
##제는
##연하
분수
##ㅡㅠ
##치도
방패
##클라스
꾸준히
##못하네
##판단
##롭다
화내
좋은듯
잘못된
##대단하다
##망한
##했지만
안아
##달려
입양
하더니
##치로
왜그
문제임
아바
##ho
상폐
이하늘
유미는
이쁘던데
400
겼다
둘중
##의가
치워
##체스
커마
이성경
##하셔
이뿌네
환상
##졌지
##캐스팅
동남아
빌려
김고은
##키니
##에서만
사무엘
안잡
##렸지
##추리
##셨어
##해주지
##제작
안나오네
다녀와
나왔던
한쪽
높은
##합니당
##때려
사극
##강화
##하시지
윤상
참아
##게이야
다리가
비가
허경
마스
개좋아
##달아
공인
##보이고
20시간
##바래요
애한테
컸다
##이아니라
##이라던데
그래야
생긴대로
씨엘
저쪽
##wo
##고싶어요
##날두
##사에
##르신
##곳에
루태야
##드론
어이없네
##준상
##시키자
치명
##주연
보고싶네
en
##코가
##파이어
네가
##을지
아프지마
변기유천
종이
말만
오마이
##거품
팬미팅
##kf
무지개
woohanTs
클론
잘하는거
고작
아픔
##팡이
그런건
7병
pt
##시청률
cdm
##모는
남자보는
치킨무
한때
좋냐
##도망
합성
##닮아서
##반응
목소리도
옷을
##보급
38
##이라며
간장
##펜스
노래만
한국에
##부대
아이비
##얼굴은
##나오게
초가
터뜨
디테일
고집
아빠는
인조인간
오뱅
진수
헛소리
주제에
비공
##쳐먹
##키고
통화
기여
우째
##한놈
##겨운
거다
니도
84
비하면
전원
흐름
치트키
클라라
##회복
##고있는데
브란
사랑은
먹어서
##한수
##어야함
ㅋㅋㅋ진짜
모래
박소
여푸
정유
조져
라인업
습관
줘도
##해주자
모두가
##욬ㅋㅋㅋ
로맨스
딴거
##드레
화살
조심해
재수없어
고물상
교환
문열어
이기네
인성도
꾸미
##이너무
##사람들은
##중국
손태영
명곡
아이스
아름다우
마네
2층
했구나
##팬이
사랑하는
나성
##낫지
##들만의
온유
##꾸로
조폭
##된다고
Cheer
##대에
##갈이
부부는
##알아야
##자살
##설정
정소
쩌리
##작이
많고
사랑스럽다
재료
드라마도
최고임
뉴규
##판왕
아가리
##나오고
am
##ex
이뻐라
디바
##멋있
##똑같
ydcJ
조회수
남자도
##ug
마흔
##키는
경상도
대전
##시라
안되요
흑우
멋지십니다
팬이에요
잘봤습니다
조교
포토
한효주
##안본다
##졸라
##크고
힘들게
시장
악령
처녀
황민현
마을
##은퇴
##마스터
##차별
띵님
워낙
모가
어따
코딩
아트
##뻔뻔
사일
미모는
##공연
고향이
불가
##거리네
폴트
스윙스
하나같이
결국은
실검에
##리세요
##볼게
오랑
##형준
군생활
하는듯
안영미
해줄
징그러워
이빨
맘고생
콩후
##따위
##느낌이
미운
##냐ㅋㅋ
fv
##한거같은데
애들도
##지로
##렸으면
##키가
##배우가
바랄
셀카
##에나
아파트
하신
##렌치
##연기도
해야함
다르지
못잡
오늘밤
##부리
마셔
일도
##끼가
간이
문가
안했다
##시야
크라
판박이
기사도
##면서요
추자현
길다
많네요
##이쁘네요
##가게
##만하
쌉가능
##여야
허지
##개를
##포스
##센스
장난감
##기다려
와아
##구야
##과함께
##었는
문근
심술
##정원
##통이
개리
전설의
##연씨
손예진이
스턴
이쁜건
시켰
크흠
##인데도
김다미
잘난
못하게
이뻤는데
부탁드립니다
##만도
##나오는데
##저히
피카
역겹네
##ㅡㅜ
미세먼지
##빠이
개똥
##일체
무조
보구
종민
맛있는
##검색
낳고
바꼈
해줘요
다르게
애호가
월요일
유느
한번씩
워해머
오라
##이였으면
드레
보미
4번
##는거에요
김성태
##보나
##멋져요
최진실
배틀
산책
치킨랜치
업치고
본인도
결혼이
##무서워
##우지
##의심
둘은
이윤
서버
##사제
##올듯
바뀜
인다
##허네
이러다가
나얼
서든
김치년
워요
운명
튼튼
##낸다
한복
##애랑
파라
좋아하는데
##지니스
철이
##하세여
말던지
##터지
편의
##봉이
아이디
탑이
딸도
심시티
꼴보기싫
하지마세요
대단해요
이해불가
다하네
한강
여동생
잘만나
##트맨
삭발
아침부터
떠나서
인생을
인피니
다행이네요
jin
수치
재밌을
보고싶어
됐는데
마시고
지독
##버릇
살아야
##펑크
어쨋
##당이
꼴값
간신
##플라
드러운
잘라
진지하게
김주혁
김민희
자랑질
##에바
아침에
##했노
가창
기삿
##건들
##축하드립니다
변호
##조차
##련들
동백이
살을
##없애
잘했음
90년대
##을안
핸드폰
##폭발
음성
유부녀
만약
##해주고
##잘어울려요
##적당히
유쾌한
홍윤
모니터
부릅니다
입금
##그게
연애의
믿는
있으니까
##오글
지다
##드백
##편집
남자다
ㅋㄱ
경수
대깨문
가수가
##la
##입이
##레이션
훌렁이
연속
##채원
능력자
만들고
밝은
훈련
##OT
한턴
베이비
##너무좋아
근황
쥬비스
##본드
##수있다
같기도
기대되네요
난리야
별이
##니까요
##현빈
라이엇
##디디
들어도
성공했네
남자랑
인팁
##율이
이런것
너야
대인배
이은
태불
##줬는데
##빌드
모든걸
##주에
##역질
보트
yegg
##세로
##ㄱㅊ
음주운전은
##출산
강추
이년
##함ㅋㅋㅋ
##정권
##힘내요
있겠지
실드
네ㅋ
농담
##역사
한국은
나가면
한끼
저런게
끝나면
do
##끝까지
##파이팅
판사
##어야죠
##동자
하뮬
알고싶
##구석
의식
##분들이
억빠
댄스
화성
올라오
죽은거
##있어도
걸으세요
이뻣
처음에
##스토
며칠
##위험
주방
##세이
ㅡㅡㅡ
##올린
매력있음
만에
정찰
woohanLol
전무님
##그자체
파이리
부인이
##는거같은데
보여서
##다르
##연속
##데미
문제네
양심이
##봣는데
죽었네
##불허
##못참
##엇나
7년
한순간
혼전임신
일듯
조센
어여
##촬영
알라딘
이적
연기대상
대결
찍었
##모르겠
##했니
##전사
오랜만이네
샤이니
연기에
출연진
##지않았나
환갑
##할때가
가는데
##도기
토컨
##창석
방탄은
##슬론
쵸단
##있으니
##나이트
##회장
새우튀김
알차
정려
카카
혼내
구린
##컴백
새기
송강호
욕먹을
것이
간미
사촌
##jal
##ㄲㅋ
##많아서
32
는지
##LO
이겜
맛있겠다
야생
빨리가
##아닙
##살인데
##끼고
##준영
##드러
1명
버튜버
악의
##ck
못봤
문빠
입구
쳐다
##오랜
러너가
반가워요
앞머리
프랑
##예원
웃겨요
##포도
##yong
뭐다
가져와
던져
떨어져
마미
컵헤드
le
해조
각이
전드
저런걸
패드
##이었던
김풍
많았
민정
##한혜진
행님
##와이프
굽쥐
그런게
심한
##끼는
##그네
천벌
##언플
너무잘
##미남
마법사
김새
꼬마
상위
질병
현대
성숙
종우는
예민
토르
결혼한다
각자
적당히해라
잡으면
##주로
##같은소리
라미란
##무지
##채팅
내일도
뒤집어
##1년
##어른
괜춘
알바들
##pd
보고있나
챔프
재밌더라
구혜선씨
##tt
프로포
벗고
자기야
##있구나
ㅇㅇㅇ
낭비
먼지
##해야돼
하든
##러리
##선은
같은데요
그램
ng
##충격
100퍼
말던
##무엇
두부
각이다
세기의
##식은
생겼는데
메타버스
동의
##만한데
##난동
##한이
##주의자
감정이
한줄
다행이네
잊지
트루
##음ㅋㅋ
소재
오영주
김호
트집
라이언
조씨
재밌네요
말아라
싫어하는
벗어
##다니는
##리에
복구
어느정도
1초
아리아
짠내
##이는거
독특
##대륙
이거지
유투브
##맞냐
##앞에서
##때메
흥분
애네
얼짱
자야
같어
이혼하고
##집단
##한잔
##트콤
##할래
개사
##라며
##로로
남규리
홍선영
끝났어
집유
우나
일만
페어
##하필
중고
##진출
##돈벌
맴버
기대할께요
쓴다
기레기가
자존심
한두번
상체
이동국
오지마
놀랍다
##소속사
성공한
##타이어
박나
행복해라
하스스톤
프레임
기레
##JOA
에어
el
구준
박효
르블랑
사수
클립
야야
##데모
##파는
##방법
##종영
ㄹㅇㅋㅋㅋ
39
안하는게
폐지가
##가는데
차세
하하하
##egg
유치해
빠르게
뒤지
바르
유포
##시도
생방
##마는
##드라마는
박하나
주거
없으
지막
매력있어
##저게
##하누
다녀오
높아
성형을
든다
어설
염색
##이어
##기간
##쓰자
조덕제
올리는
##목구
아니구만
##수없
매력적인
탈주
마지막회
##제이스
종원
였어
젤다
##방종
##옵니다
woohanOh
안나가
##해야겠다
100점
수퍼
내면
시킨
잘어울리네
뇌정지
bts
##으로만
목이
누누
##건다
##준다고
당연하지
난또
옹호
선녀
태국
흐뭇
이럴때
##왜저래
##하긴함
아버지가
카라
복을
죽어야
##뚜룹
##같으면
예쁘당
장애인
남상
정화
##ub
ㅋㅋㅋㄱ
이상한거
할텐데
##민정
건강이
기강
도로
희철
웃는거
##님한테
##불안
ㅁㅇ
10만
어쩌고
돈까스
##지냐
##니는
##눈빛
쉬어
율희
체급
##기물
대응
레임
유해진
##맛있
황치열
##칠때
뇌사
부른
천명훈
바론
구해
잘살아라
유튭각
yeggun
##샤인
##수있지
##인사
##려구
##미래
##해졌네
법이
##기사를
아니었음
찾자
##같던데
별로네
짱이다
꼴도
끝났다
안볼란다
안부
##기사는
왜해
잡혀
##었을
가해자
닉값
##윤호
안갔
##평생
고준희
##할걸
##당했네
나피디
모드
##꺼에요
겜이
ptil
바란다
언제쯤
반박
##60
키도
##펙트
요약
애기들
##왜이래
##온이
신영
##히고
영국
자아
##기나
##바바
생각도
건드리
스타가
##ner01
두근
##갑자기
미용
##시당
상태가
옆에서
타령
뻔뻔한
wakDpr
##이노
##거죠
##론즈
##하는줄
##재밌게
났다
코믹
##개웃기네
전여친
했지만
부캐
제목에
##00원
집행유예
130
mbti
##고리
왔어
누가보면
골리앗
##질투
모임
송종국
아껴
케빈
오예
좌좀
화이팅하세요
먹어도
##메이크
트위
##네여
www
똑같은데
글씨
##가든
10번
##겠노
정신못차
요룰
저러면
##보여서
썸네
나왔어
부러워서
하지원
구독권
나주
쓰러
바닥에
누굴까
보인
##해야되
기성용
##찌질
부럽습니다
죽지
지름길
몰랏
##따라가
##못하
##확정
링크
어딧
포스
##러드
쫄깃
아이는
전파
영재
알려주
백배
KBS
재앙이
##ovel
경찰이
까도
##거같애
##태규
완전체
갑자
##우기
손호준
눈은
쥬쥬
##것들은
육지담
나은듯
##루태
불금
원피스
은퇴해라
##일단
다양
장군
##빈아
##아이유
##끝났
##새끼야
무서움
fvin
마피아
##으셈
##됐지
삼시세끼
샷건
주사
죽었어
동숙
##힘든
원더걸스
##추억
##카페
기대되
##어제
##느데
깜짝이야
단아
쇼핑
그레이
화사는
묘야님
전과
보물
##하는거냐
건지
##할땐
징글징글
이장우
나네요
이기고
동성애
화보
##ag
김신영
##이라는게
문죄인
죽고
건모형
아내의맛
짝짝짝
7등
드루
역겨워
신드
무개념
트수들
귀가
##연히
##크리
##두준
그모
보다는
빵터짐
품절
아직은
##동산
##달달
이런식으로
말려
배워라
이긴다
##구낭
후덜덜
프레
이사람은
상금
에게
##쇼핑
지환아
캡틴
##재원
x2
##쉬세요
댓글창
##이름이
아군
##혐의
일등
작아
##나쁘
거죠
기사쓸
##otwo
##어찌
삼가고인의명복을빕니다
멸치
##받음
원정
사람이다
드러워
##예상
0대
특혜
벨트
이청
매드
팀이
##본인
끝은
love
멋쪄
##남자는
##오열
언덕
강주
아프지
빡빡
열정
코로
필드
착하네
##좋더라
전현
##라니까
##사기꾼
못생겨서
잘못이지
박재
모르지
김씨
싶지
카리스마
견뎌
골빈
종특
사부
빙빙
디오
##보다더
유관
##사람을
이광수
##다ㅋㅋ
##없네요
그땐
죽었는데
국방
의상
##같고
별개
불편한
3개월
날이
다롱이
##면가왕
라오
안했는데
음색
##반도
두껍
##터널
##욱이
이게다
ai
비위
술은
였네
PD
##안봐
노안
5명
송중기가
##나오지마
할아버
흑흑
##십시요
dopa
시국에
##이뽀
##해지는
##력은
사랑을
##같아도
이었
##조카
##억울
##Aa
때문이다
풍년
마이크로닷
주니
##어머
짜고치는
##으실
소송
된장
입국
무명
법칙
말도안
조심히
존중
필연
본격
현실은
##라이브
##예쁘네
인구
바탕
##원툴
괜찮네
허지웅
3일
없었음
턱이
##드라마가
##도발
방송용
딱딱
##요들
깔끔하게
이색
##했는지
##미만
##할아버지
사회악
##뿐인
제발좀
보이냐
##려도
사랑의
아니라서
##모르는
신이야
##레벨
##투비
착하다
허위
##이하
누르
계단
빠는
파우
안되면
잼있어요
##삼촌
##ㅎㅇ
ptilda
짜리
##아니라고
명치
##세지
kimegg
##로드
##곸ㅋㅋㅋ
급하게
씨가
이름도
치열
##잘어울림
침묵
비슷하네
파카님
루시
대박나세요
빠졌네
잘어울리는데
be
미만잡
질리언
##작용
입니
점령
승리랑
헬조선
##래미
숨기
못하지
모여
알겠는데
자이
##만데
##오르
니엘
문제는
##드릴
그날
##거기
늙었다
##앗음
예뿌
##아프다
##앞으로
##딸은
기사쓰
##달고
rul
##하자마자
못이김
써도
한다는
##된듯
오보
김영철
##죽여
##소리야
티켓
##럽고
임원
##엿네
누워
##꼰대
##으네
##있던
##꺼같은데
하나로
아자
너무해
크리미
##양심
보기좋은
안했으면
한편
##정리
나오게
##투어
##rud
##셔츠
안어울린다
##박아
##상대
오토바이
##있었는데
지은
##괴롭
이번에는
뚱땡
우효
더니
도리
찌질이
##보이던데
셋이
올랐
##ER
되잖아
이혼은
차승원
작전
기다렸어요
신사
막상
비지니스
##정보
##티나
별로야
잘할
jyp
네ㅋㅋㅋ
##승이
##끄덕
스타워
김현주
갔으면
##천원
##닮은듯
##으셨네
1인분
살만
##장사
##인가보다
##간질
OOO들
당첨
점멸
재미없는
##ㄱㄱㅋ
스터
욕심이
마이클
##시키고
합법
개독
##보미
##기사에
놔두
관심없어
##ie
##분위기
##장군
까는
##빠졌네
##센터
##박수
##아쉽다
##보검
나오니
끼워
부러우면
##당할
나보네
##놈이네
손은
##됐어요
아니구나
티파니
갚아
##인을
##풍이
runner01
1만
봐주자
##하넹
생각함
참여
끼가
밀어주
##하곤
##무무
##ㄴㅋ
서넹이
호동
##렸습니다
엠씨몽
배팅
유승호
올릴
##센트
같은디
고려
아니여
##대라
내요
한갱
##렀다
내비
잭스
##ㅅㅇ
##남은
못생겼네
뽕쟁이
킬각
자석
##렌즈
유희
##용준
##빨라
##고싶냐
슈퍼맨
##똑똑
좋구만
이틀
패작
##세네
해체해라
병역
노가다
쓰는거
는거야
하시지
##안되네
다좋은데
##네임
##용서
관종이네
2시간
신가골매
##팔자
##전현무
##키워
사는거
흐에
##데이트
##서플
두배
##생겨
대배우
말이야
소간지
웨이
심히
될까
##끌어
미연
아니지만
##안했
##반전
안현모
쓰세요
러너님
지혜
##으로써
공략
닮은거
부끄러운
##가보다
모르게
##되니까
뜬금없이
막자
##임마
트럼프
했어야지
##이젠
##마드
써야지
그새
##왔으면
어렸
신아
안고
취미
조개
한거야
루피
나게
머라
##Hi
SBS
군바
3인
드시
피흡
##여주
라이온
재평가
먹어야지
불행
핵심
했어야
##야겠네
귀신같이
도경수
술을
##수네
남자를
##나오나
##링이
무섭게
나무늘
근성
으으
##플레
의도
##즈니스
##궁합
이때다
러워
멋있네요
##줄알았다
당신을
##잘사
동거
귀칼
조아요
##시로
얘네는
##먼데
##Rani
불쌍타
행복하세용
버릇
진우
모태
그알
##치는데
김지원
##드림
낳아
##녀는
연애는
이진혁
1티어
너를
즙짜
##또깡
박수를
##Heartt
##ㅌㅋㅋ
##없던데
##요정
##야하나
##급인데
개패
우리의
무책임
##꺼임
킹정
현지
묻어
의사가
##두리
그렇네
기준
파판
싫으면
듣보잡이
공황장애
미가
논란이
해놓고
##치않
##이라구
죽메
##지겹다
##Zerotwo
멍멍
상승
적인
##겟어
##tr
##이긴함
닷지
서세
역변
김현중
손연
4암
혼혈
##발진
안보게
안됩니다
없긴
없을듯
##미네
이가은
는거지
성시
소울
##고마
유재석이
##러움
있었으면
##있을듯
##POP
안보임
어머님
가치
깐부
##마렵네
검머
떳떳
##미투
##비교
기저
안해요
울었다
차인
개같이부활
굴뚝에
##마마
원신
이라니
##도없고
개빠
사진찍
유찰
시간에
##햌ㅋㅋㅋ
납치
100만
나가자
##의자
오냐
나면
주책
찌라시
##으신듯
군지
야는
사업가
##오버
##만보면
##잡았네
##빼자
oktopcatOHH
승리도
##jalim
개역
매운
장제
##트라
무서워서
주영
아저
꼴보기싫다
##수고
히어로
##동갑
로희
벌처
##여전
##ep
##ㄱㄴ
구지
왜저럼
사퇴
셀프
##풍기
알겠네
가벼
이종현
메퇘지
재미있다
말하
##절한
년들
##를왜
잘할듯
고소영
##대고
따그모
##와와
무플
역겨운
서비스
호크
할짓
맞은
죽였
포지션
##중인
무식한
드릴
리지
##자임
##단말
##아랑
##국가
나가서
돌아온
않을까요
파괴
사심
##보겠다
##적이지
##아들이
##많고
놀다
똥을
빈집
wakDpl
사랑스러운
##14
잠수
저기에
선즙필
안해서
##cc
##냄새가
##곡이
명불허
없더라
장문
하스는
##허다
한남충
빠졌
리도
몇달
무덤
저놈
잘생겼는데
우냐
##8등
##찬성
테일
##살은
##무라
ㅎㅇㅌ
##받아서
##곳이
꼬라
절라도
빅뱅은
정신차려라
일베충
##죄냐
머리를
책임감
##90
##Lovel
재미없던데
하다니
##에버
##na
져야지
2분
##2는
##스파
바보야
##후반
허언
됐으면
까방
오줌
##도현
##더라고요
벌받
ost
믿보
##오른
상대로
우욱
네네
전두
##중인데
이크
##꾸라지
다된
##었나보네
저지
사실이
입을
배고파
극락
##까고
##일기
##산이
##네ㅋㅋㅋㅋ
개부럽
찌질한
##고있음
안이
1일
##탈퇴
1500
박갈
해킹
혼자서
결제
헤카림
##하려면
##년들이
##엿어
6시간
릴리
아아아
너무이쁘다
##정신차
##um
곰보겜
골반
필요해
고연
러니
최시원
##프라이즈
bjso
무례
터져
귀엽게
지게
##못한다
##마귀
급식
넘좋아
##쳐야
마미손
거에요
삼고
그라
vr
##맞죠
김요한
##드럽게
##좌파
##하기엔
옆집
##작작
하해요
터치
정가
##갈아
인성은
던지
##에비
##호야
청와대
##살차이
문재인이
miraclMirac
##꺼라
호기
사교계
구도
묘하게
베인이
유민상
##좀하지
##먹냐
찾아서
찾으면
대박나자
교통
##쟁이들
원하는
의지
##영원
##컷네
부지
서효
작곡
하이라
##린다고
##위한
##트에
영업
우월
흥미진진
양이
##을해
AI
##내서
에바야
원숭이
##BC
##나가라
이기자
되니까
죽인
##차나
포상
너무재미
노콘
##리네요
선우
##형도
버림
##예쁘고
좋죠
##두개
댓글알바
##자매
고아라
##한거네
##거의
##이시네
##스도
왜이럼
##살차
들어가면
건강해
고치
모션
쉬워
김밥
여캠
이나라
수다맨
안오
반드시
##박고
화제
개잘해
없애라
##메달
돌아와요
리버
##룡이
위기
##원딜
##지라
미쳤나
빅헤드가
재미있어
##같냐
펑펑
너클
##했다는
##보기좋아요
##승우
있을때
존내
##쪽으로
##있었음
정겨운
##하셔야
강성
님도
아시는분
##한디
아홀로
7시
##민은
##눌러
못찾
##일어
은우
##잘되
얻어
복면가왕
환생
##을수있
했잖아
저장
잘살아
연주
##사업
##ㅋㅋㅋㄱ
##해야죠
##사장님
##복은
##시는게
##재밌어요
노숙
부를
##구여
##당당
##럭키
황금빛
지진희
##Gg
기가막
##곀ㅋㅋㅋ
답다
멍청한
##세는
##이라는데
래요
파겜
77
##조씨
아내가
##시계
##전개
진도
생각하는
##급은
중요하지
5용병
2코
사지
장례
생각은
애국자
언니는
닌데
특집
김현우
기타
##각이네
성질
담당
지역
10만원
go
사진도
어떨까
짱구
##려니
우도환
##는데도
노처녀
이럴거면
rulrud
부가
##신부
현빈은
정면
##수밖에
존재감
##좀하자
김치년들
슬펐
아프네요
아쉬운
둘이서
눈물나
예쁘더라
인디
할게요
웬지
##총각
길이
엑박
보냐
뭔죄냐
##순실
전라도는
페미들
##던대
농구
각인데
전문가
##깡패
##17
신박
드는
잔뜩
##한거봐
멋지세요
이쁠듯
스가
튀어
##돼서
내려라
##하신듯
연좌제
모텔
손님
주는거
##날에
##하셔요
##ㅁㅈ
이목구
이딴거
##부럽네
하도
파도
한타
재미없어서
조사해라
##맞춰
##린가
발광석
##선씨
##박나래
화이트
##ㄴ데
마이너스
잘못이
사탕
죽을때
아줌마가
성공적
##보이냐
다음엔
욕하지
찬밥
##드세요
강하게
드네
각도
거네
##으로서
박은
##인상
jinjalim
당했네
##주길
엄마도
시스
##머임
2가
비율이
에잇
터진다
이건좀
토마토
##혜원
##스피
kimdoeG
꽃게
##드신
상관없
큰그림
##갓겜
##스를
자전
냉동
##셨구나
되죠
찔러
개쳐
##HE
잘하긴
못봄
변함
에픽
영준이
결혼생활
##잼나
생각하고
##문화
##거리냐
뭘로
아랫
##먹었네
##드나
망겜
##겨워
김학의
모바일
공포겜
기업
브론즈
##안다
왜함
김유정
##랑결혼
광산
##시점
쏘영이
죽이네
현아는
설리는
집합
##질않
군대안
괜찮던데
살리
##우자
마약은
노사연
이탈
##ok
일본에서
오죽
##저래
##길듯
##업자득
김광
비는
##망이
너두
새해
지드래곤
징키
보기싫어
##이면서
웃는게
숨어
1월
##차선
멋잇
한명은
데덴
##단장
만나는
대재석
보상
##상이네
bjsohe
##만난
##실화냐
져라
##3개
가족은
경규
##블럭
가능함
##네는
맛있음
잘됬
쭉쭉
키보드
정체
데이
시트콤
사라져
까요
아니땐
이런데
##강간
고은
##릴때
##하셨네요
##걸린
궁금해서
##글이
고의
와씨
구림
당근
왔으면
왕자
잡네
클레
흥국
있다는
추모
치사
##은거임
필요가
##흥해라
알고보니
종족
그린
우가
죄값
허락
##집중
평화
##가만
##조절
##Lovelove
##놈들이
##였군
##케인
일본은
이다해
끄고
브리
##해졌
미네랄
쓰지마라
젊어
졸잼
건다
##말만
##키타
뭐하고
팬덤
자추
커여
한사람
편의점
4분
장원영
공동
마우스
##코드
아니었어
##디스
사투리
##하셧
시메
만들면
##최악
ds
살찐게
##르코프
임시
정작
##니들
영감
##있으
미국에서
얘넨
코미디
스엠
였음
훌륭한
##빨로
아이들이
보는게
양성
진실이
##다야
기독교
이쁘냐
해주파
##인간들
##합니까
벗겨
글로벌
아닌지
악플다
안봐서
수금
##스턴
##있잖아
김국진
##대를
##나왓
짱이
챌린
##을못
우승자
태진아
괜찮지
사실이면
맛있지
##이후로
떡볶이
##내기
들으면
스필
##하십니다
쿵쾅이들이
읍읍
괜찬
##이긴한데
막라
큰데
##님과
여튼
살빼도
느껴진다
새벽에
수듄
중년
이것들아
술취
##지는듯
##기획
2억
겼네
잼있음
##ddu
끊어
빼야
##못한
##크라
##깜놀
대단하네요
##ㅋㅋㄱ
##했어야
좋겠어
키우세요
각본
니냐
도와주
힘내자
##치나
그걸로
최적
종우가
전자발
건너
어르신
다이브
한국영화
할거면
추해
뭐라도
외계인
유학
이쁜얼굴
만들지
저러니
오오오
##모님
살벌
##너무잘
세련
##병헌
결혼하네
안바
누군진
재수없는
보너스
남주혁
##오지게
오래못
에오
매력있다
##보스
##변기
증강체
##선비
##배운
##태준
인생드라마
새키
작정
가난
핑와
에디
##해야할듯
재밋어
##정돈
##nuu
빌어요
안궁금해
##확률
밑밥
5돌
가관
##문이
아뇨
##동물
뮤직
지림
맛없
조혜
##안들
##n9
플레임한테
##먹어도
으이그
물은
의혹
풍선
머해
손을
이다희
싸울
wakCu
알콜
##상실
202
색히
##일거
##효리
##정치
러시아
많어
##믿어
##했고
ㅈㄴ웃기네
장난아니
하시네요
언젠가
시나리오
이브
즐겁게
넣어야
##ㅌㅋㅌㅋ
기어나
진거
끝판왕
##치냐
좋아합니다
비둘
좋은곳으로
우는거
있을거
##대도
예요
자수
팔로우
##말아
##일지
보잡
av
해볼
##안티
##자들이
마더
구하라가
없나보네
견찰
배웠
사진보고
수리
안읽
댓글들이
g42H
현아가
##빠짐
빵떡이
피아노
맘충
바꿨
##안보
요즘도
어딘가
##많이나
누군지모르
덫발
##할거같은데
강소라
문슬람
하락
##할지도
정준영이
야함
칸미
##이용
담궈
제압
##러브
##씨를
정려원
삼각
##1인
##문제가
당당하게
조심하세요
독일
되었
무게
##권은
##만족
##mi
기사거리가
인제
만해
유저
##인거같은데
##팀은
##장판
##복무
딴사람
##피곤
캔디
공명
시도
흥하자
##였냐
키는
그런지
좋겠당
##그만좀
##질러
드라군
주세
##16
##줄알았
ㄱㄴ
##왜이
상영
이형은
입으로
헤이
히드라
간거
미첼
샤워
아는형님
힘들듯
트리플
베트
##일반인
##줄알았네
##미야
##긋다
기록
##늦게
식이
해봐라
##무빙
##대중
뭉클
복잡
토크
그딴
이재석
팝송
##넘들
공속
콧구멍
##번은
차이나
결혼하지
벨류
살어
##잘했다
##모를
##ls
지석
블리츠
머여
##손실
경제
##르트
배가본드
##틀리
##80
장영란
##취소
안나왔음
##칼리
##메갈
좋았어
하려
때부터
있는거지
##던뎅
아닌것
내일은
달라고
학원
##오바
같냐
걸리면
##HD
우한
깡통
류수영
##먹어야
돌리면
##도잘
위에서
이유를
네티즌
마저
중국에서
##이상형
돌고
위험해
국산
팬인데
먹고싶
팍팍
##무섭네
브루
오졌다
##미소
아까운데
저럼
##주작
씁쓸
학력
그만나와라
트수가
팔면
미치겠다
간다고
군인
스밍
허접
g42O
##직원
내기
시청률이
##아까워
여잔
##답네
머리숱
##햇지
됐음
모범
축하드립
강지환
##테크
AP
##간듯
기래기
##성비
##되겠다
개털
라가
의견
판결
##신도
이동건
43
까고
##뎅이
잘한거
모냐
##하긴하네
까불이
비즈니스
##중임
##잇지
##쩔어
거봐
기지
프로필
강경헌
죄는
명불허전
반일
웃을때
였는데
연정훈
울림
잘뽑
본인은
소속사에서
띵작
세이
x2ly
도란
yodelayZerotwo
저씨
소시
##번에
다했다
메뉴
종미나
##고요
##수준이
대부
약물
##할께
##지말아라
##화이
비키니
##치지마
기안은
##바나
민주당
연금
사람이네
프롬
도면
백스
sh
viichanRani
비정상
3사교
##올림
##았어야지
안나와서
기다릴게
잘못한거
2의
굉장히
일기
##리긴
바람피
kimddu
경우
맞았네
스위
오리아
느껴짐
패턴
##법칙
당연한거
거면
공통
파멸
리타이어
어가
점화
감빵
완죤
호스팅
장난하냐
##둥절
FD
자랑이냐
개쩐다
잡아야
코디
##머냐
##들좀
##하오
##증이
2일
##모로
니깐
어두
러가
##가정
##비로
##먹는다
##벗고
라프
았는데
내사랑
어젠
예전부터
슴가
헬기
개부럽다
썩은
##것처럼
##밥에
밝혀라
상품
워웍
##더냐
##더라면
##어딨
두분이
##있는게
노는
좋은일만
시는
애좀
있는지
이겼네
##스크림
##끝나고
표본
##줄알고
##망함
이트
파리
그러나
현명한
##하기는
##이쁠
디지
라지
##다구
##학과
##메인
떨어졌
교수가
치타
지크
차트인
써서
ㅊㅊㅊ
유노윤호
치감
4대
최종훈
놀이터
압승
지숙
##모임
##좋아서
명예훼
나지
신천지
불타
##때리
##상에
##그립
##생각나네
안보고싶다
거참
상식
공구
서수
한마리
잘됐음
미친련
개쎄
유도
##아니에요
고우
나경
야근
재밋게
기서
##자격
YG는
##도박
##넣으면
##내자
보죠
##가더
오늘의
재미있음
인은
렌즈
기준이
##지루
양준혁
##야스
거같은데
잘먹고
##애슬론
치킨렌치
추카해요
한정
##차는
ㅇㄱ
했구만
마의
글을
##저그
##비싸
##버렷
일부
##살면
##모든
검머외
죄송한데
않네요
##올라가
대천사
시술
가기
남았네
하고는
잼있다
##치곤
##학자
##속의
애호
받아야지
가다
배아파
생겻
서태지
머머리
##누나가
큰거온다
저렴
최지우
회전
##담배
##전설
헬스
리야
난이도
델루나
안좋다
굴러
##조는
ㅋㅋㅋㅋㅋ
5렙
##들다
##떨어짐
늑대
아가씨
페이스
잠재
찍는
연기력이
볼베
안붙
러운
본능
쩝쩝
##놔라
몰입이
##달이
##하진
##버렸어
어려움
몬가
쌩얼
유세윤
사귀지
코치
이유리
뜨거
사탄
저때
갚아라
신분
이기지
첨엔
##떠네
10개
jtbc
병건
피임
있었지
야랄
##긋네
##열애
고스톱
날카
##본거
플라
아재들
박자
##커서
##보니깐
어렵네
언니들
못이
송유
##안하네
##송혜교
성비
##틀어
모으
##스쿨
사는데
자업자득
##원탑
보창
문근영
gd
쉽네
##길바래요
백두
##low
##탄다
고현정이
딜레이
2는
김해
별게다
##비리
이름을
새봄추
딱인데
자본
##갔나
보지마
하노
##아빠가
5병
김연아
상근
짧다
지배
본적
누구죠
##up
고개
##전부
라이온킹
전성기
빤스런
잘됐다
##했더니
남자분
viichanHh
곰표
비아이
##보도
배역
##야되는데
야해
초아
##대리
누구인지
이아줌마
존똑
##나만
동원
##도소
##무기
##ype
ㄱㅋ
##혐오
세종
댓글은
아니요
청산
##승준
아구야
ㅈ밥
배부른
##감정
또라
금손
리콜
잊을
##너프
몰빵
짠하다
1층
##없나요
아니였나
프로가
##전라도
##예약
불타는
섹시해
##교체
퀄리티
살인마가
타격감
잘지내
##천국
##지않았
드라마다
mdgdMoveR
강주은
베이가
애기는
24시간
##축구
걱정이
정진
체험
##부심
##행님
드라마로
만들어서
##원에
##바른
딜교
원인
보도
##종자
개더
##했죠
닌텐
존맛
상징
##해ㅋㅋ
##할수가
유튜브에
여장
유럽
흥해
정상인
htt
##사귄
거름
숨막
노네
박주
##들이냐
##안하나
깜짝놀
쁘게
연기짱
##ack
좋앙
##어떤
##ㅇㅋ
##생각이
##송이
##만큼은
##잘가
##kd
해주지
##벙글
##하시오
정도로
아버님
##기회
스타일이
##해보이네
정지훈
##쉴드
몰랐음
ㄲㅈ
보람
유상무
##프리
이구
##발라
당한
좋당
##없는게
##보여줘
##잇나
쌍둥
음반
스톰
니지
얌전
몰입감
장지환
랄로
벼슬
걸크
##시끄
만능
##맛에
##노출
동물의
지오
레전드다
##주세여
##갔지
x2lyn9
센세
시전
밸런스
양씨
41
##채아
박나래는
##거가
거꾸로
##갔냐
##맞으면
사연
##한데요
재밌긴
선넘네
47
머하는
잼남
찌찌
##하가
바쁜
나오길
발목
쓰는게
흡연
##보험
##골드
논리
누나는
##엿음
날로
실종
댓글도
티난다
##해줘서
죄지
##라이더
구슬
##광이
끝물
##왔나
미안하지만
##지옥
##볼수있
##는요
기엽
당해
조지
충청
##삼식
##칭찬
##봐야겠다
조타
빛이
중딩
화끈
##지말라고
##힐링
##갔음
그랬냐
신우
##의힘
##겼다
돌리네
##줄래
실컷
어리고
보검이
소신발언
##자신
##터리
잘생겼어요
##스에
잘들
줄여
빡종
재원
영입
이혁
##한겨
##이네ㅋ
노이해
오또
##해야겠네
공개연애
##고싶음
것들이
예쁘기만
로다
배필
##흐흐
주인공이
공항
예언
커플이
나같아도
걸릴
끌려
동정
올림
장승
백지
빨개
통제
걱정은
la
차돌짬뽕
개조
할리퀸
이이경
어쨋든
군대에서
오랑캐
꺼억
엔젤
##적인데
김래
쟁이
절반
##잌ㅋㅋㅋ
연관
##알았
진짠
##유발
웃참
아이네
2성이
신민아
개잘하네
##만보고
상처받
##종현
뒤통수
##리타
##하던가
##주는게
##듯한
장난하나
스타워즈
##if
제왑
##할까요
송혜
##구니
다행입니다
박준석
##주년
스노우볼
그들만의
무겁
악녀
개약
##핸드
희대의
급발진
##다닐
군대를
##섭외
동급
숨겨
##라는게
실내
##라는데
손석희
##할라고
르는
차가리
들어와
사과해라
오랫만에
대포
##이사
##파워
아무거나
이지은
누구니
피자집
ㅆㅂ
몸조리
##가죠
##나와요
신이다
지상파
핫도그
##는거아님
이남자
경험치
전이
##꽃길만
황후
넷플릭스
여자다
누군지는
축하해용
강두
공지
있나보네
연습생
riringLovelove
벙커
오이
죄야
홍상수
##맞는데
재수없다
극한의
몰아가
##빨고
조현재
귀욤
끄덕끄덕
나감
멈추
##취향
첫방
##무죄
될거
##넘은
##ㅇㅂ
돌리고
오마
있어야지
기사꺼
나이먹고
되겠
열심
기사네
여친이
ㅎㄷㄷㄷ
홀로
##없구나
##내면
##Love
강아
충전
착한척
조윤희
되는건가
어야지
팀킬
이기야
##예쁘게
##습니당
넹이
아찔
##다지
마찬
템포
너무이뻐
##빠른
악플좀
걸고
당했다
전령
혜자
배우들이
꼭지
당함
##사로
남자의
이에요
##설마
와요
pp
아기는
##기술
사소
AS
##좋았는데
들린다
##환자
만났네
반란
유료
##일지도
홍진영이
하셈
##선배
ydcS
198
보기만
사진에
##안쓰
##삭제
##각을
때마다
아바타
침투
##었잖아
##나야
##수칸
느낀
망했어
맞긴해
바빠
느긋
##승부
진실은
이홍기
시크
성범죄자
ㅏㅏㅏ
##방송에서
요구
못생겼어
바꾸자
##앗어
##로남
##함을
매니저가
았어
진실을
응원할께
찍으면
검정
먹어라
악어
토닥
##게임이
장우
크긴
곽도
아쉬워
수제비
이드
##햇나
20분
참신
생각해서
골든
혜나가
진짜ㅋㅋㅋ
대회의
유흥
##잘하세요
방송인
먹는다
이린
아쉬워서
권혁
단즈
어디야
스티브
윤두준
진짜개
자랑스럽다
빠질
신애
일루
청년
그래두
##말랑
스택
악플들
죽이지
##피가
##ed
##변태
##선미
유치원
엘리트
##세븐
##퇴근
멋있고
강다
할아
##짓거리
더럽네
GTA
정주행
##늙어
##랰ㅋㅋㅋ
##최강
아이오
조선시대
녹두
포함
뒷담
우리나
마냥
감독님
믿음이
극혐이다
트렌
##될까
예능감
맞습니다
아닌거같은데
강요
gilyouHnuu
ㅌㅋㅋㅋ
안하지
상은
##2년
##나잇
##곳에서
봉태규
엉엉
게이야
슬프네요
갈라
바퀴
박기
백만
애정
플레임은
##것인가
##하겠어
그르
##열면
막창
적용
ㅇㅈㄹㅋㅋㅋ
##도있
자랑이라고
##시던데
##드아
##걷자
최명
##짱깨
재능이
바스
하품
나플라
짐캐리
좋겠습니다
빛나는
선이
하라구
##반성
인과
##것은
한지혜
이구나
##마누
##이이이
##어떡
엉덩
자탄
##kr
기대된
##밑에
알아봤다
##었나봐
만화책
런거
한마디로
정상수
박경림
루아님
볼때
진세연
푹쉬
##효린
르너
비유
이누
혼란
까방권
##ㅊㅇ
ㅅㅍ
##커엽
아무말
##없는듯
에로
황보라
있었구나
품격
##인줄알았네
인간은
짜증나네
싫어서
타고난
한화
##애비
짜장
누구냐고
태희
##차원
##겼네
##키키
걱정마
복받
##어이
##비밀
필요한
몸매도
듬직
##편히
비슷하게
##최고다
얘네가
못하나
잘사는
##넘이
##뭐라고
행복하자
버릴
속옷
##갈리오
안봐요
##미쳤다
##발로
나오는건
##주인
사랑스런
난리났네
내려치기
못쓰
머리좀
##중기
갔는데
##스킬
##하드라
고취
되네요
홍탁집
쓰리
##본적
스브스
있어라
류화
##환장
ㅋㅋㄱ
사람인데
끼고
##너도
하고싶은
경호대
풍형이
##뜨네
스타트
추리
벤이
##일이야
##나왔음
보급
업소
이창
##하기를
##할매
##뭐여
얘들은
은혜
##그릇
안가네
했을
군대도
구현
기야
##진행
전자발찌
저랬
전환
##게도
##이형이
왕자님
##일까요
이쁜사랑하세요
독점
메카
신비
##징그
##어디감
납득
##슬프
이뻐지
미지
##부를
강하다
ㅇㅎ
사내
뜨고
아플
##커플이
아메
맛있는데
프로듀
##ighting
구역질
용암
이녀석
악뮤
풍월량님
3000
군필
받으
##아구
##거아님
조선일보
##있죠
##주죠
정치인
##거려
##지않고
알려줘
하는짓이
규칙
##한건지
갈듯
들도
받아서
트롯
비스
변요한
##기계
3코
촛불
제목을
홀리
##쪽에
한거지
서동
과몰입
본업
진아
영화를
불편러들
멘탈이
르르
성형이
정인선
##시리즈
##업소
##ick
고세구
##oa
이게왜
적어도
##넘나
힘내고
다라이
스릴
호흡
싶음
##렀네
도우
##시구
##에휴
매력넘
생긴건
정일
쓰지마
커플은
할꺼
정신과
##놈들은
박하
해봐야
##김태
##걸어
##태어
난나
##이동
젠장
관심없는데
장신영
신현준
팀전
##승기
예원
완젼
##ks
좋아한다
##병은
##밉상
이랬
##같은디
남음
카피
찍자
##만세
나이트
떨어질
쉬고
임산
##되세요
##부끄
매니져
1패
나온다고
키드
한입
##만났
##태양
##들이다
##두근
감싸
게요
##지리네
##ec
롤은
박원
##호강
들어간
김호중
테스트
동료
반갑다
##사망
많으
##맞춤
좋아할
100만원
해줘야
도데
않지
살게
알았어요
히로
##줄이야
어떠냐
꽈뚜룹
이란
황미나
##쉽게
파우더
크스
인생의
##는안
##갈까
중요한
살구
정법
##닼ㅋㅋ
띵곡
플래시
oktopcatOHHJOA
매트
방해
볼륨
##없을듯
##매치
##왔냐
##민폐
투입
##오리
연기만
로드호그
##신경쓰
##했으
개막장
서준이
##혔다
##TI
문채원
##역대
지지합니다
손톱
##미국
##IP
##나왔다
설리야
이선균
스튜디오
되긴
하잖아
##냅니다
다크소울
우마이
##수있어
리스트
영비
저랑
호기심
달지
체크
##덕이
사람만
전개가
꼬인
돌리기
##리들
원주
##걸그룹
##분도
들어봐야
it
이런프로
나무위키
수영복
분장
##복동
못생겼는데
##아까움
##고싶어서
하라야
반응이
신호등치킨
결혼하자
투명
##위전
##공장
아니였어
취급
했더니
잼있게
애엄마
총각
보기싫음
소고기
잼있어
지금부터
완전히
##나비
##트럭
누른
아무래도
저긴
이재명
페이
##여배우
##빠들
냥꾼
양키
알잘
##가득
##근님
대형
롱런
우리나라는
사귄다
뿌리
안드
##상처
11시
키야
##외국
기자도
가시나
##표현
##태웅
##넣자
킹깐
하와이
얼릉
##디는
생각했는데
김구
좋을텐데
##범은
차세찌
출격
속궁합
어머나
##하기도
##유출
지들끼리
##없다고
좋아용
슬픔
오창석
준다
2만
찾아가
##하셔서
##설렘
##결국
##져야지
##해용
##징역
기저귀
트타
언어
##보는게
주소
##모레
하는거임
woohanS2
그레
순서
이무
##재야
낳아라
##부러워
냉장고
##으셨어요
잘하자
##벌어
##한가보네
바꾼
방제
예스
##호텔
악당
mdgdMoveL
어떻게든
건강을
무서운데
이론
##아나운서
하는건가
헐리
찌모
##사이다
아닐듯
발리
외로
자원
놀리
참으로
그래픽은
000
싸구려
저새끼
##yu
2탄
성시경
##멘탈
##위는
##하시나
사나이
##말고는
탈콥
##아아아ㅏ
아카데미
첨보는
수학
승률
##앗나
##ore
아가야
##ream
##이지ㅋㅋ
궁이
올려라
##그제
##소희
모아서
##선마
저런건
##만나면
신서유
한병
지뢰
##hh
##려다
개불쌍
서폿은
하이라이트
자작
행복해보여요
살아서
##ㅎㄷㄷ
김재환
오져
##현경
쯧쯧쯧
아인
##까라
가겠네
죽인거
##써도
댈런지
성깔
##보인
##구마구
잘도
부러움
피는
##잘생겼다
할수도
호랑
##버릴
샤넬
##파악
##나가네
##ello
##해설
과감
개짜증
화유기
보기가
하쿠는
김지석
조센징
##주는데
46
ㅎㄷ
##들에게
##버리는
노랑
##공이
기대되네
은지
저세상
##보려고
김민준
신입
##찍은
##중간
한남이
##출동
##연기잘
구설
그쪽
빠짐
##도사
##영자
옹성우
##보수
왜요
##징크스
니미
유가
##한테만
막을
##엿는데
메이비
리에링
##디다
군데
##스카
그랫
솔라리
스웩
행사
##좋겠네요
못보겠다
맞춤법
이선빈
out
복사가
##리랑
트로트
##UNG
##은무슨
##나올듯
부동산
빠따
최신
안테
항상응원합니다
안씀
가짜뉴스
##아줌
##날까
대회에서
딱대
지는거
하체
광희는
복권
의무
오잉
##럭스
허무
재밌었어
웃겨서
서효림
##못하고
매국
##걸림
##강이
하던가
##왜자꾸
##사진을
안하나요
포즈
이딴걸
방밀
오픈월드
신의한수
기모
럽네
##보건
##예지
개씹
이쁜커플
보기만해도
4인
장님
진기
김원준
##페이스
심한데
김하늘
무관탈출
상해
잡는
##방지
하나가
설레발
능력이
자너
친목
##하트
##찬밥
최근에
##두면
줌마들
머시
브실
지대로
같고
루태가
가능해
기능
참내
##겠다고
##마을
##답이다
롤체는
먹고살
등신
마치
후덕
쯔쯔
##다오
럽게
##야ㅋㅋㅋ
눈치가
되는구나
##ㅗㅜㅑ
##시간이
맞게
안이뻐
##개꿀
##금은
ㄴㄷ
상점
##젝트
스탠
##모아
##강두
##이형은
##최고의
판정
스낳대
제외
##심하네
##였습니다
강제로
ㅁㅈㅎ
느무
##AL
##말해
##잡기
##와야
영화도
지환
어둠의
개쩌
자만
노잼인데
건들지마
어지럽
국적
돈독
아치
위대한
##특집
잘하심
데뷔하자
언리얼5
싶은거
올렸
##HI
ㅈㅇ
인어
##저도
##시퍼
빛송
##에몽
따라와
wakA
랑해
##사는게
올리고
##회는
겹다
##마인드
헤어지고
어림도
나잇
다롱
뒤지게
쓸모
조절
잘하네요
내용은
로그
알아요
잡아라
스2
안했어
은도
초고
터졌
##돌리기
장례식
권오
정국이
테이블
인의
안습
##먼트
안믿어
2만원
전부다
수익
프랑스
드림
아줌마는
쁜데
##티는
벤츠
아직까지
문자
##반가
##카이사
멕시
브래
왜하필
##꺼예요
##생겼어
로맨틱
거식
##진희
뭐이리
이상우
청자
##는겨
##낳냐
ㅋㄱㅋ
날빌
마트
##대결
예전엔
노트
허각
##력을
스티븐
##머가
##맞은
##콜릿
남자만
쌍발
넘겨
heart2P
할인
수상해
##미도
유혹
##백이
##란트
##초딩
전용
줄서
악플을
##사이에
##해지네
드럽다
##소개
거같
받으면
솔찍
남았다
지말고
##프터
10시
##하내
갈수
3억
전인
##있었네
강화술사
그랜
바위
##쿠하
버는
##지에
개듣보
꼬우면
케미가
##뱅이
반갑네요
얼어
##하믄
##빼곤
##플레임
오늘이
문닫
서윗
소오름
##여러
##뜬다
얘네들
##피언
호감형
캐릭터가
##끝남
뿌듯
제정신이
최순실
크러쉬
필구
도가
##세월
##샛기
입꼬리
MZ
꼴지
대해
워킹
##초반
매력있는
##부장
##멋있어
TS
##에용
백일
크기
##진데
##더나
##효섭
재밌을듯
수면
어울리네요
없었으면
##열폭
성능
슈스
철판
고백부부
박서준이
비와이
잘생겨서
이병헌은
도피
보더
##맹이
백종
악성
##르자
진짜다
##갈래
##이되
이상순
마술사
윤상현
##국수
##맞을
돈버
##인가봄
예쁘면
멋진데
쎄다
##라던데
##안된
##테니까
##맘대로
워너비
##포장
놔둬라
대만
한석
근데왜
낳으면
말해도
사장이
아시아
안돌
타깝
아마존
##말투
아빠를
느낌인데
하시고
힙찔이
죽인다
살았네
수미
시고
했는
장현승
코카
결혼했으면
상을
유통
##어준
보이나
나오는구나
##유재석
##신청
##em
아이스크림
누고
진격
인수
##긴했네
나오는지
공무원
##무룩
##크게
사이에
하리수
막말
민수형
업보
퍼커
가봐
개는
깝치
아앗
##돈은
모르겠어
##가이
##좋겠
듣보잡들
섹시하다
육성재
##ㅈㅈ
아홀로틀
날아가
류지
##스틱
현타
##타민
스마게
교복
미련
잡자
기다릴게요
그래니
##문제지
잡았다
##연아
러너형
낳으세요
조우
##초가스
##지않는
안떠
멀리서
애플
구요
살아가
노동
달게
##ver
##지않나요
아쉬워요
##art
##모르고
빙의
즐거운
유툽
##당해
여시
추가요
추천합니다
국어
##cm
##hi
간절
개떡
지상렬
너므
복어
석탄
사과는
앙상
차별
5번
까먹
빌보드
##필요가
잊고
주말에
도균
시우
궁금한데
답답해
었나
스토커
수작
홍윤화
한혜진씨
찾기
##온나
에도
이태란
똑똑한
펜타
##걸려
##날뻔
기괴
레인
요즘엔
##가해
나오는게
수고하셨습니다
풍신은
있다니
들어가서
##좀봐
자랑이다
이현
어쩌라구
된거지
방송도
아닥
자진
신아영
Hype
않았다
노미
##잭슨
##받으면
넣어라
와이프가
가을
르네
##에다가
필러
##울까
##밝혀
##hae
사람이야
##터져
슬리피
나혼자산
끝내라
짓을
##같노
박세
신났
아픈데
고쳤
가창력
썸네일
빽이
우스
입덕
타는
섭섭
우리형
미쳤냐
내세
디펜스
##귀여워요
700
는중
VS
많을
##33
넘치
짧아
##ㅣㅣㅣ
떨어진다
##우냐
3성작
빼지
사생
##보여주
이효리는
야무지게
넣어주
석천
느낌은
88
되니
숙제
유죄
##두부
보고싶은데
알았지
정글의
ㄱㅅ
신상
치워라
못살
##있는지
미쳣다
5인
막걸
외모도
살은
살았다
##유도
##yg
이겨라
동반
##밀어
마지막까지
영전
good
무당
서은
##보고싶네요
반성해라
보여주는
얘랑
졸리
##끄고
안타까운
저승
져요
##알못
안나올
망한다
스럽
##식상
##언급
양학
얘기는
트라
##하기전에
둘째는
##어버린
정부가
팔차선
##지말길
신과함께
타곤
##버려라
차려
##임신이
진최
##너무좋다
##라니깐
##기자야
남겨
모피
##빼도
##자료
##one
##망겜
너무좋아요
동방신기
봉합
포에버
##하지마요
하차해
##배치
##악마
마왕
아니오
별풍
소희
홈쇼핑
##얼굴도
묘얀
오류
전남편
브로
예은
전재산
##만더
나오니까
존예다
##어차
콩콩이
조성모
믿기
##만이네
방향
##햇으면
붉은
여전하네
##내세요
##찐따
can
수달
##생겨서
좋겠음
보니깐
볼만한
잘풀
무혐의
최단
##변신
##이모
##예술
제시카
데덴찌
원이
장식
이간질
윤서
현아야
트라이애슬론
##봐ㅋㅋㅋ
##24
##착한
##그나
##같은게
컨셉이
임지
냠냠
타이틀
박고
엉망
자라고
영면
##나감
머리도
##은진짜
어쩌다가
정복
##까는
까불이는
큐베
장미희
##식아
채널돌
##데리고
##했었
##슬슬
##사면
##안하는
##줄도
발가락
있겠다
##강의
훈훈한
답없다
않게
##TV
지금처럼
T1
레이드
##렸냐
울면
인벤
##성한
주워
첨에
##ㅂㅅ
담배피
엌ㅋㅋㅋ
##냨ㅋㅋㅋ
아르거스
스텝
해병
##귀여움
HF
##ld
알리는
##후회
cg
쁘고
팔뚝
혼인
할려고
##사진이
없던
페미니스트
##질질
이병헌이
자연스러운
망삘
아팠
음란
여기서도
19금
물어보
구독자
##아닙니다
그전에
플토
많던데
##UT
잡을
##좀안
##커스
##하겠냐
좋아여
##에에에
ADHD
##마비
##로이
전두환
##딱지
감스트
버터
설탕
##거짓말
단순
몇번째
이사람이
##라임
아도
징크스가
게르
로우
본진
##시는거
##욕먹
쏘맘
##늙은
김동현
무려
쭈욱
##명을
##실타
##긴했지
쌍방
천하
들어온
부모님이
바나
##구독
들지
왕이
적극
상도
조용필
##할거야
안되서
##살인마
##하드
##수없는
넘어서
중앙
##해보이는데
##될거
먹이
켠왕
##잘해라
##ree
##볶음
15분
자식들
직박
##뒤로
##이쁘당
멋찌
이겻
시바
##진화
##존경
##월향
대학생
씨게
자다
치아라
멋있게
그립습니다
ㅅㅅㅅ
구본
삽니다
왜가
카서스
##시집
5억
##보컬
바꾸면
응원합니당
맛은
당일
아펠
##말에
##일어나
4발
##시키는
##oon
##불어
##군이
쓰레기는
##국밥
3시간
돌아왔
안했음
##관왕
방사
에그
##소문
그만좀해라
운데
##세기
##해가
행복하고
##을거다
##옛날
그대로네
터진
있다면
남친이
눈으로
다정
##끼들
버리는
왜지
##회가
새끼가
##곳은
보고싶은
죽기
##관련
기다립니다
트래퍼
##SS
이유비
셀럽
안가는
국주
벽에
##팬티
좋구나
##요네
##재능
##씩이나
##다니네
음소
죽검
##ro
##하고있
리니
저두
어린데
ㄴㅇㅅ
저따
##도로
heart2H
지적
##대냐
시그널
이기적인
시댁
##하네ㅋ
져서
##나해라
##문철
테이저건
김래원
원딜이
초등학생
박종
전패
허언증
##줄께
아파서
받을만
글이
하마
피부가
집도
##장가
74
조권
아쉬움
귀여워라
키스신
거절
고라니
콘돔
짜장면
##게이트
네다음
소스
##쓴거
##것이다
박소담
돌연변이
사막
##받자
##후원
구찌
해준
##막아
sc
롤토
##버리자
가능하지
김세
장롱
졌음
##EN
자희님
떨어진
파는
고생했다
com
감이
넘치는
ge
이방
디패
유리가
##점수
##이뿌다
면역
스럽다
##보다도
필요하다
엄앵
##느니
어이없다
##이뻤
기대되는
ㅡㅡㅋ
어울릴
miraclMiracle
다치
압살
온거
제이쓴
재는
서세원
잔디
니면
회장님
돈이면
##시그널
##준표
##and
안타깝습니다
화사가
##줍쇼
눈물난다
고모
장근
효리네
##Ap
##읍시다
준표쿤
밥을
성소
##갬성
판박이네
광역
켜라
##슬아
기묘
녹화
민국
##사각
##커플은
로밍
##뭐하냐
52
김강
됐어요
리자
##백종원
연극
##수기
기간
요한
100개
거는
지섭
##지수
물러
민이
##훈아
이상화가
밀리
양다리
열대
친척
##대노
##테러
해줬
마닷은
que
하현우
##진도
매력있어요
발끈
영애
재웅
입술이
사도
출시
안효섭
웃기는
씨야
##입에
##맛집
##됐으면
##티콘
말투가
잘되는
전남친
짤라
갠적으로
구옌
방탄소년단지민
https
엔터
##빠는
태리
##박은
살아야지
##감사합니다
둬라
먹기
브랜드
이에
##데가
##힘들어
순수한
##알리
##놈의
멋지심
증거가
거두
극단
깊은
##딱이
기럭지
바꿀
##바퀴
##하는건데
남길
파카가
국이
낳은
잘키우
##란게
##왜이리
용준형
bjsoheHeartt
개노답
삼류
##토닥
파란색
ㅋㅋㅋㅋㅋㅋㅋㅋㅋㅋㅋ
짜증나게
이영자가
##스러워요
강수지
돼지가
몇일
##당했
개좋음
이로
수고했어요
##미씨
##종교
그럴수
##았구나
건강하
##머신
KPOP
##도없는
##콘서트
어찌됐
가시죠
심상
였다
##주셈
궁을
없었는데
남을
농락
대다나다
Sns
약함
10년전
##겹네
송가인이
민심
##일베
##스님
##닮았네요
안구
천우
##ㅡㅡㅡㅡ
티비조선
돈많이
휘인
riringT
벌칙
체인
##rr
##연예인들
객관안
##박살
##써야
진짜야
나봐
진수야
##먹고싶다
빵터
반항
스무
들어왔
손잡고
걸렸네
##알아서
##ㄴㅋㅋㅋ
도도
개고수
살뺀
적어
인스타에
한물간
강등
선풍기
노리
##유라
##잘사세요
울려
##하려나
##로남불
사유리
세명
스캡
##비비
오랜만이다
축하드려용
걸림
옳은
우야
##완벽
못났다
정정
##오프
클래식
닉네임
동수칸
받자
사주
오상
빛나
##질은
##두기
그의
##속으로
누드
주기
고생하셨어요
un
임현주
다녔
뮤탈
뜨네
알어
##비씨
즐겜
호날두
이쁘다고
at
버지
사칭
올리면
##아니죠
##ㄹㅇㅋㅋ
ydcAa
구동
낮은
##츠비
##댄스
주말드라마
립니다
##폭망
연애만
더한
##보호
조이서
골로
될텐데
못들어
##잘하는데
##하시다
엄마를
51
성적
##블린
##빨아
이겼는데
스크림
반찬
어제도
##모르게
##ㅁㅊ
ppl
##루션
왁굳형
고전
##엔터
깬다
##King
##www
폐지해
없나보다
##쳐먹고
##죽는줄
근본이지
1차
본체
##수없다
##화를
버틸
차예
##서준
좋겠는데
수애
##생겻
미소가
라인이
약점
한은정
##면에
##고있어요
케이블
2인
보쌈
##먹었다
##쵸티
거식증
98
##나와주세요
아ㅏ
##승전
ㅈㅂ
커뮤
안본지
넘기
랜치
##uv
##였다면
웬디
ㄹㅇㅋ
근처
스펠
##구연
댓글보니
##마당
벤은
기사까지
양현
이게임
돈받고
##혔네
되시길
구매
식사
##Oba
사랑꾼
상대는
사라짐
도찐
맴찢
별일
##이야ㅋㅋㅋ
##괴물
잘생겻
노란색
성관계
##대면
노잼임
에는
다녀오세요
클로
##맛을
그립읍니다
예리
##놓으면
##잇는데
김종민은
방가
블리자
##라는거
보고있
워마드
##열이
##그만해라
아이폰
##대박나
겠는데
##보셈
##되시길
##조기
##무비
##틀린
어지간
##ㅇㅈㄹ
0년
화를
가셨
죽자
그러고보니
mi
그사람
비둘기
복이
##가는게
아빠와
못이기지
행복하게사세요
##힘내라
참석
##킬러
그림자
다비
아으
##대생
내인생
탈진을
박지훈
몇번을
잇지
##해줌
##se
1원
##방위
이승기는
기여워
##을거야
무서워요
모자라
흐음
##였고
무슨일이
##지않아요
시작부터
감기
민족
저기도
콩밥
오고
##테란
정소민
되야
죽을듯
직전
##은근
##속사
이수지
범인이
##고싶은데
세상을
아구식
가입
갈때
공혐
찬양
디자인
##털기
가상
겁니다
소림
늦었
양악
##파리
데미
##전혀
##해명
법적대응
설계
송중기는
손패
다니는
##ㅔㅔㅔ
뜨는
구혜
죽이는
축제
##리즘
씻고
땅콩
운지
##랑도
##이좀
발치
잘하시네
구구단
유하
렌치
쌍욕
##다니깐
##뜯어
손으로
테슬
아구는
진짴
##엇지
아니래
2점
집을
##중에서
##똑같네
30살
죠낸
모르냐
없구만
심하
차화
riringGg
연기력은
##사야
##배워
바탕화면
도데체
왕대륙
이그
전세계
고문
##우씨
남편도
스쿼
##빨간
##An
재미만
안궁금한데
상민
용히
현상
##주부
차례
##가드
##색기
타로
사위
화났
아내분
미필
##충재
병이
그릇
아이다
##박종우
좋아해요
다릴
저만
##월에
여자한테
##ook
##미쳤네
있겠네
잘지
##uya
듣보잡은
심장이
김선아
cf
꼴갑
입담
문제인
기냥
##나낭
해줘라
잘알
##히게
##평범
orhae
##았네요
##수의
듣보잡인데
웃음벨
내지
도르
송은
자중
##오빠가
잘다녀와
송유빈
현정
##봐봐
##못해서
잡은
##13
##지는구나
처음으로
물려
죄인
##뭔지
아빠닮
돈자랑
방울
##던말던
엑소가
##할까봐
나고
니들도
몬헌
방생
존야
##끼야
하늘이
트바
못속
힘드네
낄끼
정말로
##집행
가락
극딜
조명
##야타
##했다가
아름다워요
나라도
존나게
절대안
연두부
준이
##도의
##대학
대도
탈덕
##구들
##버드
##중ㅋㅋㅋ
##멈춰
박효신
부엉
##하나도
발동
##잔다
##구경
자살은
비현실
##시킬
##센세
##하나봐
##어디서
이드라마는
##누리
강해
인피니트
내스타일
나날
몰락
봐줘
선비
파일
##맞어
##욱아
우성
다알
봐봐
수는
떠나라
조장
##가진
ju1050D
좋지만
멀쩡한
##ㅇㅇㅇ
##나보네요
판매
동생은
##속도로
말던가
##나오니
##노래는
최선을
검거
열면
잘됐네
##매일
##엑스
##겁니까
엄태웅
전주
아니니까
배우로
##들었
##취급
여자로
엽다
상어
했으니
혼절
정가은
ㄱㅐ
느므
단추
벅벅
##ㅅㅌㅊ
하시나요
서프라이즈
이십
이돌
##덕분에
##ㅕㅕ
테크데모
북산
##하다는
##ㅡㅡㅋ
최태준
지나면
요양
여자네
경량
##출발
##워너
##000원
지갑
##분량
들리
##진짜ㅋㅋㅋ
잘살길
충재씨
보긴
덮을려고
##나해
##자면
시간순삭
아프면
리메이크
디어
##노네
잘맞
se
먹먹
일인가
훔쳐
##귀엽고
##어쩌라고
가세
선행
##시름
마구마구
제주
만들었
은듯
나홀로집에
마무
안찍
##자리가
ㅋㅋㅋㅋㅋㅋㅋ
##보여주세요
김명민
갈통
##사람만
주호
람들
##이자너
여주인공
##폐지해라
권오중
열라
잘한듯
재슥
지려
클레드
리와
온라인
##들리
##안좋
나라로
러면
##마담
##무한
씩씩
##내일
##청소
##ion
카르마
오리아나
들었는데
생길
##지길
나오겠지
빅히트
패널
오뱅알
도미
타르코프
##대모
쳤다
##붕어
공허
##필립
이분들
백종원은
람은
택배
광기
않았음
조문
##도대체
##속에서
차인표
고요
아ㅋㅋ
아니자나
제작진이
러블리즈
돌진
되세요
##하하하하
거라
오짐
장만
항상응원
고인의명복을빕니다
수목
실례
즐기는
도망쳐
남잔데
재발견
##존재
정글이
##내리
##게장
##당하고
페미는
나무늘보
노라
어나
군요
앞길
주도
막장드라마
때도
밝고
##그러냐
##해줘야
네즈
##빌런
오영
조빈
##수빈
편한
못봐주
메시
##방어
기적의
있었어요
##큰데
사이드
포탑
초기화
위하여
송송커플
최명길
스는
쓰는데
잡았네
##짓은
버리네
이전
미키
없게
크루
죽는줄
고만해라
오지마라
##다해
##당하네
##후보
맞잖아
머도기
골카
##았던
##웃고
xx
내주
조니
##kk
불만
##브금
넘잼
정모
조승우
스탯
바비
슈퍼비
##하는건지
플래그
첫사랑
##안좋아
##썼네
배울
박수칠때
후에
##기까지
이혜영
다오
시진
여자분이
다시한번
글러
돌렸다
살아있네
구냐
니달
판도
##보고있어요
##안되는데
축하합
##고싶네요
노잼이다
셨네
##하겟
##톡스
고닉
##패션
국룰이지
월세
위대
메탈
방템
찌그러
##다고요
욕할
##NA
불쌍함
내일이
##연예인이
데미지
들어갈
허경환
벤치
혜정
##서요
800
무스
##j2
기차
해봤
##천만원
이쁘니
##아이들
개많
##단독
독하다
부서
술먹
하드려요
##Sh
디비
안하는데
틱톡
##왕국
wakOba
##갱이
재밌기만
잘살아요
호빵
성형한
감동적
구야
야식
쪼개
디가
##심장
쉬는
아닌걸로
손예진은
다모
요샌
##진실
##잇는
리오
##한거아님
##ake
징그럽
브실골
##더럽게
##지성
이러니까
gilyouCheer
사세
족발
##면허
러브라인
김지민
싸지
씹어
헤어짐
당선
옮겨
군대가자
##스라이팅
야미
유소
##당시
##언스
려원
좌약
정상적인
유닛
쳐내고
스즈
최고로
보여줄
플순신
ㄷㄱ
안됐다
있겠
싱글벙글
##하더
하늘에서
때는
좋기만
##했어도
남자로
그만나와
##똑같은
##개같이멸망
##Crying
시청자들
결국엔
코는
재밌냐
##크가
##납니다
아들도
삐딱
서풍
이양반
##러기
재미있는
놀래라
소쌍
응원하겠습니다
그럴수도있지
젊고
##조화
사라져라
##상승
마찬가지
날려
##그건
개맛
드로우
##을하네
##해준
##난나
사람임
귀화
보이고
설거지
##재미가
##시켜야
손연재
딱이네
##예쁜데
매직박
##부정
##랄까
줄줄
##데드
##상태가
도랏
잘하는게
송해
그정도면
않는데
왕국
구가
부대
유정이
합체
##은숙
##잡음
인민
##데로
그렇구나
쾌차하시길
쎄게
##애들도
##해보세요
대출
떳다
유라
고맙습니다
드물
##시즌2
뜬금포
성유
##어진
##있으니까
##런트
선즙필승
ㄴㄱ
##알았네
매력적이
말라고
문이
후드
다잉
타노스
이거보고
받음
운세
쿠소
##소드
##겠다는
예능에
No
##재미없다
신세경
느꼈
모르겟
##이였나
부작용
파악
축구공
메트릭스
더럽고
할머
##만하고
공범
##사탕
믿고거르는
장이
하더만
##충분
감정이입
오디션
선제
안올
주름
잡아서
##안아
극한직업
호빠
매니저님
한몫
이태리
간미연
에오엠
해본
##트임
##즈리얼
제왕
코지마
##일걸
부르는
##모른다
##렁이
눈사람
신작
이프
정우성이
ㅗㅜ
드디
서서
셔틀
영광
치가
##터트
순식
이의
##전화
5대
돌릴
젤리
봤네요
텅텅
##끄네
지랄들
살빼고
소리하고
악마의
##불렀
##넣어라
싸우는
##물을
##재인
다행이
무료화
기어나오
고있
튀김
한두
똑똑하고
죽지마
로망
앞으
죗값
괜찮을듯
욕먹는
##ia
유재석도
디스패
노인네
이라는
##3년
##시호
##바르
아까부터
BJ
푸른
옛날엔
수아
##찌개
##거래
##께서
##ent
가오갤
신부가
아케인
현이
##찾기
공산당
박유
성은
저나이에
##200
보조
##인거임
##현진
##민수
##지않은데
##기도하고
감사해요
lu
##범인
##MR
이런걸로
ㅂㄹ
듀얼
왜나옴
퀘스트
##일꾼
끝이네
음지
중력
이친구
##KI
단톡
##트페
거상
##th
##쪽은
아이돌이
##나온거
집사부일체
비추
세젤
알보
##갓네
슈퍼스타
밥먹고
##굳이
팩트는
##년이네
실력은
날개
원해요
임창
망친
안풀
##리는중
척척
##있긴
예뻤는데
대단함
잘어울리네요
피관리
안간
##입니당
박사님
에라
##나겠다
##재미없어
가붕이
비밀의
초보
##좋겟다
시참
코드
갈아타
##상품
명절
도란이
##그지
##HA
아비터
##탈진
쓰레기야
##언니가
연수
##코스프레
종합
체력이
##훈훈
##엄마는
죽겠다
##졸업
영정
그러지마
들어옴
돌파
게시
낄낄
장전
대마초
용감
짬통
쯔위
효자
##조각
##쓸모
아이를
얼방
장실
노래로
웃겼다
나간다
##32
뭔소리야
빠지고
##오구
##오는거
8년
##르륵
보험왕
2019
욕도
##했군
##판이네
##벌이
디트
5성
ㅈ간
그분들
영이
하심
##너가
하나더
우르줄
냄비
1대1
안갈
아닌게
고성
##게스트
##대세
개처럼
모유
이뿌당
자식은
최적화
무야
##비벼
##냈다
##베이
박정민
호크아이
##욕이
##해결
이상하
##주야
##법이
의미없다
이뽀요
보기좋아
죄를
기세
뱃사람
15년
##헤헤
일까
만든거
배드
입다
##시키면
팩폭
스테이지
관종이
##위해서
##줬다
##지현
구투
수습
##상이다
선포
얄미
갑옷
##비트
비서
사춘
시청자가
긴장감
잇어
##하고도
하기엔
슬퍼요
##ㅠㅠㅜ
포지
하수
##걸고
나같으면
조신
##어휴
##진짜잘
아름다워
동전
자전거
잘하셨어요
매치
빌어
생선
얼핏
데드풀
같이가
스트리
뒷모습
안끝
이겨야
밴시
##뜬금
아이도
이쁜부부
못나
##사리
##명이서
이말년
믿고있
보러가
청률
##질라
오늘따라
떨어지는
##게이머
닌텐도
##해지면
10대
브레
잡음
심슨
무능
약하다
##델라
기다렸
민경훈
강소
##아ㅏㅏㅏ
언젠간
미는
##니코
##못생김
든든하다
날씨
##접대
##리지말고
아닐텐데
울면서
##인성이
뚜껑
재밌어서
그런걸
B급
아까비
##서비스
요새는
50원
##왕자
박력
##고는
세무
##키면
정웅
##주리
##ear
쾌유를
배트맨
##이었습니다
프리시즌
스캔들
만월
클린
조혜련
이열
양아치네
죽는거
지웅
이제서야
##이런거
최후의
08
##잡는
스크린
ㅔㅔ
##시장
피디가
싸우면
김주영
적으로
##결정
##써야지
확실하네
카카오
3초
수입
하셔
##털어
##류탄
내로남불
했나요
##개찐
축하합니
쇼미더
시구
군대가라
준희야
도는
그와
무효
##공익
안쓰럽다
돈복사
흑역사
##일인데
굿즈
돌아간다
미성년자
먹어요
##딩이
dl
강남은
세번
##위선
걱정된다
이죠
##우르
##크면
##긴했음
지지자
포방
##성별
잇네
그래봐야
방심
빠루
중반
##사다
##하는걸
행복하다
친구는
##어디가
자격이
필요없고
니모
배두
##YG
에디킴
나을
##mc
##는게임
나와야지
부모는
보이던데
흰색
##사서
나에게
코에
연기나
진최컨
연봉
정신을
##으신분
리수형
양예원
무전
캐서
##튼데
처음엔
실망이네
임원희
나누
안뽑
##죽는다
##해야된다
트레이서
##솔로
칼퇴
템은
력이
##범죄자
##여사
생각나는
##했자나
##민족
개밥
계정
엊그제
##쪽팔
##쁘다
소통
김도균
로켓
비통
##크기
##를안
연기의
마렵다
코어
허준호
##fhd
빠빠
다하고
미스트
소소
##됬다
##스트리머
장지수
라칸
들어갔
미스코리아
adhd
교통사고
##unz
GD
퍼포
##미향
##볼때
##아주네
ㄱㄹ
세다
응급
김보라
룰렛
물고기
##이겠네
##론가
올만에
재방송
##박ㅋㅋㅋ
미래가
##용으로
##움직
어이가없네
베트남
수근
##티브
##늘어
나다
##오이
##하셨으면
개노
눈도
테러
##질까
밌어
쇼윈
##지좀
##대여
##맴버
우리동네
데려와
대는
한명이
##탔네
몰려온다
맞자
야인
주라
##대서
평범하게
##뭐라
##으려면
좋은소식
##남주
nn
거대
있지만
##개나
지랄도
철구
##좋았다
##윤정
개이
##았다고
감수
황카
관종인가
고생했어요
검은머리
박찬
##주먹
나라냐
수신
##쳤는데
yg는
잠재적
개많네
소문이
못하냐
짝이
공간
ㄱㅈ
감귤
들어서
10살
시죠
##스레
이미숙
##수있나
부실
교도소
##년들아
##미들
##남들
##꺼져라
태어난
바르게
손동
있더라
111
낚였네
심신
녹음
백인
백반
소매
##함은
##10년
날듯
타일
분명히
배용준
##없었음
난쟁이
##졸귀
장난아니네
이세영
라운드
##맞아요
피드백
30초
##다이어트
양식
##겜은
서우
재섭
미투가
김용건
마는
빈이
뜬다
맞다고
선거
쫀득
##들임
##짜고
##AD
쓰나
일본어
##나혼자
##구현
최저
뱀파이어
화난
기대했는데
아녔
어묵
조진
지렸
##구간
##얼굴로
어린애
탱템
##자루
##손이
선배님
망나니
히오
##언냐
미개한
이천
성광
아드
요번
##적이라
##새봄
##한판
##코코
김민규
가죽
씨잼
에반
##스테
##ung
똑똑해
로리
몸도
이단
인권
##지말던지
##로그
##음주
##못할
##죽네
이민우
좋긴한데
##줄듯
진짜루
과일
잇는
##수련
갑분싸
##TF
라리
##미터
##콩콩
어딜봐서
빤스
가까이
실형
통일
##내놔
만나라
어처
갈까
많은거
커여워
동맹
서도
##한여자
##중입니다
##이라니까
##이나해
하나하나
프로불편
어렵지
모녀
##지뭐
##멍청
더잘
삶을
육수
##좋겠네
베르
##브리
이혼을
세상은
##팔아서
해조디아
기적이
무도가
있니
##연수
##방도
##셨습니다
##ㅁㅁ
크툰
스몰
##글라스
##해주세
카이사가
부쉬
일하는
줜나
같더라
짐캐
##이였지
빼곤
진혁
##법사
##맘에
##먹여
현무야
장비
보여주자
전혜
##껴서
##부작
##훈은
바꾸고
of
백상
저기가
##와이스
아이돌은
머가리
쏟아
할지
##좀비
안나오나
낮네
볼까
참치
##수염
##꼴보기
##고야
궁금해요
3점
##부담
보네요
##이심
여자만
##아야함
##할꺼면
잼잼이
먹는게
예지
옛다
##살어
##민석
해야겠다
죄송해요
모른척
yo
케릭
##AC
논란은
서치
쓰래기
이쁜척
뽀나
쓰다
브루노
##겜이네
변경
창렬
텔레
하구
핫소스
##노ㅋㅋㅋ
##터진다
##멘트
그럴줄
무슨죄냐
과대
맘충들
빛을
장모
##다님
##떨어져
약을
터키
템을
##소니
복하게
작다
##빵빵
이상엽
보기좋네
백종원님
5초
충성
못생기
는건가
제목보고
한거임
햇네
##급으로
##웠나
번째
열쇠
##되었
##1억
유독
##아픔
개유치
는줄
오십
##있었으면
##미애
##셨군요
메이크
온갖
##없잖아
##자숙
##후배
만나세요
해야됨
어쩔수없지
##텔라
##부터는
안닮
##범근
신뢰가
엄앵란
섹시함
개이쁨
당히
##래프트
##들어서
##폭탄
어이구
##린스
나발
바이럴
시대가
안좋음
##지창
##날라
##딸도
##고있냐
먹으면서
생님
##전에서
##나음
챌린저
여자애
##말곤
##그런거
쳤네
##리는듯
음소거
시네요
싸고
울었
어린이
이모랑
정확히
시뮬
##돌아오
나대네
행복하시
##LOL
비투비
소년단
중2병
어떡하냐
업글
##먼스
##아아ㅏ
가질
고발
직장
홍기
그만들
##인스타
안가고
저기요
##자에
깨워
려나
##사태
궁금함
짜증남
신인상
##wa3
무새
##슬쩍
데프
나오던데
해야해
하시면
합리
출연자
중요해
유진초
내다
대타
키운
못입
특수
##불견
##방송에
##소시
뭡니까
시즈
##고백
연애를
새끼야
식샤
워크
그래픽임
교련
아다
인마
진구
##잇냐
롤도
##동원
##울때
니어
비틱
##으셔야
왜그러냐
##못참지
망해서
선을
여보
하나뿐인
##손에
이노
것은
귀욥
말할
물로
상당히
##안재현
최고입니다
##가는줄
##진지
##드레스
존잘이네
1은
놀이
뉴이스트
음이
중세
##하당
##한표
눈감
잘된
##ㅋㄷ
##부부는
바람둥이
라디
안될듯
문재인은
2번째
ㄱㅈㅇ
##어ㅋㅋㅋ
##빠르네
##눈치
임신이
설정이
##태환
웃음이
viichanRani2
말든지
##재혼
재밋음
유정
##때문이다
인과응
말고는
이태곤
하해
배송
보장
##상대로
사요나라
줄줄이
추측
퐉스
안될까요
거북이
ob
관객
박보검이
잇테
66
싶으면
자도
자면
이말이야
개이쁘다
레넥
##상해
94
백프로
##지니까
##신혜
##얘기는
세기
은행
##Apfhd
##지은
##말이야
##타네
뒤져
리면
써요
##싸워
벤틀리
보이콧
4천
사람죽
쓰레기통
부처
##을뿐
뭐만하면
잡지
주님
##졋어
헤어져라
##하긴하다
4성
짭구
활약
##연기력
깔아
##위조
##스택
크로스
1등이
드릅
화목
##한결
동시에
##하래
이상해요
참교육
다ㅋㅋ
았음
사랑스럽
말년
반려
좋겟
못생겻
##으셨네요
그니깐
머하냐
띠동갑
못하는거
##반복
늦은
레니가
로보
줄어
발이
##비도
형아
##없죠
말한
라이머
##까리
##LC
##Ks
일일
기대를
네오
##조타
신데
파산게임
내조
이쁘구만
##그렇고
hawa
못봤는데
썩어
일에
이연복
포로리
##쓰레
구울
덕에
라라
황보
##잘만
##멀티
노잼이
##수있는
안재현은
살도
색이
제모
##보로
##해보이고
김기덕
##Kinga
주는게
쪽빠
##파괴
양세찬
비주얼이
꽁냥
빈스데이
##끝내
##스터콜
6개
정성
##현정
그시절
우습
첨들어
##개뿔
##먹어야지
가수는
이하이
인종
버리자
중단
승준
합쳐
##년들은
나쁜남자
왜나오
주목
창문
미투운동
미역
야옹
유이는
다솜
##볼때마다
나래가
나쁘다
재조합
버렸
##때랑
울리
어필
정직
모델이
모르겠어요
부셔
잘한다고
안보는데
피시
고무장갑
되는거지
차라
저분은
##다닥
##꼭질
구씨
안희
그것만
아니던데
갈끄
고름
##찍었
도티
##눈에
##봤지
의료
##변경
##괜히
재미없어요
엑소는
미쿡
##니스
이라도
##패배
렸다
롤을
3040
yodelayCrying
초록색
봉인
##한국당
넣지
명이
뭔들
화력
살림남
구석
김장
##잘생긴
처음보는
##유저
##중계
쌈디는
op
##사건은
봤나
막내딸
박제
##지리
이석
찐게
##좋은거
결혼하고싶다
보라고
그가
##긴했는데
훈훈하다
생기면
야외
##수지가
사진보니
모습으로
##검은
걸어요
월량
##직전
##버텨
극찬
만한
얼평
혼술
목소리는
리링
상습
찬열
##안볼
30년
##이제일
밤마다
##라다
##많냐
버텼
##채로
이겨내세요
고퀄
휴지
할것
##기냐
##벤져스
대세는
못하던데
이년아
수십
##카나
##얼른
중국은
비슷해
지하철
##싱어
있다는게
여준님
닮앗
몇십
##린건
##었을때
##왔어요
Tv
어서와
민기
3성은
김재원이
현장
##좋을듯
##우려
뒤가
하꾸라지
모르는거
행복하세여
감상
낙태
제니가
##했을때
##코기
튜브
##손님
나라는
##도없다
##의금
알잘딱
있자나
##누구임
박진수
박지성
내자
못따라
##까도
잘모르
양념
##약국
##카스
3번째
고용
방시
##댘ㅋㅋㅋ
자세히
달래
생리
시아
##여기서
말아요
이버
카레
##덱이
양띵님
돈가스
마시길
##기자님
롯데리아
전성
##바라기
전부터
##Le
##고침
##희망
##금방
##맛이지
히트곡
구하라는
나보
나가지
눈알
면허
분들이
##도다
##해줬
##닼ㅋ
##나오겠네
##잘어울려
근디
끝이다
렸네
복하
작살
##덮으려고
잼없다
짜오
작년에
##왜이렇게
wa
형이랑
##뮤직
좋아보여요
방송사
그루
##누굴
지팡이
##죄다
1등은
해설진
안되고
거기에
poongL
뻔뻔하다
마려
심함
##ain
고졸
##보살
##내네
##뎈ㅋㅋ
순산하시길
스펙
85
고자
비판
잘안
캐미
##탈락
미라클
##시너지
##클라
##찬다
결혼축하드려요
##는사람
##남녀
남자애
곳이
원픽
너클즈
병이다
솔라
첫회
주죠
상대도
기본이
색기
에피
주머니
할머니가
굽네
뭔소
##잘생겼네
부지런
비리
##살다
부탁드려요
손녀
개쩌네
##몰이
스카치
재탕
##잇어요
4쌍
##까지가
재판
##31
##들이여
에릭남
리나
미사
##우니까
##비디오
##안한다
매력있네
##gule
다ㅋ
섹쉬
종료
##터지네
패러
화환
##겨울
이뻐용
거지같은
건전
##못가
사미
오윤아
은섬
##너지가
이정현
사무실
rip
조낸
##싱크
패드립
고스트
##만명
사귐
##들ㅋㅋㅋ
##끼네
##ㅋㅋㄱㅋ
얍교수
윤균
초콜릿
##분간
일반인도
이선생
언더
장담
##시키네
기부나
CC
쪄도
한국사람
가식적인
##멤버들
잇몸
##너는
가스라이팅
도라이
유시민
이누나
ㅌㅋ
받네
얍교수님
치와와
안테나
빵꾸
뺏어
##들하네
크라니쉬가
소양
생각나네요
##싸이
긴또깡
방장님
##둥이들
주인공은
빕니
혈압
##안녕
박보검은
신선하고
잠만
무리뉴
유동근
터지네
멋진사람
리수
싶냐
포샵
2020
##영화는
구조
때매
채우
##운영
만나지
뚱뚱한
##지가않
##ice
어깨가
으니까
##마인
##더블
허전
##해로
##키네
엄마의
##나올때
데려가
##소설
고소미
ㄱㄷ
미카
##해야하나
viichanM
2편
현피
알아라
아프지말고
잘해주
##스완
##칠듯
##줌마들
인기많
꽃보다
백대표
슨배
왜하냐
티셔츠
##들보다
##못보
##일인가
##예쁘네요
팬들은
##가보
손잡이
vo
성덕
후리스
딸을
##버리면
##당했다
##엇으면
이미지세탁
빈지노
있길
찍어주
##적으
되는게
해주면
zzamN
##피해자
마리텔
드려
##희진
##챔프
잔치
동상
마구
##2번
사랑스러워요
되었네
좋긴해
화영
##올랐
예쁜커플
묻히
##컨텐츠
군대갔다
싸이코패스
킹정이지
국제
물에
##싸가지
멤버가
병규
자리가
##머리는
##건은
##노는
##재판
미쳣네
난이
썸머
##무사
##심각
ps
##으응
##엿다
수지보다
고지용
팔아서
답답하다
구해줘
망하는
##걱정은
마음의
주변에
##그래요
은신
타투
##았습니다
삼가고인
언럭키
##겠따
##먹는게
없어짐
인정한다
못했다
재미짐
시키자
장승조
효도
달달하다
죽이기
##안되지
던가
##신을
너무좋음
드럽
살고싶다
##학원
찌질하다
크림아
빠수
징하다
##슴다
##배우는
나뿐인가
지드
##고고
응원하는
실력으로
쟤들
살빼니까
리를
창조
사람이냐
터졌다
##귀염
##밸류
##연기를
##가는듯
고음
까발
똘똘
##할라
안먹어
흑마
ㅈ나
찾고
##너무좋아요
아임
##과장
다른게
소람
##배럭
모두들
어지럽다
##을땐
보내고
남에
엄정화
##내미
자서
##exy
봄이
일본이
어쩌구
광고주
법정
운동선수
류화영
가불
##순산
안가냐
식상해
6병
주둥이
휴식
키우는
##받아야지
국회의원
먹죠
안취
##가장
##하면되지
땜시
민낯
상담
예쁜부부
##없어도
mmr
대수
리기
##롭네
wakKinga
그타
김하
##언론
느낌이네
사과를
똑같애
웃긴데
둘의
보영
해주는
가시길
##있을까
거기가
##짱짱
그만하
말안
알겠지
하리
##진우
##대는거
출현
예능이
900
술사
쓴거
업그
옥상
##아악
어디갓
무쳤다
응답
그만하세요
공감하실듯
홍철
im
대작
더빼
##고도
3이
할께요
잘못은
구준엽
민효린
시우민
말거나
세번째
씨는
자녀
좋았을텐데
##치는게
##짝이
##보기좋
##었어야지
겟다
##멜로
아니라면
혼자만
1절
집구석
##언제나
예능으로
좋아하는거
업을
##맞나요
무관이
스필반
금메달
뭥미
봉투
겁나게
예쁜사랑하세요
가볍게
이순
ydcJj2
내놓
##만드는
##건드
나이차가
고르곤
구리다
상장
안시
주나
포스터
슬프네
Sm
거예요
깜방
빠지는
왜저렇게
진정성
가사가
철저
라클
전프로
4점
두산
##지않네
240
듣보는
문세윤
유령
##살고
##Rr
po
고지
관심받
##뿐이다
##가시
임시완
노총각
##된게
##불매
소리지
피해자가
길을
빨강
나왔어요
옵치가
##주름
러너야
스트레
민폐다
발정난
버러지
킹재원
##사이트
##Zz
라이프
이를
홍종현
낮아
다라
정신좀
듣고싶다
육중
##무관
5등
##들여
##대야
##어때서
드셔
제사
많은듯
앞뒤
저러지
##ori
보낸
아동
오는거
최현석
##내나
##방구
##65
##됐나
기사야
정해인이
##몰라도
##경험
제발요
못하겠
##패턴
이승기가
나레이션
혁신가
후추가
고친
##털이
빅토르가
Cheer1
ㅋㄷ
바하
댓글수준
엄지척
것들은
남잔
두달
##들짝
##바가지
속사
##마녀
##늙었네
##벡스
##어그로
##겠는
플레증강
##으시고
##점프
##터는
##절친
고소당
##하는건가요
진기주
차예련
물을
줄이
##의성
##급임
##받는다
##설리
인간아
##인지도
##기사로
기레기들아
##못하면
##호흡
god
서언
안되겠다
보란
불태
착하
팔근
##노래가
ydcH
딸래미
태사자
생겼네요
고생했어
실망입니다
현무가
김동욱
비어
시커
한건가
이탈리아
야도
##나중에
한국이
자기도
두유
불안해
사야지
2승
길만
남동생
소용
화장이
##개그맨
대검
절라
희한
##잡이
신기해
밝아
추성훈
##친구가
##새기들
계시
넣어서
여운
연기파
2위
내이상형
##못생겼
##노ㅋㅋ
시작이네
강하
높이
못나가
못됐다
보시
##사는데
##화국
연애도
조졌
제목부터
나연
어색해
최고였어요
그네
은이
카사
##찍으면
오히려좋아
인기도
아니였음
이겼음
덕질
##던분
##AR
재미없는데
게으
돌리자
롤이
압박
접어
키고
##악한
힘들면
바이오
봐줘라
코난
##Angry
었어요
기억에
한우
김어준
연아
귀환
술상
##웠지
##근성
사람의
##hee
##괜찮아
신경쓰지
낄끼빠빠
기상
멀미
##내냐
나올까
승기야
열받네
있는건
추접
전함
##라네
연기하는
가고싶다
라구
욕이
한문철
##미인이
##킬로
현석
##올때
##pg
hawawa3
공기
하는것
어려운데
등판
스태
싸게
##인으로
##자만
후임
##니도
##힙합
사진좀
##밖에안
고독
본다고
이쁜여자
발라드
울었어요
을때
##몰라서
먹으러
크지
그때는
윤아가
MBTI
##을껄
##떨어진다
려라
하겠습니다
##떡상
두근두근
아니지않나
기죽
복근
##억은
들의
##줘잉
안한거
에너지
##해질
##미선
데프콘
##없으니까
##달래
군대가면
김무
와도
##노트
##꺼지
치마
##피트
김완
##마린
갔냐
보낼
##도있네
##역전
정도껏
려서
목에
미침
잇음
##못생긴
xkwhdApfhd
2턴
##떠나
내는
태산
하위
허영
헤일로
##꽃뱀
##클립
##똑바로
그분이
만지
비빔
숫자
아미가
다음날
레이저
얄밉
##씨의
하셔야
##안타깝다
엄기준
잘보
조롱
180
테일즈
다면
성현아
우마
태후
##청춘
일본으로
안쓰럽
신류
중학생
소리야
이새긴
##없었
##있어라
만듬
##말종
다니네
차분
그지같은
베베
짜증나는
있는거야
오락
웰케
##하우스
ㅈ으로
gegule
##공포
하셨네
##프네
##지ㅋ
##하겠는데
시간을
ww
걸스데이
스텟
##복도
박서준은
어디갔냐
##어차피
기승전
솔루션
친다
##지야
축구선수
지코는
눈부
폐지하자
문과
오자
저리가
##약한
##70
초등학교
bye
듀엣
머선
곽도원
금융
늙었어
조상
지금이나
신은경
영탁
##큰거
건물주
방사능
퇴출시켜라
돌리는
##이아
방에
보겸
복재
시원시원
룰루가
자괴
최대한
하더
##소환
기아
번에
소비
##하긴한데
오리지
##나오세요
다음주에
단물
독재
세찌
칸도
컷네
##넘좋아
woohanG
스틸
이쁘시다
어디다
종국이
##마크
태극
하합니다
##되죠
##뽑아
대단합니다
예능에서
떠네
##파트
봐야겠네
한끼줍쇼
몸은
##poong
현실이
안보인다
무가
있구만
##훈수
스페이스
개악질
츤데레
롤체를
은혁
##감을
##라이언
랜뽑
부친
##이만
##인데ㅋㅋㅋ
##행복하시길
덩어리
오직
this
고는
달라지
슬기
##닼ㅋㅋㅋㅋ
로제
빨랑
제는
##머지
##놔서
##해줘야지
아조씨
임재
하늬
ㅂㅈ
셰프
엠버
##선에서
##탄생
유투버
##나이가
재밋다
##미만잡
리치
미야
접어라
투기
##빅토르
어딜가나
김지영
아니근데
쌍베
김아
미코
##궁금하다
##지나면
##할때도
##건강하게
##큰일
다잡
병력
연령
웃길
재밌나
##ome
싶을까
##죄송
##슬이
느리
윤호
##신선
##팬인데
비욘
##장으로
사람한테
자랑스럽
난리냐
양육
나이들수록
욕은
##바뀐
##지말구
##스파이크
치아
사회생활
안나와도
먹칠
##미치
아몰
타입
한놈
##되도
노력하는
앜ㅋㅋㅋ
이언
칸무무
##힌거
물쥐가
이길듯
거를
##2가
##까네
아니니
##어야했는데
3트
굿바이
그건가
물갈이
##이당
##쳐요
너무심
##클릭
좋은분
관종들
양희
짱이야
방송으로
담주도
##어야해
엄청나
귀엽더라
그리워
##잘했네
##노력
##길어
##차차
##성장
##언니는
1호
미루
이니까
##억이
보면볼수록
부끄러워
##ㅌㅌㅋ
군복무
생이
찐찐
청주
##봤나
둘이결혼
영화관
바랍
돈다
보셈
우디
##매너
##나라에서
까만
망토
##살이면
진짜너무
##재밌는데
가즈아ㅏㅏㅏ
둘만
병아리
##회로
나왔냐
걸스
잘한거야
팔어
추억팔이
페이크
##나와도
안나온
몸으로
밥줘
없었나
풍상
##아니잖아
웃다가
축가
어떤가요
살렸다
성재
아부
##ㄹㅋㄹ
준희양
왔나
##지말라
장기하
틀니
##뿜뿜
이해안감
어렸을때
잃은
불쌍하
우승은
##피부
##이긴하지
멧돼지
했습니다
##마블
##볼게요
보는듯
자이언
##지간
##이여서
미연시
5점
##고구마
##이던
사기임
웃기지
광규
점마
튀어나
혼전임신이
설사
##안간다
##인데ㅋㅋ
힘내서
킹갓
못했
이씨
정경호
추행
비켜
연구
허벅
##Light
출세
##좋으면
##바가
##방송은
자동차
##웨딩
가라고
떡밥
정식
##메디
누군가요
디유
얘기가
엄마아빠
정기
찍을
##부름
##손예진
조금씩
태교
태세
했나보네
흔들어
##캬캬
##시키지
더나
수비
별루다
놀면
마세
먹는데
##발연기
옥냥이가
시스템
오옹
추석
##전부터
물어봐
이규
해쉬
##비안
##개꿀잼
Pri
생얼
신파
지환이
여자라서
분석
이케
화남
제로투
두리
연예계는
긴함
##되는게
##6년
2022
단체로
니나
##쳤어
리아
이더
친근
##그닥
##와의
모모랜드
미치겠네
밖에서
선정
옳다
##쾌유
최고였음
안되는거
사랑과
우익
진짜면
남자야
뚱땡이
속은
펩시
돌아오세요
돌려서
##싸우
생각좀
영화에서
2018
럭스가
세리
증인
필리
##의대
로아온
6발
단계
저사진
어디냐
있으신
조은
##안될
##햇냐
유명하지
개고생
##캔디
##문제다
이기사를
경수진
옷도
라이벌
국위선
기념
선호
이혼하면
poongB
소리하네
내숭
##구혜선
불편하다
3위
뒷라인
##고양이
##봤습니다
##eo
확실한
부끄럽다
켈투
##설명
혜정이
안빠
##돌파
이혼남
스페인
이청아
머바
저년
충신
##긴했
전담
##제한
보드
##풀어
다함
먹으
애쓰
##뜨고
##났나
오래가
미용실
##가인
봉사
지퍼
체가
얼굴이네
1이
다됐네
더만
##환영
구본승
##시상식
스타쉽
다녀와요
방방
좋아보이
스타필드
2렙
공평
반민정
회사가
라비
헤헤
##주머니
최고에요
##마법사
5살
방관
비아
그나물에
주영훈
망쳐
유머
자림
위험한
말랑말랑
따봉
쓸게
우상
여자지만
##냐고ㅋㅋㅋ
섹시한
오타쿠
##동영상
스물
한번은
쥐어
##빈다
##깜짝
사냥꾼
전파낭비
절벽
터졌네
##죄가
나머지는
1렙롤
가실
정승
##사랑하세요
##오타
##학년
결혼한줄
떨어지네
##나가서
요네는
##Sad
결혼함
꾸며
년이
박선영
스멜
친추
##또라이
##Vkf
나오지마세요
평양
미쳤음
빅토리아
우네
잘컸
열일하네
계집들
년단
독이
##잃어
관심병
성훈이
비챤님
찾는
APM
미나가
안됐네
##po
글래
유비
집안이
궁민
리트
행복하면
해맑
오래도
##기대됨
피닉스
할말은
##퍼가
##설현
##하지말지
간단
말뚝
베리
##갖다
##이다ㅋㅋㅋ
비슷함
샤오
않았어
너무예뻐요
음악은
했네요
김치녀들
처먹
##줄까
##하신거
마인드가
빠져서
##글자
##좋다고
##ame
##수도있
어땠
##하신다
er
던이
도타
##희라
3성이
성동
못생긴게
이산
##착해
##Hug
됐냐
매출
푸짐
십년
캐롤
##abi
라오어
##슬아슬
겠어
근접
##망상
##Eun
등극
랜턴
상의
신나게
기대할게
비싼거
안좋네
참가
김광규
시진핑
끼는
leel
남기
모하
아니구
실험
패딩
피박이
##보라고
##하거나
우리팀
업데이트
##비션
ㅋㅋㅋ이
교미
국자
말에
안낳
##야할
##대충
사거리
##매력이
이혼한
하쿠야
눈코
쇼츠
##랜턴
개쌔
##연옌
박탈
수박
##히히
오ㅓ
여자들도
##는걸까
도찐개찐
보복
##시켜주세요
귀에
나가네
게이트
##아자
반지의
대유
에미
초상
##새요
##찍자
##암살
##이긴하네
돈잘
찾아야지
나니
또시작
몬스터
제거
아프네
ydcKs
##하시는분
##unzin
차범근
##그만해
세븐틴
강다니
매력은
##마누라
여신이
서넹은
영상이
##두자
모르가나
AV
김사부
메니
토리
##이였구나
나낭
하객
##강타
##스타가
말아주세요
9년
또래
거만
늙은이
##세에
##혜경
##돌아간다
돔황
봤지
##볼듯
##문제야
##어택
##강남
광우
##인뎅
##놨어
오타가
##빅뱅
기삿거리
개돼
보고있어요
해야죠
수준하고는
집행자
북미
##고루
##다던데
돈벌기
포방터
##학번
후반에
##블츠
해외에서
거세
번개
차를
하나보네
없었어
부탁해요
나불
먹었다
너무예뻐
빨리좀
##해져
##찬이
##마셔
##비하
##하는군
##이지ㅋㅋㅋ
가르쳐
옥수수
아니라는데
연하남
78
기에
행복했으면
환영합니다
왜저러냐
된듯
만델라
없자나
##가면서
토나옴
##중이네
##겄지
당시
맛없어
##견제
롤체가
이즈는
명예훼손
##탈세
##긴가
##것보다
##짧은
안어
결혼축하
남자네
회사에서
싫타
##물로
##너무좋
쌍으로
인생작
빨간색
다스
다음생
남편을
틀린말은
ㅠㅡㅠ
초시계
##퍼센트
좋았지
개같은
인류
구마
이상은
1부
지영
##판사
프로다
맞짱
수류탄
안그래도
오자마자
mc몽
57
아크
어뜨
나라에서
상황이
믿냐
이였
클램
##김밥
인간미
안일
##방으로
##잘해서
##이였어요
막히
룡님
슈주
##만날
그랬는데
편집자
어째서
김미화
팬은
그럴듯
소미야
##처먹
대상감
마이클잭슨
뭐예요
6살
씹련아
##귀여운
돈받
##있을때
##uck
1순위
민박
##걸러
행복했어요
안쓰고
##해보여요
보여주기
ㅇㅁ
말이지
송형준
##해드
##bu
결혼축하해요
한국어
어이없
양아치들
대물
룩오라
좋아보임
앙상블
쌍꺼
원숭
son
만이
뿌린
필승
##거리는거
동참
##까기
먹었는데
뿌리기
쉔이
그런말
##부모님
높음
됬네
임신은
박태환
포킹
##드랍
##유포
ㅈㄷ
말길
해리
혈액
기억상실
여러모로
개소
##대대
##엌ㅋ
최민환
영향력
##아주세요
##들어오
##러운데
##ink
##행위
일로
눈꽃이
머함
오너
유빈
##격이
김종국이
몸통
스타를
ㅇㄹ
득남
꼴이
숨은
저남자
##호환
엘베
자라렴
오메가
답네
부스
태풍
토닥토닥
압수
자요
학창
정일우
더이뻐
용이
##겠던데
보였
생존마
##한적
최악이다
자힐
##속성
너무이뻐요
부천
있다가
##뽀뽀
##메이킹
##아인
##몰려
전라도가
같긴
안식
##돌리네
##역이
##까지도
곳으로
##지키
##쓰는게
##행복하
갈고리
도저히
아악
충실
발치몽
놔둬
뭐든지
빼세요
햇어
어린나이에
##인연
이러냐
##지말아요
동양인
혀가
##드디어
##떤다
늙다리
보해
빙고
##나는거
##레스트
예뻐라
건조
임이
##성태
양심도
저래도
막장이
사운드
##거도
##한태
강찬밥
##1B
##ㄱㅋㄱㅋㄱㅋ
마오카이
알함
##신데요
##AM
##DD
해주네
실화임
보여주나
파트너
##사생활
##우세요
##등이
방송켜
##별로다
나인
외노
요들이
##값이
4시간
##사이즈
포르노
3킬
겜을
당했
배신자
교배
세게
##고쳐
끼리끼
제이홉
테란이
커엽네
신세계
않으면
자님
치과
##했나봐
아니었으면
구혜선은
ㅈ댔
썩을
아만보
뒷통수
연이
있었던
불매운동
##체크
이뻐졌네
강타가
고릴라
맞아서
반칙
##지심
##천만
ㄴㅋ
넣을
돌이
암만
##구하라
차리
##색깔
겨드
금수
호강
##야된다
##휴가
해야할듯
보고싶당
수님
역주행
오로
죽이면
##표절
##을거에요
김지수
반인
직진
원해
##할예정
##하자너
##다는줄
##JAM
땅을
예절
##우니
얼굴값
스타킹
못참아
모델링
어딨냐
읽고
조으다
##겟냐
##것같네요
##30대
손주
육덕
##정령
공주님
양동이
##겜임
습니
쾌차하세요
tvn
전라디언
것만
기특
##라기
재미있었어요
장나라가
구미
유언
예쁘니까
##파라
120
양보
##것들아
땡큐
미팅
떨고
말하는게
볼게요
##프로는
보고싶지
자운
질리
플님
##ㅇㅣ
##강사
한석규
오케
##유의
감염
##니야
##차네
##뿌리기
백종원씨
확률이
모험
목사
아직안
갈리
##가여
선빵
풀템
##다와
##그리고
##컷다
이쁘시네요
카타르
거미줄
my
솔랭
줘서
##님ㅋㅋㅋ
##소미
##술이
그런거지
##끼리끼리
로이킴은
빨고
교수님이
##각도
leelat
종현이
##라구요
##기능
##온듯
빼고는
세계정
김해숙
CG
망한거
음모
성격은
담주에
길막
따위
자를
##회장님
##할때는
억울한
열혈사제
개열
까라
있을텐데
편이
##왔음
솔킬
실타
안입
##들면
##억지
밥이
##났으면
##가나요
##이십니다
같으면
로운
장첸
배아픈
생긴것도
좋을때
은도링
ing
슬플
분노의
##싸개
##죽이고
말좀
에메
옆모습
안좋은데
##구자
##최고야
김부선
누구한테
하차하고
결승전
귀티
대상이
이소
##ine
SG
##걸렸
##판박
세개
##우유
저런데
123
몇분
##하겟네
관심없고
소리를
##임ㅋ
##아줌마들
평안
##가아니라
##신의
##편하게
##설이
##이지요
##들어도
##판매
친구를
전혜빈
이번시즌
겠어요
임성
##존스
안나온다
왔습니다
후레
##아닌거
터지는
##과학
안재현씨
호감도
동그라
##만듬
충청도
김강우
닉쿤
##맨ㅋㅋㅋ
보내라
##비상
은근슬쩍
뭐하는짓
로봇이
되었다
##누르
뉴스에
지루해
오나미
3층
황티
##현민
##집합
##낚시
변화
봣는데
윤진이
쿨하게
##도하고
##48
##안가네
##뛰어
생존자
걷길
배아
컨디션
##르셋
##Sul
고생하셨습니다
공짜로
들켰
##이따
##합방
##동은
##누나는
##유행
이기는데
##순수
##혜미
##볼만
부리
약은
젖꼭지
누구보다
##OOP
걸리네
꼴불견
내돈
사유
심이
얘들이
##1은
뺴고
노땅
범도
장신
##당연
##화점
과하다
포피셜
나가고
괴롭혀
때릴
준수
만들었네
깜빡
##표정이
뭐야ㅋㅋㅋ
##연예인은
백두산
격하게
무쌍
엄복동
##집도
일반인들
개존잘
정한
##되긴
##이나해라
12살
이채연
안되니
##한건가요
뚝배기
##사마
하늘을
지디가
순풍
이것들
전장은
손승연
얍얍이
본적이
##구이
여자보는
닥쳐
도대
퇴원
##ft
사람인가
것을
장우혁
그야
동일
좌우
##넘으면
##안대
권혁수
기들
##인줄ㅋㅋ
무기징역
롤모델
먹었네
성룡
잘했지
##조국
9살
죠죠
##멸의
돌아왔다
야구선수
프로포즈
좋을까
애들만
Kbs
##할수도있지
말라서
천지
후라이
##캡쳐
대사가
##빨이
기대돼요
희생양
##품이
동생도
##역대급
딴건
만삭
욕하
##이라더니
미안해요
같습니다
코리아
이렇게까지
관전
당분간
댕댕이
고다
꼬시다
저걸로
기대돼
zzz
##잘어울린다
바디
##똥꾸
음악으로
밴드
##빛나
허수아
##과거
리다
중기야
아쉽지만
##응원해
제육
##하셔도
##넘어가
조리돌림
고속도로
관심을
아까워요
놀고있네
설득
지용
##입갤
갔나
러너도
스토브
아재요
걸려서
구간
죽어요
##들지
어울릴듯
잘되면
##병신
##회에
##낀다
도깨
첫판
비공감
안옴
은나낭
##박자
기다림
오세
##내지
불쌍해서
살려내
Pride
이본
##주차
둥이
##어플
##명의
##실에서
##뻔했네
##떨어지
이길수
클라쓰
구강
##코는
무적권
경력
야한
##모니
불쌍하지
구속수사
##없더라
로는
못했네
##로봇
솔찍히
질듯
##웃기다
자연인
당당한
기래
무현
샐러드
인체
안나오나요
정진운
해보고
고연포
배에
조음
예쁜거
매력적임
돈버는
##인걸로
한혜연
루저
른다
##아트
뢴트게늄
34위전
집사
김성수
답은
어셈
수고했다
##비에
##공사
##낰ㅋㅋㅋ
여러가지
ㅇㅏ
체스
riringR
박해미씨
우주선
거나
번쩍
어유
##났지
##기사냐
##서플서플
때리고
##빼고는
대딸
이쁘긴한데
브금이
##ㄴㄷ
나오자
금액
원서치
윤석
이과
푼수
환희
하성
됐다고
##물은
의학
##주사
##느냐
재수없게
시대에
민영
서유리
소연
즙산
##가는중
살인미
포도
##적폐
##골라
20년전
팬이예요
97
농장
맞말
애만
절로
##나겠네
혜교씨
독박
후기
##애플
##우우우
##웃긴
##됫네
보더랜드
DLC
부메
유익
이어서
절레
##빠지면
##게임은
왁갈통
##안본
백일섭
0원
귀한
맞췄
##자제
##당한다
##달라는
##많으면
멋져용
와꾸가
개소름
##깃네
강은비
3골
위아래
유잼
씹노잼
질려
##먹는데
진짜이쁘다
##생각나
그럴거면
##여전히
9투
##햇어요
극혐이네
##수없지
##마조
좋아했던
죽을때까지
몇점
청아
현제
##아앙
##할건
##화사
##발은
비와
주냐
##다는데
##빡겜
그걸왜
자러가
##기대합니다
조졌다
##처가
부정형인간
반가운
나경원
2달
너모
짱임
##내보내
##션이
중독성
만취
받지
##잡자
담에
새드
시연
왕좌
최우수상
국인
풍형은
챔피언
##소는
보여주고
노잼이라
##수있어요
아닌데요
마누라가
지긋지긋하다
아니예요
란두
배아프
옷입
너무이쁜
##인가보
##지않게
마음을
##모르는데
묘얀미
슬로우
##타워
막판에
장민호
주병
##Ouya
담엔
손목
##불륜
어쩌려고
끝난거
##다나
##되기
##ㅇㄷ
사기네
시안
##오는데
##도됨
##함의
##밤에
그랬지
##마세요
입맛
편견
##보고싶네
nnabi
다ㅋㅋㅋ
라붐
옷은
카지노
##깽이
잡혔
##김씨
공산주의
는거임
담턴
##사유
##죽는
mz
옆으로
응팔
태워
##변호사
대단하세요
est
구먼
준영이
##울증
부끄러
2마리
개많이
유준상
##있었다
##계획
멋진배우
##하겠군
에일리
메로나
##키도
예능을
이정진
이마가
양동근
어카
무관심
나갔네
않았는데
이거야
중국으로
축복합니다
우블리
말도안돼
##필터
##재다
애낳고
태현
잘못한
거르고
그다음
꿀잠
칼렉
##수현
##킹아
##팬들이
개좋
내게
축하는
##는데가
틀린말
승무원
##길동
##사람한테
가망
도착
저분이
저희가
하버드
##ano
건담
중심
국위선양
대두
했었는데
##정준영
##전용
##맨은
얘네도
클렘이
##신발
##워크
배우고
성의
탄탄
##to
기분좋아
ydcW
명인
시한
##우야
##의맛
기레기들이
사각
협상
##그려
##거북
얘를
##도없는데
안마방
때린
##하는애들
##파이브
세호
##미쳣
##남의
김정현
비빌
숨바
##학대
##손절
도끼가
##KIE
당하는
원소
잘해야
##박보검
##왓네
##특징
주다
기억해
##안되냐
해주세
kimdoeGG
애호박
본명
성형해서
##에게도
거의다
##누구지
그립네요
고로시
닮으면
죽겠네
집중이
##매장
ruk
트랜
나라망신
##ㅠㅜㅠ
않았나요
##ㅐㅐㅐ
위장
중이
##네들
##생존
##주시
##김도
##같은건가
대박나라
그런방
si
##연금
결혼해요
##끝나면
소진
##IN
##조직
다음으로
##레이터
gilyouHh
문명
미끼
보톡스
##쭈쭈
오정세
믿보배
속시원
##있었나
##에게는
났어
보던
예수님
안사요
3라
갑상
뭐하노
배는
찍어야
추하게
##곡은
##ㅌㅌㅌ
강간범
가는거야
세주
큰채아
앞으로는
운도
항문
##이제그만
고만좀
쳐서
투샷
##게해
걸러라
3류
세여
싱싱
##미안해
세계관
장인어른
아슬아슬
짬처리
말하고
인트
##린당
##귀요미
안나오는
아닙니까
찐막
라이즈
동백꽃
뒷북
##방울
부정형이
형준
구걸
리즈시절
어버
요들은
전직
##ㄱㄱㄱㄱ
##보고싶어
승현
여경
##문재앙
신소
씹ㅋㅋㅋ
착해서
하려면
##다네
##그걸
##크리트
##허허
배우인데
알아도
소민
첨보는데
##렐라
엄마와
ㅜㅡ
##인터
꽃사장
xkwhdVkf
끝장
결혼하는거
악질이네
다쳐
장관
죽으
크크
##정해인
직사각
폐암
들어감
##지않을까요
##고있는거
구린데
더불어
타겟
##봨ㅋㅋㅋ
헤어졌다
도와줘
임팩트
들어가네
같은건가
소유진이
가성비
개실망
왜이러냐
겠네요
러다
못보는
##진수
##맞았
나이팅
##겹살
##됐다고
##하나로
솔직해서
AOA
높네
방금은
않습니다
##nd
옛날부터
수고하셨어요
대학원
최소한
조기종영
참견
are
동요
빠져라
에쵸티
##ㅋㄱㅋ
##타릭
##꽁냥
돌려줘
이효리가
5개월
##은거냐
쓸데없이
기뻐
놈의
##할거같
나가는
##접시
##해보니
생겼음
그떄
넘버
어거지
선택한
##신이야
##잘하지
저러냐
대륙이
설아
작아서
ak
te
##ㅎㄱ
만져
하하는
##만으로
##틀딱
결혼했음
스타도
알던
##PL
얼굴인데
개판이네
cl
찍어라
황당
##어떠
##전엔
##받지
##모르겠네
녹색
추노
많이컸네
뿌려
##전도
##분들은
##아니가
##댈세
어머니가
옥택
##이넹
김소현
절망
졌으면
