[PAD]
[UNK]
[CLS]
[SEP]
[MASK]
[unused0]
[unused1]
[unused2]
[unused3]
[unused4]
[unused5]
[unused6]
[unused7]
[unused8]
[unused9]
[unused10]
[unused11]
[unused12]
[unused13]
[unused14]
[unused15]
[unused16]
[unused17]
[unused18]
[unused19]
[unused20]
[unused21]
[unused22]
[unused23]
[unused24]
[unused25]
[unused26]
[unused27]
[unused28]
[unused29]
[unused30]
[unused31]
[unused32]
[unused33]
[unused34]
[unused35]
[unused36]
[unused37]
[unused38]
[unused39]
[unused40]
[unused41]
[unused42]
[unused43]
[unused44]
[unused45]
[unused46]
[unused47]
[unused48]
[unused49]
[unused50]
[unused51]
[unused52]
[unused53]
[unused54]
[unused55]
[unused56]
[unused57]
[unused58]
[unused59]
[unused60]
[unused61]
[unused62]
[unused63]
[unused64]
[unused65]
[unused66]
[unused67]
[unused68]
[unused69]
[unused70]
[unused71]
[unused72]
[unused73]
[unused74]
[unused75]
[unused76]
[unused77]
[unused78]
[unused79]
[unused80]
[unused81]
[unused82]
[unused83]
[unused84]
[unused85]
[unused86]
[unused87]
[unused88]
[unused89]
[unused90]
[unused91]
[unused92]
[unused93]
[unused94]
[unused95]
[unused96]
[unused97]
[unused98]
[unused99]
[unused100]
[unused101]
[unused102]
[unused103]
[unused104]
[unused105]
[unused106]
[unused107]
[unused108]
[unused109]
[unused110]
[unused111]
[unused112]
[unused113]
[unused114]
[unused115]
[unused116]
[unused117]
[unused118]
[unused119]
[unused120]
[unused121]
[unused122]
[unused123]
[unused124]
[unused125]
[unused126]
[unused127]
[unused128]
[unused129]
[unused130]
[unused131]
[unused132]
[unused133]
[unused134]
[unused135]
[unused136]
[unused137]
[unused138]
[unused139]
[unused140]
[unused141]
[unused142]
[unused143]
[unused144]
[unused145]
[unused146]
[unused147]
[unused148]
[unused149]
[unused150]
[unused151]
[unused152]
[unused153]
[unused154]
[unused155]
[unused156]
[unused157]
[unused158]
[unused159]
[unused160]
[unused161]
[unused162]
[unused163]
[unused164]
[unused165]
[unused166]
[unused167]
[unused168]
[unused169]
[unused170]
[unused171]
[unused172]
[unused173]
[unused174]
[unused175]
[unused176]
[unused177]
[unused178]
[unused179]
[unused180]
[unused181]
[unused182]
[unused183]
[unused184]
[unused185]
[unused186]
[unused187]
[unused188]
[unused189]
[unused190]
[unused191]
[unused192]
[unused193]
[unused194]
[unused195]
[unused196]
[unused197]
[unused198]
[unused199]
[unused200]
[unused201]
[unused202]
[unused203]
[unused204]
[unused205]
[unused206]
[unused207]
[unused208]
[unused209]
[unused210]
[unused211]
[unused212]
[unused213]
[unused214]
[unused215]
[unused216]
[unused217]
[unused218]
[unused219]
[unused220]
[unused221]
[unused222]
[unused223]
[unused224]
[unused225]
[unused226]
[unused227]
[unused228]
[unused229]
[unused230]
[unused231]
[unused232]
[unused233]
[unused234]
[unused235]
[unused236]
[unused237]
[unused238]
[unused239]
[unused240]
[unused241]
[unused242]
[unused243]
[unused244]
[unused245]
[unused246]
[unused247]
[unused248]
[unused249]
[unused250]
[unused251]
[unused252]
[unused253]
[unused254]
[unused255]
[unused256]
[unused257]
[unused258]
[unused259]
[unused260]
[unused261]
[unused262]
[unused263]
[unused264]
[unused265]
[unused266]
[unused267]
[unused268]
[unused269]
[unused270]
[unused271]
[unused272]
[unused273]
[unused274]
[unused275]
[unused276]
[unused277]
[unused278]
[unused279]
[unused280]
[unused281]
[unused282]
[unused283]
[unused284]
[unused285]
[unused286]
[unused287]
[unused288]
[unused289]
[unused290]
[unused291]
[unused292]
[unused293]
[unused294]
[unused295]
[unused296]
[unused297]
[unused298]
[unused299]
!
#
$
%
&
'
(
)
*
+
,
-
.
/
0
1
2
3
4
5
6
7
8
9
:
;
<
=
>
?
@
A
B
C
D
E
F
G
H
I
J
K
L
M
N
O
P
Q
R
S
T
U
V
W
X
Y
Z
[
\
]
^
_
`
a
b
c
d
e
f
g
h
i
j
k
l
m
n
o
p
q
r
s
t
u
v
w
x
y
z
{
|
}
~
´
—
₩
、
。
々
〇
】
〜
〰
〽
あ
い
う
え
お
か
が
き
く
け
こ
ご
さ
ざ
し
す
た
だ
ち
っ
つ
て
で
と
ど
な
に
ね
の
は
ば
ひ
び
ぽ
ま
み
め
も
ゃ
や
ょ
よ
ら
り
る
れ
ろ
わ
ん
゜
イ
ウ
ェ
ガ
キ
ク
ゴ
サ
ザ
ジ
チ
ト
ド
ナ
ニ
ノ
ハ
パ
ビ
ブ
ヘ
ボ
マ
ミ
ム
メ
ャ
ヤ
ョ
ヨ
ラ
リ
ル
レ
ヲ
ン
・
ー
ヽ
ㄱ
ㄲ
ㄳ
ㄴ
ㄵ
ㄶ
ㄷ
ㄸ
ㄹ
ㄺ
ㄻ
ㄼ
ㄽ
ㄾ
ㄿ
ㅀ
ㅁ
ㅂ
ㅃ
ㅄ
ㅅ
ㅆ
ㅇ
ㅈ
ㅉ
ㅊ
ㅋ
ㅌ
ㅍ
ㅎ
ㅏ
ㅐ
ㅑ
ㅒ
ㅓ
ㅔ
ㅕ
ㅖ
ㅗ
ㅘ
ㅙ
ㅚ
ㅛ
ㅜ
ㅝ
ㅞ
ㅟ
ㅠ
ㅡ
ㅢ
ㅣ
㖈
一
三
上
下
不
专
丕
世
丙
丨
中
主
乂
乃
久
之
乙
也
了
予
事
于
五
人
亼
什
仁
仆
今
仔
他
以
们
伊
会
位
体
你
來
信
個
做
傅
傷
像
兇
光
八
关
兵
再
出
刁
分
列
判
利
别
制
前
剑
剧
劇
力
加
动
勁
勃
動
包
化
北
医
十
午
半
卜
卟
厚
去
及
友
収
发
受
古
只
可
司
吃
名
后
吧
告
员
味
呼
和
品
哒
員
哥
哦
啊
問
喜
嗎
嗯
嘛
嘟
回
国
圈
國
土
在
圾
坚
垃
基
堂
复
夜
夠
大
天
太
夷
奇
女
奶
好
如
妈
姐
姦
嫌
嬢
子
孝
安
完
宝
实
家
容
导
寿
小
少
就
展
層
山
岛
己
已
师
師
常
年
幸
幹
开
张
張
强
归
当
彩
待
很
徐
從
心
忍
怎
性
恋
恢
恩
恭
悲
情
想
意
愛
感
慾
我
技
拉
持
播
操
支
放
故
敏
文
新
施
日
早
旭
时
昇
昌
明
是
晚
暝
曜
曰
曲
最
會
月
有
服
望
朝
期
本
朴
李
来
果
根
桓
棒
様
樣
欢
欺
歡
正
死
殺
每
气
気
氷
永
池
沒
没
油
法
泣
注
洩
活
派
海
消
清
湖
滾
漁
演
澯
激
火
热
無
煙
煮
燃
爱
物
特
犬
王
瑛
甜
生
甲
申
男
番
疲
病
發
的
盧
直
看
真
眨
眼
着
短
石
硕
礼
祝
神
禍
福
空
突
竹
笑
米
粉
精
終
給
經
緊
级
组
续
罗
罪
署
美
翻
耀
肉
自
至
致
舍
色
芜
花
苗
英
草
藝
虾
螂
融
蟑
蟲
行
衣
被
要
視
覚
见
言
記
詐
話
誠
誰
請
讣
谁
谢
貞
賊
贊
贺
赞
走
起
超
趣
車
載
迎
近
进
远
迫
送
這
運
達
選
遼
部
都
配
酒
金
钟
開
间
阳
阵
院
離
電
非
面
韓
韩
頑
顺
领
飯
馬
高
魔
鮮
鴿
麼
黄
龙
가
각
갂
간
갇
갈
갉
갋
갍
감
갑
값
갓
갔
강
갖
갗
갘
같
갚
갛
개
객
갞
갠
갡
갤
갬
갭
갮
갯
갰
갱
갲
갴
갵
갶
갷
갸
갹
갼
갽
갿
걀
걈
걉
걋
걌
걍
걐
걑
걔
걘
걜
걨
걩
거
걱
건
걵
걷
걸
걹
걺
걻
걿
검
겁
것
겄
겅
겆
겈
겉
겋
게
겍
겎
겐
겓
겔
겜
겝
겟
겠
겡
겢
겤
겦
겧
겨
격
겪
견
겮
겯
결
겱
겷
겸
겹
겻
겼
경
겾
겿
곀
곁
곃
계
곅
곈
곌
곗
곘
곙
곜
고
곡
곢
곤
곧
골
곩
곪
곯
곰
곱
곲
곳
곴
공
곶
곷
곸
곹
곺
곻
과
곽
관
괁
괃
괄
괌
광
괒
괔
괗
괘
괜
괞
괫
괭
괴
괵
괸
괼
굄
굉
굌
굏
교
굔
굗
굘
굠
굡
굣
굤
굥
굨
구
국
굮
군
굲
굳
굴
굵
굶
굷
굼
굽
굿
궀
궁
궂
궃
궄
궅
궇
궈
궉
권
궐
궘
궛
궜
궝
궤
궨
궹
귀
귁
귄
귇
귈
귐
귑
귓
귔
귕
귗
귘
규
귝
균
귣
귤
귬
귭
귯
귱
귴
귷
그
극
근
귾
귿
글
긁
긂
긇
금
급
긋
긌
긍
긎
긏
긐
긑
긒
긓
긔
긕
긘
긜
긤
긧
긩
긫
기
긱
긲
긴
긶
긷
길
긺
긿
김
깁
깂
깃
깄
깅
깆
깇
깈
깉
깊
깋
까
깍
깎
깐
깑
깒
깔
깖
깜
깝
깞
깟
깠
깡
깢
깣
깤
깥
깦
깨
깩
깪
깬
깰
깸
깹
깻
깼
깽
깾
깿
꺀
꺄
꺅
꺆
꺋
꺌
꺔
꺕
꺗
꺙
꺜
꺠
꺤
꺨
꺰
꺱
꺳
꺴
꺵
꺼
꺽
꺾
껀
껄
껌
껍
껏
껐
껑
껒
껔
껕
껗
께
껙
껚
껜
껨
껫
껬
껭
껲
껴
껸
꼇
꼈
꼉
꼐
꼒
꼠
꼣
꼤
꼬
꼭
꼮
꼰
꼳
꼴
꼵
꼷
꼹
꼻
꼼
꼽
꼿
꽁
꽂
꽃
꽄
꽅
꽆
꽈
꽉
꽊
꽌
꽐
꽝
꽤
꽥
꽦
꽹
꾀
꾐
꾜
꾲
꾳
꾸
꾹
꾺
꾼
꾾
꾿
꿀
꿁
꿂
꿇
꿈
꿉
꿋
꿍
꿎
꿏
꿐
꿑
꿓
꿔
꿕
꿘
꿜
꿤
꿧
꿨
꿩
꿰
꿴
뀀
뀌
뀐
뀔
뀜
뀝
뀠
뀡
뀤
뀨
뀪
뀬
뀰
뀸
뀽
끀
끄
끅
끈
끉
끊
끋
끌
끍
끓
끔
끕
끗
끙
끛
끜
끝
끞
끠
끡
끤
끰
끵
끼
끽
끾
낀
낄
낅
낌
낍
낏
낐
낑
낔
낗
나
낙
낚
낛
난
낝
낞
낟
날
낡
낢
낣
낧
남
납
낪
낫
났
낭
낮
낯
낰
낱
낳
내
낵
낶
낸
낻
낼
냄
냅
냇
냈
냉
냊
냌
냍
냏
냐
냑
냒
냔
냘
냠
냡
냣
냤
냥
냦
냨
냪
냫
냬
냼
넀
넄
너
넉
넋
넌
넎
넏
널
넑
넒
넓
넖
넘
넙
넛
넜
넝
넞
넠
넡
넢
넣
네
넥
넨
넫
넬
넴
넵
넷
넸
넹
넺
넼
넽
넾
넿
녀
녁
년
녅
녆
녇
녈
념
녓
녔
녕
녖
녘
녜
녠
녤
녬
녴
노
녹
논
녿
놀
놂
놈
놉
놋
놌
농
놎
놐
높
놓
놔
놕
놘
놜
놤
놥
놧
놨
놩
놬
놯
놰
놸
뇁
뇌
뇐
뇜
뇤
뇨
뇩
뇬
뇰
뇸
뇽
눀
누
눅
눈
눊
눋
눌
눍
눔
눕
눙
눚
눜
눞
눠
눤
눨
눳
눴
눼
뉍
뉑
뉔
뉘
뉙
뉜
뉨
뉩
뉴
뉵
뉸
뉼
늄
늅
늇
늉
늊
늌
늍
늏
느
늑
늒
는
늕
늗
늘
늙
늚
늛
늜
늟
늠
늡
늣
늤
능
늦
늧
늨
늩
늪
늫
늬
늰
늼
닁
니
닉
닊
닋
닌
닏
닐
님
닙
닛
닜
닝
닞
닟
닠
닡
닢
닣
다
닥
닦
닧
단
닩
닪
닫
달
닭
닮
닯
닰
닲
닳
담
답
닶
닷
닸
당
닺
닼
닽
닾
닿
대
댁
댄
댇
댈
댐
댑
댓
댔
댕
댖
댗
댘
댛
댜
댤
댬
댭
댯
댰
댱
댲
댴
댵
댸
덌
덍
더
덕
덖
던
덙
덛
덜
덝
덞
덟
덢
덤
덥
덧
덨
덩
덪
덫
덬
덮
덯
데
덱
덴
덵
덷
델
덹
뎀
뎁
뎃
뎄
뎅
뎆
뎇
뎈
뎉
뎊
뎋
뎌
뎐
뎓
뎔
뎜
뎟
뎠
뎡
뎤
뎦
뎨
도
독
돈
돋
돌
돔
돕
돗
돘
동
돚
돛
돜
돝
돞
돟
돠
돡
돤
돧
돨
돪
돰
돱
돳
돴
돵
돼
돽
돾
됀
됄
됌
됍
됏
됐
됑
됒
됔
됗
되
된
될
됨
됩
됫
됬
됭
됮
됰
됴
됵
됸
됻
둉
둏
두
둑
둔
둖
둗
둘
둠
둡
둣
둥
둦
둨
둩
둬
둴
둿
뒀
뒁
뒄
뒈
뒙
뒛
뒝
뒠
뒤
뒥
뒨
뒬
뒵
뒷
뒹
뒺
듀
듁
듄
듈
듐
듕
듘
드
득
듟
든
듢
듣
들
듥
듦
듫
듬
듭
듯
등
듲
듳
듴
듵
듷
듸
듼
딀
딋
딍
딎
디
딕
딘
딙
딛
딜
딝
딞
딤
딥
딧
딨
딩
딪
딫
딬
딮
따
딱
딲
딴
딷
딸
딹
딻
땀
땁
땃
땄
땅
땈
땋
때
땍
땐
땔
땜
땟
땠
땡
땤
땨
땩
땬
땰
땻
땽
떄
떅
떆
떈
떋
떌
떔
떗
떘
떙
떜
떠
떡
떢
떣
떤
떧
떨
떫
떰
떱
떳
떴
떵
떷
떸
떻
떼
떽
떾
뗀
뗄
뗌
뗏
뗐
뗑
뗔
뗘
뗫
뗬
뗴
뗵
뗸
뗼
똉
똌
또
똑
똒
똔
똗
똘
똠
똡
똣
똥
똦
똨
똫
똬
똭
똮
똴
뙁
뙇
뙈
뙜
뙤
뙨
뚀
뚁
뚊
뚜
뚝
뚞
뚠
뚣
뚤
뚥
뚧
뚫
뚬
뚭
뚯
뚱
뚴
뚷
뚸
뚹
뛀
뛔
뛰
뛴
뛷
뛸
뜀
뜃
뜅
뜌
뜍
뜛
뜜
뜨
뜩
뜬
뜯
뜰
뜷
뜸
뜹
뜻
뜼
뜽
띀
띁
띄
띅
띈
띔
띕
띙
띠
띡
띢
띤
띨
띰
띱
띳
띵
띺
띻
라
락
띾
란
랁
랂
랃
랄
랆
랈
랋
람
랍
랏
랐
랑
랒
랓
랔
랕
랖
랗
래
랙
랜
랟
랠
램
랩
랫
랬
랭
랮
랰
랲
랳
랴
략
랶
랸
랼
럄
럇
럈
량
럐
럒
럣
럤
럪
러
럭
럮
런
럲
럳
럴
럷
럻
럼
럽
럾
럿
렀
렁
렂
렃
렄
렅
렆
렇
레
렉
렌
렐
렑
렘
렙
렛
렜
렝
렞
렠
려
력
렦
련
렫
렬
렴
렵
렷
렸
령
렺
렼
렿
례
롁
롄
롑
롓
롕
롘
로
록
론
롡
롣
롤
롥
롧
롪
롬
롭
롯
롱
롲
롴
롵
롶
롷
롸
롹
롼
뢀
뢈
뢉
뢋
뢌
뢍
뢔
뢘
뢩
뢰
뢴
뢸
룀
룁
룃
룅
룆
룈
료
룐
룔
룜
룝
룟
룡
룤
루
룩
룪
룬
룯
룰
룸
룹
룻
룽
뤀
뤁
뤂
뤃
뤄
뤈
뤌
뤔
뤕
뤗
뤘
뤙
뤜
뤟
뤠
뤡
뤤
뤱
뤼
뤽
륀
륄
륌
륍
륑
류
륙
륜
률
륨
륩
륫
륭
륰
르
륵
륶
른
륹
륻
를
륽
륾
릃
름
릅
릇
릉
릌
릍
릎
릏
릐
릑
릔
릘
릡
릥
리
릭
릯
린
릳
릴
릶
릹
림
립
릿
맀
링
맂
맃
맄
맅
맆
맇
마
막
맊
맋
만
맍
많
맏
말
맑
맒
맔
맕
맖
맗
맘
맙
맚
맛
맜
망
맞
맟
맠
맡
맢
맣
매
맥
맨
맪
맫
맬
맴
맵
맷
맸
맹
맺
맻
맼
맽
먀
먁
먄
먆
먈
먐
먕
먖
먘
먚
먜
머
먹
먺
먻
먼
먽
먾
먿
멀
멅
멈
멉
멊
멋
멌
멍
멎
멏
멐
멒
멓
메
멕
멘
멜
멤
멥
멧
멨
멩
멫
멬
며
멱
멲
면
멶
멷
멸
멺
멻
몀
몁
몃
몄
명
몆
몇
몈
몋
몌
몐
몟
몣
모
목
몫
몬
몯
몰
몸
몹
못
몼
몽
몾
몿
뫀
뫁
뫃
뫄
뫅
뫈
뫌
뫔
뫙
뫚
뫠
뫨
뫳
뫼
묄
묏
묘
묜
묠
묨
묫
묭
무
묵
묶
묷
문
묹
묻
물
묽
뭀
뭃
뭄
뭅
뭇
뭈
뭉
뭊
뭋
뭌
뭍
뭏
뭐
뭑
뭔
뭘
뭞
뭠
뭡
뭣
뭤
뭥
뭦
뭨
뭩
뭫
뭬
뭰
뭴
뮈
뮉
뮋
뮌
뮍
뮐
뮛
뮜
뮝
뮤
뮦
뮨
뮫
뮬
뮴
뮵
뮷
뮹
뮻
므
믁
믄
믇
믈
믐
믑
믓
믕
믖
믘
믜
믝
믣
믯
미
믹
믺
민
믽
믾
믿
밀
밁
밂
밃
밈
밉
밋
밌
밍
밎
및
밐
밑
밒
밓
바
박
밖
밗
반
밚
받
발
밝
밞
밟
밡
밢
밣
밤
밥
밧
밨
방
밪
밫
밬
밭
밮
밯
배
백
밲
밴
밷
밸
밿
뱀
뱁
뱃
뱄
뱅
뱆
뱈
뱉
뱌
뱍
뱐
뱔
뱜
뱝
뱡
뱨
뱩
버
벅
벆
번
벊
벋
벌
벍
벎
벐
범
법
벖
벗
벘
벙
벚
벛
벜
벝
벞
벟
베
벡
벢
벣
벤
벧
벨
벰
벱
벳
벴
벵
벶
벸
벹
벻
벼
벽
벾
변
볁
별
볌
볍
볏
볐
병
볒
볔
볕
볗
볘
볠
볭
보
복
볶
본
볹
볻
볼
볾
봄
봅
봆
봇
봈
봉
봊
봌
봍
봎
봏
봐
봑
봒
봔
봗
봘
봙
봟
봣
봤
봥
봦
봨
봪
봫
봬
봭
봵
봽
뵀
뵁
뵈
뵉
뵌
뵐
뵘
뵙
뵛
뵜
뵤
뵥
뵨
뵬
뵴
뵹
부
북
분
붅
붇
불
붉
붊
붋
붌
붎
붏
붐
붑
붓
붔
붕
붖
붘
붙
붚
붜
붠
붤
붵
붸
붹
붼
뷀
뷁
뷃
뷄
뷍
뷐
뷔
뷕
뷘
뷜
뷩
뷰
뷱
뷴
뷷
뷸
븀
븃
븅
븈
븉
븋
브
븍
븐
븓
블
븕
븜
븝
븟
븡
븢
븣
븤
븥
븧
븨
븰
븹
비
빅
빈
빋
빌
빎
빏
빐
빔
빕
빗
빘
빙
빚
빛
빜
빝
빞
빠
빡
빢
빣
빤
빧
빨
빩
빭
빯
빰
빱
빳
빴
빵
빶
빷
빸
빻
빼
빽
뺀
뺃
뺄
뺌
뺍
뺏
뺐
뺑
뺒
뺕
뺗
뺘
뺙
뺠
뺨
뺩
뺴
뺵
뺸
뺻
뺼
뻄
뻇
뻈
뻉
뻐
뻑
뻒
뻔
뻗
뻘
뻠
뻡
뻣
뻤
뻥
뻦
뻨
뻫
뻬
뻭
뻰
뼁
뼈
뼉
뼊
뼏
뼘
뼛
뼝
뼤
뼨
뽀
뽁
뽂
뽄
뽇
뽈
뽐
뽑
뽕
뽘
뽚
뽜
뽝
뽠
뽤
뽬
뽭
뽯
뽱
뽷
뾰
뾱
뿁
뿅
뿌
뿍
뿐
뿓
뿔
뿕
뿛
뿜
뿝
뿟
뿠
뿡
뿤
뿨
뿩
뿰
뿽
쀄
쀅
쀍
쀙
쀠
쀨
쀵
쀼
쁀
쁄
쁌
쁍
쁑
쁘
쁙
쁜
쁟
쁠
쁨
쁩
쁫
쁭
쁮
쁴
삐
삑
삓
삔
삘
삠
삡
삣
삥
삦
삪
사
삭
삯
산
삲
삳
살
삵
삶
삻
삼
삽
삿
샀
상
샂
샃
샄
샅
샆
샇
새
색
샊
샋
샌
샏
샐
샘
샙
샛
샜
생
샞
샠
샡
샣
샤
샥
샨
샬
샴
샵
샷
샸
샹
샼
샾
섀
섁
섔
섕
섘
서
석
섞
섟
선
섣
설
섥
섫
섬
섭
섮
섯
섰
성
섲
섴
섵
섶
섷
세
섹
섺
섻
센
섿
셀
셈
셉
셋
셌
셍
셎
셐
셑
셒
셓
셔
셕
션
셜
셤
셥
셧
셨
셩
셬
셯
셰
셱
셴
셸
솁
솃
솄
솅
솈
솊
소
속
솎
손
솑
솒
솓
솔
솜
솝
솟
송
솢
솤
솥
솦
솧
솨
솩
솬
솰
솸
솻
솼
쇄
쇅
쇈
쇙
쇜
쇠
쇡
쇤
쇳
쇵
쇸
쇺
쇼
쇽
쇿
숀
숃
숄
숍
숏
숑
숓
숔
숕
숖
수
숙
숛
순
숟
술
숡
숧
숨
숩
숫
숭
숮
숯
숰
숱
숲
숳
숴
숸
숼
쉅
쉇
쉈
쉉
쉌
쉐
쉑
쉔
쉗
쉘
쉡
쉣
쉥
쉨
쉪
쉬
쉭
쉰
쉴
쉺
쉻
쉼
쉽
쉾
쉿
슀
슁
슂
슄
슅
슆
슈
슉
슌
슏
슐
슘
슙
슛
슝
슟
슠
슡
스
슥
슦
슨
슫
슬
슭
슲
슴
습
슷
승
슺
슻
슼
슽
슾
슿
싀
싁
싄
싇
싈
싑
싓
시
식
싞
신
싡
싢
싣
실
싥
싦
싨
싪
싫
심
십
싮
싯
싰
싱
싲
싳
싴
싵
싶
싷
싸
싹
싺
싼
싾
싿
쌀
쌂
쌈
쌉
쌋
쌌
쌍
쌏
쌐
쌓
쌔
쌕
쌘
쌜
쌤
쌥
쌧
쌨
쌩
쌬
쌰
쌴
썀
썁
썄
썅
썋
썌
썍
썎
썐
썔
썜
썟
썡
썤
써
썩
썪
썬
썰
썸
썹
썻
썼
썽
쎀
쎄
쎅
쎆
쎈
쎋
쎌
쎔
쎕
쎗
쎘
쎙
쎠
쎤
쎨
쎳
쎴
쎵
쎼
쎾
쎿
쏀
쏄
쏌
쏍
쏏
쏑
쏘
쏙
쏚
쏜
쏟
쏠
쏨
쏩
쏫
쏬
쏭
쏱
쏳
쏴
쏵
쏸
쏼
쐇
쐈
쐉
쐋
쐌
쐏
쐐
쐣
쐬
쐿
쑈
쑉
쑌
쑛
쑝
쑤
쑥
쑦
쑨
쑬
쑴
쑹
쑻
쒀
쒑
쒓
쒔
쒕
쒘
쒜
쒯
쒱
쒵
쒸
쒹
쒼
쓉
쓋
쓐
쓑
쓒
쓔
쓕
쓩
쓰
쓱
쓲
쓴
쓸
쓹
씀
씁
씃
씅
씆
씈
씉
씌
씐
씓
씝
씟
씡
씤
씥
씧
씨
씩
씪
씬
씯
씰
씸
씹
씻
씼
씽
씾
앀
앁
앂
아
악
앆
앇
안
앉
않
앋
알
앍
앎
앏
앓
암
압
앖
앗
았
앙
앚
앛
앜
앝
앞
앟
애
액
앤
앦
앧
앨
앩
앰
앱
앳
앴
앵
앶
앸
앹
앺
앻
야
약
얀
얂
얃
얄
얅
얇
얌
얍
얎
얏
얐
양
얒
얔
얕
얖
얗
얘
얙
얚
얜
얠
얨
얩
얫
얬
얭
어
억
얶
얷
언
얹
얺
얻
얼
얽
얾
엀
엃
엄
업
없
엇
었
엉
엊
엋
엌
엍
엎
엏
에
엑
엒
엔
엕
엗
엘
엙
엠
엡
엣
엤
엥
엦
엨
엩
엪
엫
여
역
엮
엯
연
엲
엳
열
엸
엻
염
엽
엾
엿
였
영
옂
옃
옄
옅
옆
옇
예
옉
옌
옏
옐
옘
옙
옛
옜
옝
옞
옠
옢
옣
오
옥
옦
온
옩
옫
올
옭
옮
옲
옳
옴
옵
옶
옷
옸
옹
옺
옻
옼
옽
옾
옿
와
왁
왂
왃
완
왇
왈
왉
왐
왑
왓
왔
왕
왖
왗
왘
왙
왚
왛
왜
왝
왞
왠
왤
왭
왱
왴
왶
외
왹
왼
욀
욋
욌
욍
욐
요
욕
욖
욘
욛
욜
욝
욤
욥
욧
욨
용
욪
욫
욬
욭
욮
욯
우
욱
욲
욳
운
욵
욷
울
욹
욺
욽
욿
움
웁
웂
웃
웄
웅
웆
웈
웉
웊
웋
워
웍
웎
원
웑
웓
월
웕
웜
웝
웞
웟
웠
웡
웤
웦
웧
웨
웩
웪
웫
웬
웰
웱
웸
웹
웻
웽
윀
윁
윂
윃
위
윅
윆
윈
윋
윌
윔
윕
윗
윘
윙
윜
윝
윟
유
육
윢
윤
윥
율
윰
윱
윳
융
윶
윷
윸
윹
윺
윻
으
윽
윾
윿
은
읁
읃
을
읅
읆
읈
읉
읊
읋
음
읍
읎
읏
읐
응
읒
읓
읔
읕
읖
읗
의
읙
읜
읠
읨
읫
읭
읮
읰
이
익
읶
읷
인
읹
읺
읻
일
읽
읿
잀
잁
잂
잃
임
입
잆
잇
있
잉
잊
잋
잌
잍
잎
잏
자
작
잒
잔
잖
잗
잘
잚
잛
잜
잟
잠
잡
잣
잤
장
잦
잧
잨
잩
잪
잫
재
잭
잯
잰
잲
잳
잴
잼
잽
잿
쟀
쟁
쟂
쟃
쟄
쟆
쟈
쟉
쟌
쟍
쟎
쟐
쟘
쟙
쟛
쟜
쟝
쟞
쟠
쟤
쟥
쟨
쟬
쟴
쟼
저
적
젃
전
젅
젆
젇
절
젊
젋
젏
점
접
젓
젔
정
젖
젘
젙
젚
젛
제
젝
젠
젡
젣
젤
젬
젭
젯
젰
젱
젲
젴
젵
젷
져
젹
젺
젼
젾
젿
졀
졁
졈
졉
졋
졌
졍
졎
졏
졐
졑
졓
졔
졘
졜
조
족
졲
졳
존
졵
졷
졸
졻
졽
졿
좀
좁
좂
좃
종
좆
좇
좈
좉
좊
좋
좌
좍
좐
좓
좔
좜
좝
좟
좠
좡
좢
좤
좨
좸
좽
죃
죄
죈
죔
죕
죗
죘
죙
죜
죠
죡
죢
죤
죧
죨
죯
죰
죱
죳
죴
죵
죶
죷
죸
죹
죺
죻
주
죽
준
줃
줄
줉
줋
줌
줍
줏
줐
중
줒
줓
줔
줕
줗
줘
줙
줜
줝
줟
줠
줡
줨
줫
줬
줭
줮
줰
줱
줳
줴
줵
줸
쥄
쥇
쥍
쥐
쥑
쥔
쥘
쥠
쥣
쥤
쥥
쥦
쥨
쥪
쥬
쥭
쥰
쥱
쥴
쥼
쥽
쥿
즁
즂
즆
즈
즉
즌
즍
즎
즏
즐
즔
즘
즙
즛
증
즞
즠
즣
즤
즥
즨
즬
즵
즹
지
직
짂
짃
진
짅
짆
짇
질
짊
짐
집
짒
짓
짔
징
짖
짗
짘
짙
짚
짛
짜
짝
짞
짟
짠
짢
짣
짤
짦
짧
짪
짬
짭
짯
짰
짱
짲
짳
짴
짶
째
짹
짼
쨀
쨈
쨉
쨋
쨌
쨍
쨎
쨐
쨓
쨔
쨕
쨘
쨜
쨟
쨤
쨥
쨧
쨨
쨩
쨰
쨱
쨲
쨴
쩀
쩁
쩃
쩄
쩅
쩌
쩍
쩎
쩐
쩓
쩔
쩖
쩜
쩝
쩟
쩠
쩡
쩣
쩦
쩧
쩨
쩩
쩰
쪄
쪅
쪈
쪌
쪔
쪕
쪗
쪘
쪙
쪠
쪴
쪼
쪽
쪾
쫀
쫃
쫄
쫌
쫍
쫏
쫑
쫒
쫓
쫗
쫘
쫙
쫜
쫨
쫩
쫭
쫵
쬐
쬑
쬠
쬬
쬭
쬲
쭁
쭈
쭉
쭌
쭐
쭘
쭙
쭛
쭝
쭤
쭬
쭵
쮀
쮁
쮓
쮜
쮠
쮱
쮸
쮹
쯀
쯉
쯍
쯔
쯕
쯘
쯜
쯤
쯥
쯧
쯨
쯩
쯪
쯫
쯰
찁
찌
찍
찎
찐
찓
찔
찜
찝
찟
찠
찡
찢
찣
찤
찧
차
착
찬
찮
찯
찰
찳
찷
참
찹
찻
찼
창
찾
찿
챀
챂
채
책
챈
챌
챔
챕
챗
챘
챙
챝
챟
챠
챡
챤
챦
챨
챱
챳
챴
챵
챶
챸
첐
처
척
첚
천
첞
철
첥
첧
첨
첩
첫
첬
청
첮
첰
첳
체
첵
첸
첼
쳄
쳅
쳇
쳉
쳋
쳌
쳍
쳐
쳑
쳒
쳔
쳘
쳠
쳣
쳤
쳥
쳨
쳬
쳰
촀
초
촉
촋
촌
촏
촐
촘
촙
촛
총
촞
촟
촠
촣
촤
촥
촨
촬
촴
촵
촹
촺
쵀
쵁
쵐
최
쵝
쵠
쵤
쵬
쵯
쵱
쵲
쵴
쵸
쵹
쵼
춀
춉
춋
춌
춍
춎
춐
추
축
춖
춘
춚
춛
출
춝
춣
춤
춥
춧
충
춫
춬
춯
춰
춱
춴
춸
췃
췄
췅
췈
췋
췌
췍
췐
췟
췡
췤
취
췩
췬
췯
췰
췸
췽
츀
츄
츅
츈
츌
츑
츔
츕
츗
츙
츜
츠
측
츤
츨
츩
츰
츱
츳
츴
층
츶
츷
츸
츼
츽
칀
칌
칑
칔
치
칙
친
칝
칞
칟
칠
칡
칣
침
칩
칫
칬
칭
칮
칯
칰
칱
칲
칳
카
칵
칸
칻
칼
캃
캄
캅
캇
캈
캉
캊
캌
캍
캎
캏
캐
캑
캔
캗
캘
캠
캡
캣
캤
캥
캨
캬
캭
캳
캽
캿
컁
컄
컆
커
컥
컧
컨
컫
컬
컴
컵
컷
컸
컹
컻
컼
컽
컾
컿
케
켁
켄
켈
켐
켑
켓
켔
켕
켘
켙
켜
켝
켠
켤
켬
켭
켯
켰
켱
켴
켵
켸
코
콕
콘
콛
콜
콤
콥
콧
콩
콫
콬
콭
콮
콯
콰
콱
콴
콷
콸
쾅
쾈
쾌
쾍
쾐
쾡
쾤
쾧
쾨
쾽
쿄
쿌
쿔
쿗
쿜
쿝
쿠
쿡
쿤
쿧
쿨
쿰
쿱
쿳
쿵
쿸
쿺
쿻
쿼
퀀
퀄
퀏
퀔
퀘
퀙
퀜
퀭
퀰
퀴
퀵
퀷
퀸
퀼
큄
큅
큇
큉
큐
큑
큔
큗
큘
큡
큥
큨
큩
큪
크
큭
큰
큱
큲
큳
클
큼
큽
큿
킁
킂
킄
킅
킈
킌
킙
키
킥
킨
킫
킬
킭
킰
킲
킴
킵
킷
킹
킼
킽
킾
킿
타
탁
탂
탄
탆
탇
탈
탉
탏
탐
탑
탓
탔
탕
탖
탘
탙
탚
탛
태
택
탞
탠
탣
탤
탬
탭
탯
탰
탱
탲
탴
탵
탶
탸
탹
탿
턀
턉
턌
턍
턔
턩
터
턱
턴
털
텀
텁
텂
텃
텄
텅
텆
텈
텉
텊
텋
테
텍
텐
텑
텔
템
텝
텟
텡
텢
텣
텤
텥
텨
텬
텻
텼
텽
텾
톄
토
톡
톤
톨
톰
톱
톳
통
톸
톻
톼
퇄
퇌
퇘
퇫
퇭
퇴
퇵
퇸
퇼
툇
툌
툐
툣
툤
툥
투
툭
툰
툴
툼
툽
툿
퉁
퉂
퉃
퉄
퉅
퉆
퉈
퉌
퉛
퉜
퉤
퉥
퉵
퉷
퉸
퉼
튀
튁
튄
튈
튐
튓
튕
튖
튘
튜
튠
튤
튬
튭
튱
튵
트
특
튼
튽
튿
틀
틁
틇
틈
틉
틊
틋
틍
틎
틐
틑
틒
틓
틔
틜
틩
티
틱
틴
틷
틸
틿
팀
팁
팃
팄
팅
팈
팉
팊
파
팍
팎
팏
판
팓
팔
팕
팜
팝
팟
팠
팡
팢
팤
팥
팦
팧
패
팩
팬
팯
팰
팸
팹
팻
팼
팽
팾
퍀
퍄
퍈
퍌
퍙
퍞
퍠
퍼
퍽
펀
펄
펌
펍
펏
펐
펑
펔
펖
페
펙
펜
펟
펠
펨
펩
펫
펭
펰
펴
편
펹
펺
펼
폄
폇
폈
평
폌
폎
폐
폔
폣
폨
포
폭
폰
폳
폴
폼
폽
폿
퐁
퐂
퐄
퐇
퐈
퐉
퐌
퐐
퐘
퐙
퐛
퐝
퐠
퐤
푀
표
푝
푠
푭
푯
푱
푲
푴
푸
푹
푼
풀
풇
품
풉
풋
풍
풎
풐
풒
풓
풔
풕
풜
풰
풱
풴
퓌
퓔
퓡
퓨
퓩
퓰
퓸
퓽
퓿
픂
프
픅
픈
픋
플
픍
픏
픒
픓
픔
픕
픗
픙
픚
픜
픞
픟
픠
픨
픵
피
픽
핀
필
핈
핉
핌
핍
핏
핑
핓
핔
핕
핗
하
학
핚
핛
한
핝
핞
핟
할
핡
핢
핣
핤
핥
핧
함
합
핫
핬
항
핮
핰
핱
핲
핳
해
핵
핶
핸
핺
핻
핼
핽
햄
햅
햇
했
행
햊
햌
햍
햎
햏
햐
햑
햔
햘
햙
햛
햝
햠
햣
햤
향
햨
햫
햬
햰
햲
햿
헀
헁
허
헉
헊
헋
헌
헏
헐
헑
헗
험
헙
헛
헜
헝
헞
헠
헡
헣
헤
헥
헨
헫
헬
헯
헲
헴
헵
헷
헸
헹
헼
헾
헿
혀
혁
현
혈
혐
협
혓
혔
형
혘
혙
혛
혜
혠
혤
혬
혰
혲
호
혹
혼
혽
혾
혿
홀
홁
홂
홄
홇
홈
홉
홋
홍
홎
홐
홒
홓
화
확
홗
환
홚
홛
활
홤
홥
홧
황
홬
홰
홱
홴
횃
횅
횆
회
획
횏
횐
횓
횔
횝
횟
횡
횢
횤
횥
효
횩
횬
횰
횸
횻
횽
훀
훃
후
훅
훇
훈
훉
훋
훌
훍
훑
훓
훔
훕
훗
훙
훚
훛
훜
훟
훠
훡
훤
훨
훯
훵
훻
훼
휀
휄
휏
휑
휘
휙
휜
휠
휨
휩
휫
휭
휴
휵
휸
휼
흅
흇
흉
흌
흎
흏
흐
흑
흒
흔
흗
흘
흙
흠
흡
흣
흥
흦
흨
흩
흫
희
흰
흴
흼
흿
힁
힇
히
힉
힋
힌
힏
힐
힒
힗
힘
힙
힛
힝
힞
힠
힢
힣
##배
##됨
##도
##고
##간
##놈
##이
##는
##없
##음
##세
##쩡
##만
##능
##걸
##라
##잘
##할
##였
##네
##시
##몸
##뚱
##아
##리
##언
##플
##인
##가
##버
##테
##혀
##놓
##켰
##더
##니
##다
##애
##디
##랑
##차
##름
##길
##있
##던
##거
##로
##무
##쁜
##들
##과
##ㅋ
##천
##불
##나
##두
##넘
##쨈
##체
##정
##준
##영
##의
##매
##력
##뭐
##야
##ㅌ
##사
##퇴
##해
##발
##안
##오
##팡
##형
##광
##입
##건
##황
##대
##님
##모
##를
##하
##했
##페
##미
##잇
##싹
##긴
##잼
##썻
##눈
##어
##보
##여
##ㅠ
##꺼
##신
##줄
##알
##겠
##자
##검
##머
##외
##방
##흥
##국
##좀
##호
##전
##지
##손
##기
##봄
##씨
##밌
##바
##데
##섰
##을
##듯
##희
##행
##셀
##블
##드
##별
##요
##식
##삐
##겼
##슴
##에
##선
##땡
##먹
##살
##앉
##박
##되
##상
##최
##탄
##은
##클
##스
##르
##억
##구
##맠
##동
##민
##초
##승
##철
##늘
##서
##편
##히
##쉬
##못
##한
##꿈
##그
##곳
##루
##좋
##닌
##권
##익
##위
##심
##끌
##성
##공
##겟
##냐
##글
##댓
##확
##욱
##수
##러
##운
##얼
##굴
##일
##부
##려
##렇
##게
##랬
##랫
##톡
##균
##목
##소
##끗
##었
##궁
##너
##웃
##났
##군
##왜
##찾
##설
##렌
##금
##갔
##2
##0
##패
##치
##싶
##런
##우
##린
##진
##죠
##마
##양
##트
##생
##각
##올
##류
##재
##맞
##연
##습
##절
##혈
##처
##럼
##키
##징
##았
##장
##럿
##람
##끼
##T
##까
##쟨
##륙
##말
##빨
##응
##같
##제
##얘
##D
##M
##많
##내
##축
##ㄷ
##ㄴ
##ㅈ
##ㄱ
##ㅇ
##티
##휴
##주
##멋
##담
##피
##임
##1
##된
##릴
##깨
##늙
##P
##얇
##예
##림
##훨
##밍
##왔
##져
##경
##강
##ㄵ
##면
##카
##냥
##활
##평
##타
##즈
##ㅏ
##슬
##퍼
##줘
##뻐
##ㅜ
##분
##늬
##팅
##격
##범
##남
##감
##깜
##빡
##래
##챗
##질
##통
##용
##템
##킬
##포
##결
##솔
##친
##ㅂ
##몰
##랐
##개
##꿀
##짬
##봐
##덧
##명
##뺴
##벼
##워
##조
##돌
##근
##본
##셨
##잖
##관
##갑
##와
##줌
##쁠
##깝
##단
##3
##졸
##맛
##y
##p
##계
##약
##유
##적
##회
##산
##벗
##핑
##파
##속
##김
##종
##빼
##딱
##련
##졌
##겄
##닝
##됐
##든
##혼
##귀
##땜
##엔
##ㅡ
##작
##K
##Y
##캐
##O
##E
##L
##뭔
##써
##원
##o
##e
##s
##n
##빠
##른
##창
##잡
##벌
##쩍
##록
##현
##짜
##쁘
##죽
##노
##환
##집
##며
##망
##옥
##태
##즙
##필
##볼
##효
##화
##짐
##으
##렁
##멍
##변
##ㄹ
##풍
##년
##터
##복
##됩
##럴
##것
##팔
##프
##둥
##번
##럽
##녀
##직
##읽
##탐
##좌
##씬
##믿
##찡
##놀
##특
##험
##령
##찍
##삼
##릭
##ㅕ
##또
##엘
##케
##벨
##왕
##문
##훈
##크
##탑
##착
##땐
##닥
##않
##튼
##찌
##표
##쓰
##레
##늠
##펑
##급
##탈
##저
##송
##비
##빕
##쁨
##엿
##릅
##먼
##쥬
##실
##따
##픽
##낮
##병
##넣
##추
##넌
##쟁
##냉
##롤
##싸
##중
##탕
##캔
##물
##흐
##쳤
##역
##골
##함
##혁
##겹
##렛
##즌
##4
##션
##젤
##쌈
##밖
##갈
##돼
##콩
##육
##달
##날
##뢴
##겻
##9
##째
##쌍
##괸
##찮
##당
##열
##탓
##느
##곱
##누
##킨
##겨
##팬
##긔
##료
##존
##셈
##걍
##힐
##텐
##냄
##새
##렴
##떡
##락
##쎄
##브
##욕
##쩔
##뻤
##쳐
##접
##뻘
##싫
##왤
##백
##ㅣ
##울
##랜
##때
##햇
##꼴
##빈
##낫
##뉴
##벅
##ㅎ
##l
##f
##g
##i
##k
##렸
##짭
##씀
##뱀
##힘
##떠
##힙
##합
##귈
##토
##판
##빙
##핵
##7
##숙
##윤
##허
##란
##붓
##코
##엄
##청
##후
##셔
##뜻
##칭
##ㅉ
##눔
##a
##R
##참
##택
##퀴
##맵
##술
##ㅁ
##쟤
##m
##b
##걱
##립
##낭
##빚
##액
##ㅗ
##헌
##촬
##쥐
##앞
##믹
##움
##등
##힗
##업
##잉
##먄
##폭
##삭
##쌔
##퐁
##램
##폐
##뎈
##v
##항
##석
##앜
##긁
##썼
##북
##빽
##뛰
##쪼
##향
##점
##꼭
##꼈
##앗
##랄
##놔
##엽
##끊
##섭
##킹
##십
##틀
##룡
##론
##몬
##넹
##뎇
##메
##쉐
##ㅔ
##엣
##꾼
##큼
##젠
##암
##돈
##넴
##짝
##취
##끝
##즐
##겁
##밥
##쌘
##G
##례
##껄
##덮
##갚
##률
##ㄲ
##ㅊ
##큰
##z
##t
##슝
##봇
##척
##족
##겅
##쉴
##밑
##셋
##빌
##캡
##ㅅ
##압
##뽑
##댕
##멀
##폴
##h
##r
##U
##A
##B
##C
##멸
##딩
##녜
##칠
##띠
##즘
##죄
##뷔
##몇
##뵀
##납
##봅
##투
##협
##량
##깔
##쇼
##뉘
##학
##츠
##팠
##잔
##꼬
##될
##5
##u
##커
##난
##댐
##톨
##닞
##겜
##끔
##닮
##짱
##덴
##큘
##퀘
##베
##풀
##웜
##냔
##짓
##툴
##ㅓ
##떻
##8
##튀
##뜰
##충
##칼
##옵
##빵
##증
##잦
##툰
##괴
##채
##널
##썩
##렷
##갓
##빅
##뱅
##온
##답
##W
##홍
##S
##깽
##녁
##뿌
##링
##삽
##닷
##받
##넼
##색
##출
##쏘
##윗
##굿
##혜
##교
##봤
##튜
##듬
##궜
##뜬
##욀
##순
##왠
##얜
##뿅
##빤
##엇
##엌
##렙
##켓
##센
##엎
##6
##냈
##옹
##므
##슷
##됬
##뽀
##묵
##딴
##탔
##됫
##렬
##궈
##똑
##월
##완
##N
##랍
##떨
##낼
##섹
##찔
##털
##뱃
##옷
##빛
##떰
##딸
##맨
##막
##줬
##c
##쏙
##탴
##꿔
##콧
##흡
##풋
##끄
##웠
##찬
##규
##쩌
##떄
##앙
##ㅆ
##j
##잧
##짤
##ㄸ
##텔
##횐
##텨
##x
##벤
##꼐
##봉
##킴
##랏
##닐
##침
##턱
##께
##w
##핀
##갯
##딜
##죸
##욥
##틱
##낀
##쿱
##덕
##걀
##컨
##밀
##뭉
##엤
##챔
##쓸
##독
##켄
##젓
##쿵
##반
##롬
##갖
##컷
##븐
##찐
##깐
##맥
##캠
##끈
##컴
##콤
##극
##헤
##값
##낌
##델
##탁
##꾸
##뇨
##똘
##쩐
##몄
##폰
##웰
##뻔
##씌
##쌤
##볶
##곀
##괜
##룹
##엮
##텀
##맡
##밝
##샄
##첨
##턴
##펀
##듄
##츄
##쉔
##둘
##득
##악
##섯
##흑
##콘
##똥
##쌌
##견
##뀨
##엑
##흘
##쿠
##쪗
##낳
##넛
##닉
##농
##뜯
##풉
##껴
##픈
##쯕
##펠
##춘
##쐈
##첸
##졋
##뚜
##뇬
##팀
##윽
##봣
##맘
##홧
##켈
##밟
##곡
##멈
##법
##꽃
##묶
##킷
##씩
##컽
##늦
##귓
##쾅
##앨
##쑥
##쪽
##룰
##젊
##뿔
##싼
##ㅛ
##놧
##슈
##X
##틴
##J
##탱
##푸
##꼽
##띵
##귄
##숀
##붙
##혔
##뇌
##옴
##띄
##껒
##틐
##품
##쫀
##밴
##뿜
##뽕
##녕
##뷰
##H
##녔
##켜
##춤
##멎
##긑
##엠
##슨
##푼
##콜
##킵
##Q
##꺳
##뒤
##뎌
##랭
##팥
##릇
##칙
##책
##쌉
##뺐
##쫑
##잃
##혹
##샘
##냅
##뜨
##샌
##F
##촣
##솥
##줫
##엏
##뜸
##츶
##뭘
##총
##뎁
##낙
##겧
##씹
##d
##흔
##쓱
##넙
##릎
##켔
##랴
##ㅑ
##좆
##릿
##윅
##슥
##솜
##볔
##걌
##셧
##켬
##닙
##듣
##ㅍ
##곤
##핏
##뎅
##덜
##닿
##씐
##뿐
##롭
##겆
##쉽
##겐
##샤
##칫
##뿡
##깊
##쾌
##랖
##돟
##댭
##숰
##흉
##삶
##퓨
##넨
##멘
##벙
##텄
##잊
##둔
##홀
##넓
##갤
##댜
##짞
##뭄
##V
##논
##굳
##힌
##슛
##걔
##닫
##훅
##ㅐ
##렐
##좔
##뇸
##챤
##팩
##긍
##햌
##룩
##륵
##걷
##퀄
##숨
##곧
##떳
##숭
##윙
##셰
##낸
##맙
##찢
##흫
##긋
##콥
##렉
##앀
##맴
##쿜
##맑
##높
##퀸
##믄
##쿨
##둬
##컬
##헙
##뎀
##탬
##돜
##덱
##롱
##덤
##앤
##멤
##몽
##닦
##댁
##좁
##염
##혐
##넷
##댘
##꽤
##쫌
##젝
##텼
##팝
##톼
##폿
##랙
##굶
##뚝
##쟌
##뀌
##쩜
##럭
##옆
##욬
##줍
##섬
##웅
##헛
##딘
##칮
##쳒
##왁
##깡
##략
##찰
##쓴
##펙
##첩
##샷
##뭣
##쨩
##컵
##랰
##훌
##륭
##꼰
##엉
##륜
##웡
##슼
##떤
##떽
##웨
##뒷
##곰
##뎃
##켴
##땍
##얔
##뻥
##떼
##벽
##왓
##뮤
##찜
##쒀
##듀
##춰
##꿰
##찼
##샀
##쒸
##갱
##잤
##챙
##밤
##객
##꽂
##눠
##휘
##꿇
##념
##둡
##옛
##읶
##젖
##땅
##밧
##쇄
##앴
##톱
##웬
##펜
##돋
##맹
##밋
##횰
##앟
##쭈
##왑
##쯔
##뻡
##ㅃ
##샐
##짧
##꽁
##넋
##앵
##헴
##얻
##텍
##좃
##섁
##율
##닠
##잌
##쟈
##줏
##벳
##냡
##쫒
##닛
##Z
##옳
##헐
##촌
##캣
##갠
##뚫
##쿼
##칩
##꺄
##쿤
##칵
##렘
##꽈
##퇘
##릉
##찝
##롯
##잠
##멧
##읍
##쟎
##햐
##햄
##넥
##층
##돠
##훙
##q
##닼
##뺑
##쭉
##넫
##굽
##늣
##싱
##몹
##뺏
##뀠
##펄
##밸
##컸
##텤
##홓
##룬
##딙
##얀
##겎
##왘
##쳣
##봫
##짠
##껏
##첫
##즤
##쿡
##줭
##츕
##웟
##눕
##욤
##쯧
##껑
##흠
##씰
##I
##틸
##짖
##쵸
##듴
##댈
##획
##눌
##팟
##댄
##빰
##잭
##셉
##쥰
##췌
##깬
##놨
##쥑
##롣
##댔
##톤
##촉
##떙
##튭
##욘
##썰
##욧
##떈
##ㅘ
##캏
##핰
##쨔
##쟝
##묻
##옮
##뒹
##뜀
##갬
##튐
##웹
##씻
##뺀
##빴
##댑
##얍
##셍
##갵
##폼
##껀
##밈
##얌
##챘
##쩖
##벡
##맄
##둑
##졎
##텝
##측
##뤄
##뺌
##튬
##윈
##쨋
##혘
##깠
##핫
##굼
##씅
##틈
##넠
##즁
##낚
##줜
##샸
##쑤
##푠
##숲
##덩
##뺄
##곽
##힝
##옌
##싯
##핸
##앰
##렀
##랩
##숫
##껌
##쫄
##뵈
##괄
##멜
##믾
##홈
##렄
##겈
##쎴
##쌋
##큐
##킄
##뾰
##썹
##챌
##팽
##쩨
##떴
##잰
##쯤
##읏
##핳
##넬
##퉁
##눅
##캅
##붕
##깄
##삿
##킫
##뤠
##깼
##쁩
##퍠
##썌
##돔
##왴
##깤
##밉
##젭
##뵙
##엡
##윷
##옄
##꿨
##컥
##뀐
##텈
##썬
##렵
##웤
##쓉
##햏
##픔
##릏
##캬
##빔
##읻
##젛
##퉤
##펴
##딕
##맷
##솟
##탤
##묘
##곸
##쫓
##쉘
##쨥
##큽
##썸
##봨
##됏
##쪘
##헬
##섵
##찎
##융
##룸
##쿰
##힠
##깥
##깟
##흰
##깂
##꿉
##칸
##녇
##떵
##씽
##쏴
##짔
##쉅
##쌀
##욯
##귐
##뤘
##팁
##좸
##섞
##뜩
##셩
##픟
##눜
##갉
##낄
##찹
##훑
##텻
##뢰
##륨
##푴
##낵
##쉑
##짼
##깎
##잲
##떢
##쥨
##쪄
##녹
##둠
##꽝
##뮬
##꺠
##뤼
##쬠
##줠
##뀔
##헨
##숩
##쌩
##햑
##덥
##밎
##꾀
##핬
##だ
##뭇
##깰
##묫
##츈
##땄
##쨌
##됌
##뼈
##쌓
##낰
##헉
##푹
##돗
##졽
##팜
##셤
##헷
##섴
##잏
##캇
##챠
##숄
##넝
##쵝
##줗
##몫
##쉰
##햘
##큥
##쟜
##탭
##뒀
##앎
##땠
##냇
##눋
##빳
##폈
##팸
##롴
##캨
##뱁
##캍
##튄
##슘
##숟
##횡
##겉
##윌
##챈
##겸
##빻
##탘
##딨
##튕
##뽁
##왼
##뻣
##짆
##럾
##ヤ
##멕
##쏟
##쮸
##셜
##잴
##쥭
##헠
##킥
##찟
##얄
##픚
##섀
##냏
##턔
##칳
##뤔
##킈
##봬
##깸
##죤
##쥴
##꼇
##늪
##튤
##훼
##짴
##곘
##넜
##뿟
##젼
##갇
##꿋
##옭
##횽
##녤
##좇
##랗
##냨
##췄
##쟼
##샴
##줙
##쥣
##앚
##엊
##겪
##땀
##쎈
##및
##쳥
##즛
##짘
##덙
##슙
##샹
##륽
##귝
##젾
##홉
##멱
##핍
##툭
##꿏
##숴
##쇠
##됴
##얶
##깍
##숏
##콰
##맟
##펭
##씁
##쟛
##볍
##땽
##궤
##굔
##훤
##딛
##겔
##벱
##죵
##낟
##촐
##잗
##싰
##솃
##컄
##썪
##꾹
##눼
##둗
##갘
##껍
##멩
##맣
##쪾
##촘
##빗
##괘
##녓
##뢀
##밐
##닳
##팍
##펫
##삘
##컹
##뇽
##깃
##쭐
##졐
##뻑
##꼼
##엥
##탉
##렜
##잣
##찤
##읗
##딧
##뫈
##먐
##쨰
##붐
##웈
##쏠
##쎼
##샛
##짰
##닭
##켠
##닏
##땃
##춬
##춋
##얹
##윕
##꼉
##봔
##뺨
##얗
##틍
##셐
##よ
##쒵
##칰
##ㅒ
##닺
##펌
##뎐
##웁
##썽
##늕
##랸
##랔
##줰
##됀
##펏
##묜
##킼
##뷸
##뱝
##샵
##갸
##룻
##쥔
##쎔
##ㄻ
##묽
##귤
##냠
##쌰
##읅
##헝
##휩
##윰
##볐
##짚
##쭙
##앳
##췬
##삥
##춥
##웍
##샠
##틋
##줴
##굉
##쑈
##짢
##츤
##깉
##젬
##읎
##숃
##킁
##뽱
##퍽
##븅
##젇
##휠
##슽
##깅
##싴
##웩
##늄
##왝
##읺
##톰
##뺍
##벞
##굲
##벵
##씸
##뽐
##뗴
##뱉
##넺
##핲
##챨
##텟
##쩝
##휜
##씤
##뺘
##퐈
##끞
##샾
##휀
##뚤
##덟
##뗀
##밭
##팓
##꺱
##끓
##맺
##늗
##컫
##랃
##듁
##쫙
##궄
##잎
##뻦
##촨
##쉣
##훔
##죗
##퉷
##탯
##쏜
##즉
##잨
##몆
##뛴
##씪
##힉
##퐉
##긱
##맅
##켯
##퍄
##ㅙ
##샨
##엨
##맼
##뚬
##쉼
##딬
##븜
##칻
##빱
##꽉
##슐
##걐
##깁
##숑
##밨
##꿍
##낯
##듭
##샙
##컼
##뎟
##뮌
##퐂
##쥥
##땔
##찻
##뀀
##쭘
##쿄
##섣
##뽜
##읭
##괌
##펐
##삳
##맬
##왛
##팤
##뵴
##텁
##믈
##뷁
##옸
##늨
##쿸
##횏
##줱
##읔
##땈
##뢔
##겍
##썅
##앸
##즨
##돳
##쳉
##뒺
##싀
##깻
##렂
##뀜
##쳇
##봥
##됍
##닯
##곁
##챦
##탶
##쏌
##떔
##슄
##낑
##뱍
##랠
##쎾
##팻
##뿍
##ㄶ
##헀
##횬
##쉨
##갷
##욋
##뭥
##쇸
##껭
##딲
##싷
##ㅝ
##윾
##쳌
##윸
##욜
##죈
##붜
##곷
##듦
##잁
##웄
##딤
##멓
##뗘
##옼
##띨
##몃
##냌
##졍
##슂
##펼
##퇄
##돕
##맀
##엾
##괔
##뭏
##쒜
##롷
##켘
##왈
##멉
##뮨
##뻇
##칡
##줮
##깈
##덬
##밬
##쪙
##웊
##댯
##텅
##뭬
##ㅀ
##벐
##읃
##첬
##팊
##귾
##핻
##캌
##첧
##ㅄ
##먀
##틑
##탣
##좉
##혓
##읹
##힣
##줸
##핧
##죕
##녆
##뿤
##듸
##돨
##뎠
##곜
##맏
##횟
##돤
##늼
##햅
##탖
##렼
##끠
##왹
##껐
##툿
##얏
##봌
##쏬
##뻗
##얐
##놉
##잫
##ㅖ
##끛
##셓
##캥
##앓
##겡
##ㄳ
##뱔
##ㅢ
##쩄
##몈
##퀵
##놐
##싪
##궂
##걘
##큡
##힛
##쌜
##낏
##홐
##싡
##뀤
##쑨
##쭤
##듵
##슾
##홋
##밣
##햔
##콱
##눚
##얕
##팼
##펰
##쫘
##샊
##렝
##잽
##륄
##븡
##웸
##펔
##굵
##샆
##뵹
##븨
##늅
##슌
##눞
##쥠
##뫳
##첼
##꺽
##엳
##젯
##춧
##펖
##꿧
##빣
##삡
##や
##す
##み
##で
##か
##퉥
##촤
##첞
##덫
##럇
##솨
##롸
##녘
##폣
##졷
##젙
##쒼
##얎
##ㅟ
##き
##れ
##い
##헿
##젱
##낱
##룽
##뤃
##옇
##띈
##훠
##굄
##씼
##ら
##뜌
##텋
##둣
##ㄼ
##뎉
##겓
##쩧
##넉
##녠
##켤
##셯
##삔
##젘
##끕
##쎌
##붑
##앖
##콬
##멌
##헣
##흙
##젔
##쪠
##얙
##뎄
##넽
##쏭
##샂
##됭
##탠
##옿
##툐
##얺
##굨
##솤
##섿
##뛸
##겯
##붉
##봏
##뵘
##렠
##싾
##쭌
##삑
##갛
##꺾
##끽
##죰
##슉
##뎨
##틔
##뀰
##볠
##앱
##귑
##쑴
##풜
##셬
##캉
##죻
##햬
##쎀
##픕
##툼
##믓
##붅
##쬐
##츌
##뻨
##밫
##낡
##뽈
##팰
##꼿
##붇
##볏
##ち
##ゃ
##슠
##뤜
##싦
##눙
##뗔
##₩
##뮈
##횔
##뒈
##쎗
##쓔
##룐
##됄
##첵
##핼
##싣
##궃
##텡
##읰
##뭍
##쟄
##숱
##꺴
##촋
##낞
##쏨
##팃
##뤌
##큔
##쨉
##샣
##쥿
##겢
##핟
##맍
##츸
##싥
##퉄
##갴
##폇
##줐
##볗
##짂
##쬬
##퍈
##볁
##벖
##낅
##벚
##딥
##앻
##럐
##븟
##졉
##땟
##뉜
##듈
##똡
##챂
##랲
##뱈
##뚭
##쯪
##쟀
##잍
##뭡
##は
##갹
##숮
##뿰
##챱
##잆
##싲
##윳
##좨
##댤
##맻
##싢
##괭
##곶
##쿔
##숕
##녖
##읫
##흣
##읒
##줃
##짯
##쏏
##맢
##핌
##쟞
##쉈
##슫
##젴
##핥
##ㅚ
##갰
##빜
##끾
##끙
##꽥
##옜
##녈
##갞
##뇁
##갭
##몐
##쑦
##봙
##귁
##둨
##딋
##잪
##훗
##겤
##좈
##랶
##죜
##쁟
##큭
##깆
##솝
##궐
##텃
##뵌
##앍
##듥
##앝
##콕
##밢
##륑
##뉨
##짙
##뭌
##쟠
##밪
##밷
##렫
##に
##く
##쫭
##엸
##읋
##룟
##칑
##딪
##탸
##긲
##껨
##윘
##윜
##븈
##밮
##쏚
##씾
##겋
##촛
##첮
##쩠
##곹
##펍
##툽
##뵜
##뻠
##켁
##흌
##씯
##몟
##왃
##읆
##젷
##틎
##왱
##촹
##셌
##턍
##쒯
##욵
##횤
##먽
##큿
##쉿
##졵
##괼
##긘
##몀
##늑
##욷
##룔
##ガ
##ニ
##츨
##졔
##햤
##숔
##뫃
##셒
##뷱
##퀼
##뽄
##쳨
##옶
##뉸
##픜
##궉
##똠
##봑
##잂
##핮
##붘
##잜
##놋
##옂
##얖
##ㄽ
##뫄
##꿜
##릐
##픨
##듼
##콮
##쳔
##띻
##뗄
##씝
##펩
##꽌
##땨
##욽
##됑
##얒
##훻
##귯
##뼘
##깦
##먖
##뒥
##캄
##랒
##솊
##큱
##벜
##뜹
##듐
##앧
##샬
##똬
##렿
##긷
##껫
##뒨
##굘
##걋
##렦
##풰
##댱
##튈
##콴
##휙
##탆
##굌
##꿤
##왐
##퐐
##죙
##쭝
##옘
##굤
##튠
##곺
##쐇
##븝
##햿
##먕
##읁
##곻
##졓
##꿓
##샜
##췃
##캗
##뻬
##낍
##젣
##쨘
##죳
##쵁
##됔
##싑
##샼
##퓰
##쁌
##봍
##쵀
##쏄
##챀
##굷
##맗
##뤡
##몯
##뵉
##켐
##짹
##옦
##벋
##욮
##띡
##웆
##츼
##죴
##흨
##췽
##띤
##돰
##귱
##삠
##덞
##싨
##칲
##쯩
##곃
##긐
##굣
##흩
##웋
##읊
##줔
##엪
##봘
##핶
##뚹
##텂
##넵
##퉅
##잟
##븢
##랁
##휼
##퇭
##갿
##쥼
##뗬
##촠
##횥
##턩
##퐄
##먜
##씉
##놌
##즠
##솓
##걑
##눀
##뤂
##탇
##텽
##휸
##릌
##댇
##뽘
##뤤
##귿
##젿
##롄
##햍
##뚠
##짛
##옾
##춌
##썡
##븋
##뿝
##긩
##닡
##뎓
##틿
##럈
##윀
##듕
##봎
##맚
##젹
##홰
##먿
##귔
##쉪
##꾲
##뼛
##쓲
##뉍
##렺
##혤
##켱
##챕
##쳘
##궛
##뙇
##슿
##땻
##굥
##쟘
##웫
##햎
##폄
##ㄾ
##젅
##붸
##괁
##횃
##딎
##삣
##늡
##뽝
##쮀
##맜
##쓕
##닪
##꺗
##췍
##걺
##켕
##퓽
##꼻
##잿
##냑
##찯
##쏀
##팕
##좟
##탵
##걈
##팈
##뢌
##댗
##옺
##쁮
##썋
##폽
##왚
##쩰
##쌕
##뵤
##쵤
##쪴
##햣
##ん
##뀬
##럳
##튽
##옐
##륻
##싄
##땁
##긎
##륀
##뒁
##귘
##륫
##쀵
##쩅
##춚
##읓
##뫼
##ヲ
##뒵
##혛
##쾨
##냣
##ま
##し
##ょ
##う
##젋
##햊
##넒
##짇
##쎅
##낔
##틉
##껸
##봟
##핱
##뺼
##뤀
##믁
##섷
##쨕
##퐤
##좡
##춸
##솸
##앆
##섕
##뿨
##풕
##쐬
##갗
##툥
##륩
##욭
##뺵
##큨
##닽
##귭
##벣
##텉
##닟
##폨
##얷
##뗐
##뼤
##핓
##쉥
##됮
##헥
##윱
##돚
##묭
##핔
##뺒
##쫗
##헹
##칬
##븍
##쮜
##긂
##뼉
##뎋
##릘
##쾤
##눴
##쌐
##쉭
##껜
##뢈
##뚣
##럤
##엍
##꼮
##늟
##싇
##깿
##뻫
##눳
##퍀
##횓
##탰
##궨
##잳
##뒬
##핡
##옫
##뮜
##뛔
##졀
##롲
##쟬
##쎳
##늌
##쇈
##긓
##찿
##휑
##쳑
##볕
##뱌
##쨍
##츙
##쩀
##줳
##マ
##놬
##뮹
##쳄
##뻰
##훕
##덷
##늉
##얃
##뒄
##칀
##괞
##앹
##た
##껬
##췈
##촵
##얩
##젺
##졈
##홚
##쳍
##쁭
##킰
##쳰
##뷐
##핢
##ヨ
##ン
##럪
##헼
##좐
##쌨
##쟥
##믺
##윃
##믜
##뻈
##딻
##띾
##빘
##셥
##빢
##죨
##멶
##딫
##괫
##텆
##귴
##돾
##젏
##텥
##싿
##븤
##캭
##쨎
##랓
##샥
##빋
##댴
##샅
##넞
##먺
##겷
##쳬
##쨀
##곗
##벆
##캘
##슁
##썜
##쳠
##랟
##떣
##ㄿ
##퓔
##꽐
##멬
##솑
##퍙
##칞
##붼
##밁
##옅
##셕
##돪
##맸
##퉃
##룤
##앇
##믐
##셎
##끋
##켭
##튱
##첰
##숯
##퀀
##뱡
##쨟
##펹
##ご
##ざ
##홥
##닊
##뷘
##뢩
##얠
##붤
##슺
##봦
##붹
##댖
##맃
##잀
##롹
##웉
##멻
##섶
##퐝
##봊
##옽
##닜
##읖
##놤
##뎜
##햨
##횩
##끍
##픠
##샃
##켑
##숍
##똮
##봪
##챝
##꿐
##끀
##엋
##빸
##솁
##앂
##딷
##뷴
##펨
##뿛
##훓
##얬
##떆
##꿎
##곢
##냬
##쯫
##큑
##챡
##욐
##븀
##읐
##튓
##る
##엫
##넿
##쎨
##즍
##쌏
##긧
##얽
##믇
##띅
##왉
##짦
##곪
##멫
##쟉
##츰
##됵
##츔
##옙
##쓐
##휫
##뮴
##팦
##눤
##캤
##뭠
##퉆
##퀭
##닣
##떫
##옠
##췟
##뎊
##レ
##キ
##읨
##똒
##갼
##왇
##냘
##삻
##돛
##욹
##츅
##섮
##랈
##씟
##힞
##뚀
##け
##츳
##홇
##쎕
##엙
##풓
##섟
##뭅
##쯥
##쇙
##엀
##쑛
##췤
##꺅
##즣
##꽄
##쒔
##쇅
##뙁
##듳
##횆
##폌
##댬
##꿩
##킾
##쫍
##븓
##뱐
##핺
##띔
##슟
##쳋
##짶
##춍
##쭁
##뵥
##밓
##벶
##렞
##툇
##낗
##ブ
##롵
##궘
##텢
##깒
##넡
##켙
##쎘
##촥
##륰
##쐐
##쯍
##냒
##긶
##곈
##맖
##챴
##랂
##븹
##밗
##옉
##쥇
##쥘
##솰
##믘
##욿
##퓸
##뚯
##볻
##픅
##쾡
##끅
##콸
##쿺
##앺
##껗
##ザ
##リ
##팎
##먾
##찣
##솄
##줒
##냊
##뛀
##뎡
##ひ
##쏩
##쥤
##밯
##춴
##믝
##ば
##わ
##ェ
##ゴ
##흗
##춱
##깾
##걹
##띕
##꺵
##칝
##쀠
##떜
##뉵
##첚
##굡
##욲
##깞
##붎
##맫
##웻
##둉
##냤
##욖
##랕
##쁙
##쿌
##쀼
##겱
##맆
##킭
##럄
##ー
##띺
##뗼
##휵
##췩
##깣
##뫀
##냦
##맂
##퐛
##홬
##찧
##쁀
##곌
##꺔
##뵐
##릳
##겮
##듫
##늩
##듷
##낝
##씡
##썐
##숸
##욨
##샏
##짪
##뤗
##덪
##퇫
##햠
##뾱
##ㄺ
##윟
##놜
##푱
##넸
##좠
##뿩
##껙
##떘
##톄
##뜽
##샞
##쮓
##넢
##쌬
##쨓
##넎
##줡
##뫨
##횻
##쵼
##튁
##밡
##뵛
##떌
##웓
##잋
##졳
##꺜
##뷍
##췡
##っ
##ぽ
##덯
##슭
##핕
##릔
##큪
##쎙
##뗸
##삵
##렆
##놂
##곴
##즹
##뽬
##섔
##싳
##걿
##왭
##떸
##퐇
##죡
##묷
##퐌
##맒
##톳
##뽤
##뽂
##픏
##녬
##큉
##쌂
##욺
##닾
##쩟
##뺠
##꺰
##씈
##욌
##꺨
##됗
##て
##さ
##뱄
##똨
##ョ
##똗
##쯘
##뉔
##ド
##チ
##ャ
##롥
##얭
##빝
##뽭
##옻
##쯨
##び
##샇
##릍
##풴
##탂
##헸
##돘
##듟
##봽
##훀
##퓿
##캈
##섥
##혠
##릡
##툌
##싮
##큅
##곯
##웑
##쫏
##덝
##좝
##늫
##둿
##펺
##픵
##핈
##츷
##젆
##놰
##뻉
##퉵
##덖
##싺
##놕
##뤈
##멷
##솎
##튘
##셸
##둖
##귕
##긌
##뒝
##흿
##쉌
##턀
##쒑
##뱜
##몾
##쌥
##숼
##쑉
##갲
##쬭
##빎
##뭃
##쌧
##졏
##굮
##푝
##뭤
##럮
##쨴
##먻
##뒛
##웦
##캃
##놸
##럣
##팹
##쪈
##깋
##멺
##몌
##ろ
##륹
##럲
##흏
##뉩
##헾
##먈
##멥
##퓌
##な
##の
##묨
##훟
##룁
##벍
##읕
##읉
##쓋
##됸
##힏
##풐
##꺕
##뚧
##늊
##킿
##풱
##뻄
##몿
##픙
##챵
##킲
##뉑
##럷
##킅
##랼
##죃
##ル
##샡
##꽊
##끰
##꿕
##혽
##쳅
##썀
##줉
##휭
##쨜
##긒
##겝
##뤽
##빧
##욪
##숳
##쪌
##웱
##뢉
##깢
##걉
##뵨
##쵠
##뀝
##훵
##썤
##룯
##졿
##꾿
##엲
##둴
##랳
##붚
##닢
##롶
##녴
##줕
##릃
##콭
##줟
##솢
##벸
##쇽
##り
##텬
##뮛
##똣
##춫
##퍌
##룝
##븧
##왂
##떱
##쩃
##듘
##싞
##곙
##뫙
##옩
##슻
##뫌
##긺
##촙
##싵
##혾
##벻
##눍
##뗌
##꽅
##읠
##뿠
##끡
##롕
##죧
##빶
##슀
##깇
##셴
##뼊
##뚸
##늚
##뇐
##궅
##읜
##팏
##ラ
##땋
##쾽
##꽦
##뚥
##앋
##뭨
##짊
##넏
##헑
##혬
##맇
##썟
##웧
##맔
##쁄
##뀪
##닧
##밚
##댵
##윺
##릥
##씃
##놘
##뚞
##닲
##뽷
##띱
##땬
##쎠
##볘
##꿑
##롼
##춎
##뜍
##쏼
##놥
##꾜
##욳
##쉡
##놎
##츜
##읈
##죺
##씆
##뎆
##괵
##싈
##믖
##욍
##횝
##얾
##몋
##톸
##횢
##탚
##쉇
##콯
##뎔
##쭛
##롧
##뇤
##뱨
##と
##픓
##졁
##섻
##ナ
##윶
##볾
##흇
##꺤
##맪
##곅
##떗
##힢
##꼹
##뵬
##돡
##힁
##힇
##갋
##젚
##쾧
##홤
##끜
##캑
##듢
##헜
##쑹
##깑
##좜
##뀡
##썔
##좽
##뤟
##홴
##즥
##슦
##댸
##봈
##뭩
##앏
##웎
##봒
##죶
##꿘
##욫
##몁
##캎
##ㅞ
##앦
##꺀
##봆
##늤
##쀄
##퉜
##죯
##홎
##핽
##삲
##짅
##퍞
##륌
##큳
##뒙
##됰
##꼣
##읿
##팉
##틷
##떋
##넄
##눨
##듲
##춝
##럻
##콛
##놯
##즂
##솬
##똔
##윁
##솩
##픂
##훉
##쫃
##끉
##똭
##흒
##챸
##혲
##봗
##큇
##쇺
##뽠
##튵
##톻
##볌
##훃
##쀨
##혰
##걜
##쓩
##괒
##띰
##숛
##벝
##둏
##뮉
##츗
##셑
##늜
##쑬
##뜃
##챶
##뮝
##꽹
##칯
##펟
##핣
##쿻
##쥍
##겾
##잒
##맋
##쒹
##잛
##땩
##먘
##덹
##뗏
##뜼
##띢
##됻
##돝
##딞
##쩦
##が
##굏
##걻
##랆
##긿
##숓
##칱
##밒
##벧
##댲
##멐
##섲
##돵
##츀
##옝
##휨
##휄
##깹
##괗
##춣
##돞
##쎤
##윿
##밞
##뗑
##뉙
##쉉
##핗
##쭵
##꾾
##껔
##띳
##윥
##훜
##똫
##뼝
##둦
##왙
##퇵
##픗
##젰
##켸
##댛
##뮷
##줵
##뀸
##뷷
##퉈
##밂
##햝
##햙
##쪔
##뚁
##뙤
##렑
##풔
##홛
##쏑
##좓
##닶
##똦
##섘
##ウ
##멏
##찠
##촀
##쵹
##쎵
##쯉
##쏵
##빭
##캳
##캽
##イ
##ビ
##땤
##롪
##앛
##썁
##먆
##딝
##녅
##쨲
##닸
##짣
##똴
##췅
##웪
##찳
##쭬
##킌
##믣
##돱
##윻
##좊
##찁
##먁
##쪅
##윝
##쐉
##깩
##옞
##쌴
##쨱
##め
##쉾
##탏
##뫁
##륍
##뺸
##퉂
##쇳
##솅
##갂
##뱆
##픋
##짒
##껲
##놩
##믑
##냍
##읮
##촺
##냼
##쒕
##뮋
##뢍
##잩
##퐠
##녿
##앁
##텊
##횅
##묠
##넑
##쥱
##빯
##짗
##낶
##꼳
##덢
##띁
##쟙
##읷
##궇
##띙
##죷
##쩩
##쐏
##뱩
##틁
##뻭
##휏
##쁫
##겦
##벾
##깖
##븰
##랋
##멨
##밃
##칣
##쾐
##덛
##혙
##귬
##섫
##솦
##띀
##쏱
##끤
##볭
##떧
##뫠
##숖
##삯
##렃
##믕
##욛
##틇
##죔
##큄
##뽯
##툤
##핚
##핝
##씧
##얨
##싁
##떾
##뮫
##챳
##ど
##켝
##븥
##홁
##돴
##봵
##サ
##똌
##뺻
##셱
##뻒
##쟴
##됒
##숡
##컾
##쟂
##엩
##꿂
##탹
##킙
##롁
##퀏
##픒
##뇜
##웽
##궹
##븉
##췰
##챟
##뺃
##뢋
##돽
##졲
##늧
##뜅
##뤕
##넀
##쐣
##댰
##お
##빏
##뭞
##쬲
##엯
##윔
##짟
##뤱
##줋
##쏳
##췋
##틓
##딍
##웂
##쀅
##꼵
##쑝
##밿
##햫
##낧
##벰
##랮
##쒱
##훍
##뜛
##딀
##엕
##뜷
##꼤
##붏
##쿧
##あ
##뫔
##늛
##툣
##ね
##얚
##헁
##홂
##읙
##뷩
##잚
##렅
##솻
##뙨
##틜
##쵴
##웞
##옏
##찷
##쉗
##쵐
##썎
##엻
##먚
##룪
##쾍
##줓
##뭀
##춐
##롡
##죹
##덍
##콷
##쒓
##엗
##긇
##핤
##넾
##쇜
##슆
##웕
##궀
##홱
##탛
##붠
##퉛
##쿝
##픞
##깪
##뽚
##쫨
##죱
##햲
##긤
##좢
##뭴
##룜
##벟
##츑
##벴
##쬑
##힒
##럒
##덨
##덌
##즆
##꽆
##졘
##쎋
##좤
##뛷
##믽
##쫩
##벢
##흼
##갶
##쨤
##붊
##쐌
##퐘
##짲
##텑
##삦
##짃
##좍
##젡
##튖
##혿
##쫜
##こ
##갍
##쨐
##쇤
##윆
##졜
##뿓
##밲
##멊
##졑
##싓
##헫
##푯
##쮹
##륾
##쨨
##즵
##メ
##찓
##볹
##츴
##뭦
##숧
##욝
##윂
##쟐
##벹
##솒
##빐
##늍
##탙
##꺋
##낪
##콫
##땰
##쑌
##껚
##췐
##컻
##쇡
##묄
##뫅
##폳
##튿
##냫
##냪
##꿁
##턉
##몼
##즎
##늰
##뗵
##짳
##붵
##엦
##뭋
##뙈
##릯
##뭊
##썄
##걨
##앶
##컧
##솼
##늇
##쟃
##쪕
##삪
##쇿
##빞
##훚
##릶
##췸
##룃
##흴
##첐
##쩁
##샋
##릹
##컆
##뺗
##긏
##뵁
##뺕
##텣
##뇰
##첥
##탞
##춉
##뮍
##뇩
##틊
##헡
##넖
##닰
##쩓
##쮠
##팧
##픍
##캿
##낻
##멅
##윋
##퀜
##틩
##쏍
##즞
##닩
##홗
##꾺
##츩
##슲
##꼠
##뎤
##뭑
##죘
##롘
##윢
##즔
##룆
##롑
##폎
##빩
##쯜
##돧
##탲
##낣
##쮱
##꾳
##늏
##´
##븃
##낐
##퐙
##젲
##걵
##꾐
##칟
##꼷
##쿗
##썍
##턌
##췯
##묏
##엃
##텾
##얅
##쵯
##쏫
##훋
##뤙
##쁴
##뿽
##쏸
##큲
##ハ
##몣
##ム
##솧
##팢
##씥
##큗
##퉸
##쥽
##뼨
##핉
##봭
##덵
##뚷
##옲
##낛
##큩
##팾
##춯
##귣
##팄
##벘
##웝
##슏
##롓
##ク
##쩎
##딹
##꿴
##ㅋㅋ
ㅋㅋㅋ
ㅋㅋ
##는데
진짜
##니다
너무
##ㅋㅋㅋ
##세요
아니
##는거
##네요
##으로
##으면
##ㅠㅠ
##어요
ㅋㅋㅋㅋ
##에서
ㄷㄷ
##이네
그냥
##하고
##하는
##인데
##하네
##이다
##이라
그래
##하다
##인가
이제
연기
##은데
여자
##합니다
##들이
##겠다
##구나
사람
ㅠㅠ
##야지
근데
결혼
##하지
##니까
이쁘
좋아
##이야
아이
##이지
나오
행복
##하게
##던데
얼굴
##해라
##하면
##라마
응원
재밌
##라고
##까지
##보다
##다고
이거
축하
##고싶
##나요
남자
역시
##지마
##ㅋㅋㅋㅋ
##렇게
기사
오늘
##사람
이게
ㅎㅎ
##해요
##하세요
##이팅
이런
그만
##한테
##한다
많이
##는게
ㄹㅇ
누구
우리
##이랑
##ㅜㅜ
##해서
재미
아닌
##ㄷㄷ
##잖아
정말
##더라
힘내
방송
##이나
드라마
지금
##00
##아니
생각
연예
##겠네
##들은
##나오
노래
사랑
##부터
이상
##이가
기대
##어서
##습니다
화이팅
기자
무슨
모르
##하시
아직
##는건
##리가
##레기
어디
예쁘
##입니다
##같이
##한거
##아요
좋은
제발
최고
##진짜
##주세요
##리는
다시
하나
##같은
보기
##ㅎㅎ
##구만
이건
##대로
언제
##너무
##하나
##겠지
연예인
누가
##하자
##이면
##거같
##럽다
배우
##보고
여기
##가요
##인줄
ㅜㅜ
둘다
##에요
사진
댓글
대박
응원합니다
##이냐
빨리
요즘
##것도
##라도
##한데
보고
##들어
잘생
이미
그런
그러
##아서
##이는
이쁜
둘이
##어울
##소리
ㅡㅡ
완전
그래도
엄마
프로
##했다
##해야
누군
들어
나이
솔직
그럼
##하는거
##다니
하지
##이었
귀여
하는
ㅉㅉ
##려고
스타
게임
##ㅡㅡ
##정도
##oo
##시다
아님
이걸
군대
##해도
##려요
##보네
나도
##an
정신
##하냐
##했네
한국
대단
저거
10
ㅠㅠㅠ
내가
아무
나와
##어야
##이스
##없다
별로
##나라
##가지
##리고
멋있
영화
ㄱㄱ
##리네
##기가
##여자
같은
##면서
엄청
##고싶다
##배우
안되
##좋아
##지않
머리
한번
##기사
##인이
악플
뭐야
저런
##았네
이뻐
이번
다른
##지만
이렇게
##처럼
매력
솔직히
얼마
##말고
##지도
하고
##문에
아빠
문제
##지는
진심
그래서
잘못
##았다
##을듯
##었다
관심
##없는
##을까
괜찮
##스트
##기는
귀엽
느낌
같은데
##들아
어떻
##지마라
힘내세요
##ng
##아닌
##아님
멋지
##스타
##아라
행복하세요
좋다
##다가
ㄷㄷㄷ
제일
축하드
원래
이혼
##보면
##줌마
##어도
같이
계속
ㅇㅇ
다음
보여
불쌍
##가자
건강
승리
##텐데
##호감
##된다
##중에
그거
##으니
아까
어울
##했는데
이쁘다
##새끼
##이쁘
##었는데
##은거
##ㅏㅏ
##드라마
##즈아
##기네
##고있
쓰레기
##시간
##해보
바로
##나와
md
방탄
20
어떻게
하네
인생
##gd
##연기
예쁜
##아가
남편
항상
개같이
##아야
##하는데
다들
성형
나왔
##었네
##나가
##는다
노잼
##없어
일본
없어
##인듯
##린다
##인가요
아니라
mdgd
인간
벌써
좋겠다
##했어
##상이
##프로
##지가
시간
##수도
아깝
가자
이러
##시길
하면
얼굴이
아직도
못생
어제
##보는
##수가
##자나
##얼굴
##라이
##거야
ㅈㄴ
##남자
언니
##보기
##지네
뭔가
미친
##더니
##건가
없다
이름
오래
##이고
##수있
##이라고
연애
일단
좋아요
##같은데
플레
##러워
##같다
사귀
##ㅠㅠㅠ
##사랑
문재
##혜진
잘어울
사실
기다
##방송
생겼
보는
##어라
나가
가능
##다는
해라
제목
뭐가
##할듯
##님이
부럽다
##이들
##하라
##게임
혼자
##았는데
##봐도
이분
30
만나
미쳤
##이네요
비호감
예뻐
##머니
##지막
##해주
##인지
그렇
그렇게
##성이
##있는
사기
는데
##정이
##자기
왜이
저게
그게
##현무
ㅇㅈ
부럽
이유
##생각
아들
관종
##거지
궁금
##적인
니다
##난다
##언니
##인다
##끼리
##나보네
시작
그건
처음
친구
얼마나
보면
##냐고
듣보
인정
##었어
##없음
##수록
한혜진
기안
##OO
어쩌
없는
아줌마
누나
##재밌
##는거지
##아아
##커플
아닌가
힘들
두분
내일
이야
##있어
가즈아
헤어
돌아
##었음
잘하
##보니
어케
귀여워
##전드
##간다
시즌
##만에
##라는
##는거야
중국
마지막
있는
아쉽
##보여
자기
가족
##el
해야
시청
광고
전현무
조용
##긴해
소리
##이였
나는
##라서
이기
축하해요
##러운
부부
##on
애들
##에게
##가는
아니고
##라니
##주는
세상
##han
안타
이해
잘생겼
##있네
마음
##전에
##봐라
##혜선
보고싶
##없네
##복을
예능
100
##때문에
##지말
어차
하자
니가
##저씨
아이유
김치
##하지마
##재현
##진다
##거같은데
정준
나라
##온다
없네
이젠
##시네
다이
한다
##스럽
겁나
있어
눈물
##사진
##결혼
안나
하차
##이크
##ㄱㄱ
##기도
사람이
##인의
##을때
믿고
이래
살아
러너
##나래
그래픽
##같네
저렇게
##재석
아구
##이상
사이
롤체
어차피
갑자기
##있음
##자가
##있다
고생
유미
기억
##립니다
1등
##보이
##놓고
가지
##그래
##ea
##od
멋진
##했음
##는지
##같아
##그램
##이형
##해야지
커플
##축하
아주
ㅎㅎㅎ
##조건
세요
좋음
존나
##머리
자꾸
##가서
##스터
누군지
##심히
개웃
##많이
아프
기레기
##사가
##하네요
##스가
##기만
안돼
##좋다
##들도
이즈
부모
좋겠
##혜교
여자가
##먹고
##부부
##거리
성공
떨어
왜케
##하니
싶다
레전드
##나네
##그만
점점
같다
꿀잼
##는구나
수준
##졌네
##모르
싫어
수지
##보자
만들
##마다
에휴
##하는게
축하드려요
##게요
자랑
##밖에
##없이
무서
있네
##하시길
대상
박나래
##기를
##인은
결국
##적으로
이승
##나는
일반
##리지
멋져
절대
##er
얘는
##ic
무섭
있다
오빠
범죄
미안
##아이
애기
나올
그럴
인성
##었나
필요
##으니까
장난
상대
무조건
##종원
##겹다
쿵쾅
##같음
좋은데
어우
##라가
하세요
##예요
전라도
##한게
마약
아닌데
송혜교
폐지
예쁘다
우승
뭐냐
목소리
##좋은
##하셨
있음
없음
##응원
##드라
##거임
##에도
##혼자
루태
##해줘
대체
##건데
몸매
페미
플레임
아깝다
나만
어쩔
하다
종우
##았어
앞으로
##본다
##노래
##구요
행복하게
40
라이
##레이
다행
이시
##느낌
##ㅉㅉ
한남
##하기
안타깝
##행복
##걸로
저기
##식이
##봐야
##소년
실력
##겠는데
현실
하쿠
50
말이
##하긴
축하합니다
미국
임신
##에는
아니야
모습
##나서
##노잼
##가스
##민이
##치는
##할때
안재현
백종원
##했으면
돼지
##리스
하시
뭔데
티비
돈이
##버지
짜증
오지
구혜선
##이라니
##영이
살인
##보단
이다
아이돌
##나이
나쁜
왤케
##리면
##재미
생긴
명복을
비슷
##대체
이영
##정도면
고소
유재석
안보
맛있
##안되
말고
서폿
##만원
##하길
자연
##당히
##시켜
##사는
##래요
##친구
가수
보이
열심히
남자가
##그냥
##애들
##일이
1위
김종
정도
##는건가
연습
##오빠
설마
맨날
에이
괴물
송중
나온
보다
김태
##해주세요
조용히
##았음
봐도
##기대
작가
##려서
##크스
##워요
저러
##ing
##나봐
합니다
먹고
사과
현빈
##이라도
##생겼
박보
##odel
맞아
##려나
##쟁이
##인거
##분이
##동안
피해
##진이
##라리
##지말고
3성
소속
##어야지
이쁘네
당연
이네
##그러
vi
동생
치킨
##엄마
확실
옛날
정해
##지면
##아치
##신이
오랜
있지
재미있
##아닌가
##디어
네요
##가면
##영화
##모습
아이고
해줘
불편
##장이
빕니다
##ye
##가라
자살
어휴
##원이
보내
##am
가슴
##rt
마이
##다니엘
##졌다
##장님
##더만
극혐
OOO
##이뻐
이지
다니
12
거의
##었어요
몰랐
##보소
스토
ㄴㄴ
성격
돌려
##시키
##이에요
멸망
##까요
해주
##연예
##라지
##한듯
그걸
알아
나오면
아니다
##시고
아름
##누나
제대로
출연
##군요
##미가
잘해
때문에
##럽게
듣보잡
다르
##났네
정상
강남
안나오
##주가
부정
실망
##가고
##어나
##차이
##이트
멋지다
싫다
##은듯
ㅅㅂ
많네
##치고
##돼지
##이제
감사
아냐
##ou
##는듯
##소년단
봐야
화장
웃기
하는거
##최고
어린
##인간
카이
##자는
대회
##운데
국민
##ay
유튜
하루
아닐
알고
외모
사람들
걱정
호감
##싫다
해도
모두
재밋
##ㄱㅋ
거짓
거기
올라
##나왔
좋네
##현이
##주고
너도
##니깐
표정
##은이
무도
따라
##체가
본방
서로
아니지
##가네
##수님
개꿀
##하겠
##던가
미모
##려라
왜저
아니냐
##빼고
##이여
##생님
##였어
있는데
15
##ak
##였네
같아
대한
##져라
##을텐데
누군데
##좋아요
강다니엘
진정
이겨
라인
먼저
##했어요
혹시
아저씨
개그
##가리
캐리
바람
##지고
있나
##가능
##들의
viic
메갈
구하라
얘도
그리
없는데
여전
난리
도대체
##렸네
눈이
인데
음주
홧팅
##예진
재미없
##시는
말자
##렸다
조심
있었
은퇴
##in
##사람이
이뿌
으로
이딴
보고싶다
##만큼
인기
적당히
사세요
##un
##Bye
##준이
같음
드디어
스포
이쁨
##겟다
##리아
몰라
##이긴
mdgd7
##일듯
##리오
##았어요
##떨어
##께요
##진영
이뻐요
##생활
##eart
##인공
여기서
스트
##리자
##리기
아는
##했지
형이
mdgd5
##파이
중요
감동
매니
일반인
역대
저건
##을거
본인
힘내요
모든
##와서
##종우
아니면
##부러
##한번
##되는
채팅
##하세
##문제
##잘못
viichan
끼리
##화이팅
##하하
질문
##나게
징크스
했네
마라
##드가
새끼
복귀
그랬
##른다
어려
##스는
방탄소년단
##냥이
##님은
언플
설리
자주
본다
플러
이병
##랍니다
##운전
내려
##수는
##예쁘
##ㅇㅇ
와우
섹시
##누구
시청률
라고
##줄알
뭐지
##보임
##자너
11
조합
##사수
##되면
우와
나혼자
이미지
모르겠
##하죠
##좋음
학살
고마
이수
나오네
기부
##한건
##말이
인가
##he
외국
##ir
##에선
영원
차라리
내용
##드는
##땜에
멤버
해요
공개
웃겨
##셨네
여자는
##아도
바이
유명
사랑해
##씨가
지겹다
했는데
우주
빼고
##그룹
얘기
##라스
에서
##민국
신기
이래서
당신
프로그램
##at
##봤는데
맞는
##했나
송중기
캐릭
빅토
박보검
기자가
했다
기분
훨씬
정준영
조금
은근
문재앙
##하던데
문재인
방금
영상
##들만
##는거임
간다
##지민
어요
이민
##한다고
어떤
##형이
해서
##궁금
굳이
만들어
##위치
잘살
어디서
누구냐
##하면서
##네ㅋㅋㅋ
##명이
활동
on
형님
zz
자식
팩트
##시네요
옵치
##사기
##이기
논란
##력이
##어가
사람은
##이쁘다
재밌게
해야지
##이도
##었으면
나중에
##적이
유리
##네ㅋㅋ
##았나
이겼
##주면
고인의
다리
엔딩
이새끼
##ㅜㅜㅜ
오늘도
##만나
입니다
##하러
얘네
나오는
##길만
##하신
이것
##번째
있어요
실화
채널
억까
##il
YG
##있어요
베인
##였음
존잘
##ㄷㄷㄷ
##있는데
##가지고
유치
##르는
이형
용병
##대박
분위
##무슨
알바
##기다
정해인
##시대
소름
실검
##이니
아내
2성
이세
사고
##라면
대단하다
멋있다
삼식
예전
##봐요
지가
##도안
거지
고현
우르
미드
박서
수고
##이버
##한가
##있지
##씨는
##거나
##이쁜
해체
##산다
이새
##oong
##거면
지랄
이쁘고
ㅠㅠㅠㅠ
##dc
왠지
예뻐요
된다
##자들
끝나
유튜브
##였다
경찰
##이래
##우성
축하드립니다
괴물쥐
냄새
##합니
먹어
잔나
구속
##인트
응원해요
마닷
정글
엑소
미투
는거
##ㄹㅇ
##있나
##잖아요
##보내
와이
그만좀
송가
김재
##이요
평생
##으세요
##나옴
서지
양아치
안어울
어이
나옴
##어디
연기도
소속사
조선
빅뱅
그림
조사
##10
##아는
나래
손예진
어지
까지
이승기
무관
##스럽다
재밌어
yodel
무한
맞음
닮았
작품
멋져요
못생겼
축하해
근본
컨셉
물쥐
김민
화사
개잘
올해
##없는데
ydc
이병헌
##그모
이쁘게
전부
##지마세요
홍보
##먹어
##정신
이종
거짓말
##아니고
봤는데
##비가
으면
그저
도망
##아주
아기
##났다
한심
##아빠
알았
달라
능력
##연예인
서넹
트와
초가스
여러
ㅈㄹ
##것들
##아니냐
우리나라
##im
##다리
아가
이쁜데
##ㅏㅏㅏ
끝까지
##둥이
해주세요
같아요
운동
##져서
이유가
없나
wak
##귀여
##별로
##힘내
정치
##양이
##워서
##석이
박종우
신경
형은
완벽
기자님
yodelay
어머
매니저
##어트
귀엽다
많은
##라인
##만들
요네
고정
##싫어
세월
선택
##시면
##따라
죽어
눈치
맞지
가라
잘사
이런거
##였는데
응원할
데뷔
가야
잘하네
##아냐
사라
##셔야
##대가
##히려
타이
##일까
##뭐야
##오나
닮았네
찾아
##이구나
##기자
좋아하는
##전자
##수준
한명
poong
바보
이시언
##정말
##구먼
##것같
않나
조작
개인
##보고싶
가서
남자는
시즌2
##do
빅토르
한데
퇴물
##리도
암살
##불쌍
##긴함
##가락
##그런
##연이
박수
음악
가장
가면
##엔딩
최고의
##치네
##ov
어서
되는
가만
여전히
역대급
나무
김희
애가
##정은
##제로
어찌
뢴트
재수
이사람
없지
##유천
##디오
선생님
이효
좋지
어디가
구나
모델
새로
##요일
아나
##어주
오늘은
김도
욕먹
##줘요
주인공
잘되
풍신
##려면
약간
여친
했어
본방사수
구라
##레스
##귀엽
김성
보니
좌파
제이스
추카
얘가
woo
##eart2
시켜
단독
sp
##하더라
갈수록
보자
##우는
저도
도박
다녀
##었지
##셔요
이모
##개월
없어서
ㄷㄷㄷㄷ
##없고
##분들
##십니다
##지원
대한민국
##오래
##카이
##니가
모자
양세
zzam
ㅉㅉㅉ
##영상
가는
시키
한거
##겠냐
가져
슬슬
리얼
잘가
인스타
건들
추천
그나
존예
무지
박서준
200
##대상
##줘라
카이사
바꿔
들이
##국이
올려
이영자
많아
##으면서
하는데
안녕
하늘
##이즈
못참
##지게
##란다
올리
재밌다
##op
잘한다
##ㅠㅠㅠㅠ
##스크
##그로
##스팅
##보인다
아무리
부활
##식당
##하늘
예쁘게
##됩니다
여자들
##아깝
##할거
##좋네
트수
보인다
할머니
뉴스
##하니까
##아줌마
ㅁㅊ
봐라
오히려
되게
지디
뭐하는
##겠어
##해지
##심이
안가
##좋겠다
여성
##돌아
잡아
잘함
그때
변현
김수
##시죠
착한
지옥
이동
##세여
##길래
요새
사회
##하고싶
어때
사는
하스
제작
##되네
역배
##하겠네
##하겠다
##리는데
##에서도
슬프
##만한
저걸
방종
##년들
##물이
아름다
##빨리
##다시
슈퍼
주세요
성훈
버려
우리가
안됨
woohan
하냐
##나오네
##버려
끼리끼리
##럽네
현아
##될듯
나대
vs
19
##인생
고수
담배
##지않나
상관
여주
파이팅
공감
##동생
##오오
이럴
직업
개웃기네
관리
캐릭터
보여주
연기는
안해
억울
보소
##됐네
음주운전
##가족
##이죠
오버
##리야
##우면
yg
##관리
연예계
이상해
죄송
쳐내
트와이스
그립
리롤
##리얼
하지마
의미
##기고
뭐임
하필
heart2
불러
감성
도구
고현정
얼굴은
##자꾸
##겟네
이정도면
블랙
기도
눈빛
##수형
콩콩
있으면
이것도
악마
##언제
다이어트
모르는
같네
쌈디
파카
##댓글
전혀
##던지
##겠네요
요들
재밌음
##넼ㅋㅋㅋ
이용
하게
시집
도네
좋았
꼴보기
8등
아쉽다
##냄새
##화가
가요
##으신
30대
아닌듯
이나
##리다
##주의
가식
물어
##갔다
부터
어느
##아니라
일베
홍진영
1년
##매력
##희가
그런거
##셔서
##통령
##하지않
크리스
##아저씨
눈꽃
##태현
##이드
퇴출
야지
준비
##잘어울
지마
##응원합니다
이진
##주도
알려
받아
안봄
피오
##좋은데
##하지마라
나오지
워너
##자연
오바
##졌어
스타일
주작
생겼네
꺼져
김남
spoo
브라
##치가
찌질
##어어
##되는데
일부러
사기꾼
잘하는
##던거
피자
##릭스
아재
##ㅎㅎㅎ
인줄
억지
이리
포기
실사
기대된다
악질
##가야
왜이리
지지
순간
빠르
웃음
겠다
그대로
넘나
##이름
##스박
스토리
##이유
확실히
낫다
##겨서
애들이
ㅎㄷㄷ
정신차
##버리
##할까
어렵
##or
##on7
하하
아쉬
저격
괜히
똑같
##나오면
##놈들
##필요
##자랑
세계
아무도
존잼
이상한
맞네
살빼
은데
여신
하나도
송가인
블츠
무섭다
메인
넘어
##애가
몰입
미쳤다
시원
모르겠다
##되지
엄마가
##st
우파
강호
지나
##키로
##없지
만든
한테
##아버지
뒤에
네이버
##블리
##제발
옥냥이
아칼
서울
막장
지켜
황금
##긴한데
##시작
ㄱㅊ
변현제
##르고
##했냐
애니
10년
##바로
##팔이
##ns
온다
악플러
해설
##마스
책임
##건모
자숙
나와서
이번엔
훈훈
무시
알아서
분위기
좋네요
되지
있을
범죄자
##구마
##스러워
반성
##겠죠
정신병
언제나
내년
그룹
spooon7
한녀
##린거
알리
서현
원딜
어쩌라고
##가나
이길
연두
##연애
멘탈
##아니야
바꾸
설레
##빕니다
지민
장동
애는
의사
##때마다
##진거
드라
오랜만에
브금
오른
##하나요
안쓰
설현
버닝
질투
그닥
##많네
기자야
김정
키우
##라구
나쁘
살려
마술
피해자
##아프
##둬라
노무
재밌어요
챙겨
##월량
##원은
위험
흥해라
##관심
용서
##유리
##쓰레기
얼른
보네
##아들
회사
##지말자
##나올
##예뻐
##전이
##크로
마세요
전장
13
이슈
꽃길만
누구야
답답
##겠어요
##이거
멀티
주말
수상
불쌍하다
##시지
트위치
어떡
못해
아웃
초반
진정한
##84
멋짐
코그모
진실
안봐
어딜
이태
##형님
어그로
느껴
아닌가요
##보고싶다
오우
부탁
별루
오타
따로
대표
뻔뻔
##으려고
##드려요
변기
축구
##됐다
최악
ㄱㄱㄱ
이서
차이
힐링
##먹는
공부
돌아가
어색
##나온
##스러
헨리
그리고
사건
똑똑
럭스
##와중에
만두
##le
편집
늙은
ㅜㅜㅜ
##ㅓㅓ
잘하고
존경
남주
##이런
바랍니다
##야함
조아
연기가
##든데
##ac
전에
당당
살인마
재혼
룰루
쓰레
##지컬
##자리
장나라
##이라서
##는건데
##유미
동안
실수
결혼은
충격
최민
아버지
후추
운전
##만해
우르곳
추억
##시오
생각보다
정우성
짱깨
북한
힘내라
##ove
생김
##아나
남친
##스로
라면
끝났
포인트
유승
행복하
##이이
플러리
##있으면
부정형
스파이
##기로
달달
개꿀잼
졸라
##드네
데려
도와
징그
##는거냐
것도
##많은
빠순
##사건
죽여
과연
안맞
##대단
##주자
집에
아파
천보
소유
##합시다
##사장
니까
##마리
게이
괜찮아
##헤드
이정
##ㅜㅑ
##가즈아
##어지
현무
이름이
무엇
이러면
##들을
가짜
##하는건
##you
탈출
순방
##때가
##으셨
뭐라
말을
닮았다
##있냐
##트가
모름
##주지
조국
양띵
비교
이하
한지민
돈벌
나와라
##다녀
##시안
보통
예정
그만해라
닮음
거야
##잘해
##러가
##캐리
##하노
아니네
##때문
루루
##거같다
행복한
##했다고
인형
ㅅㄱ
##아야지
##고생
김건모
풍형
마법
##기야
잘생긴
##희는
아오
이효리
삼가
연기력
교수님
신호
요즘은
이쁘긴
드가자
이라
ㅇㅈㄹ
확인
섭외
열애
없으면
##했던
1인
넣어
초딩
지금은
옆에
##치기
예쁨
작작
자체
대신
##은게
##스타일
##남편
대륙
ye
잼있
##이란
나이가
태양
##아닌데
##것같은데
##갔네
##정환
웃기네
우린
##bs
갔다
##선수
마인
##하시네
##이라는
##님도
##호가
양심
##상은
인터
못함
유아
웃김
강타
##아지
##갔어
잘생겼다
열폭
김영
##사이
들어가
불륜
##없어서
##신지
##주얼
40대
될듯
미우
함소
##마이
개념
박명
못생긴
난다
##이쁨
##스러운
순수
김종국
타릭
많다
##는중
지루
그렇지
##에서는
18
##사람들
생겼다
##하시고
##나보
밖에
kim
바닥
나의
3분
##출신
##al
기가
남편이
고싶
##자체
나요
좋고
아침
##1위
남의
지금도
이가
머야
부르
더러운
출신
미리
고인
##동이
##엄청
##긴다
##마자
안된다
##받고
빨간
2개
조만
도끼
기사가
던데
##0년
중간
##Cu
평범
아미
##알아
기본
##였나
했으면
말자하
장윤
저래
당연히
##거라
싸이
너는
탈진
##주네
무친
##되나
##먹을
부끄
쿵쾅이들
나혼자산다
두번
##멤버
##대는
##공개
박민
가야지
죽을
##는건지
구독
##사귀
니들
아들이
산다
미포
프리
표절
##시절
##운서
##하던
##하지만
마음이
##부럽
인피
##사람은
끝내
해보
##리나
천재
##생김
하는게
##이니까
이종석
미래
야스
##사고
##초에
##봤다
##하지말
##지지
노력
25
##워라
예쁘고
했음
예쁘네
조보
의심
ㅠㅜ
김지
식상
노래는
##감이
목소
##한거지
저는
컴백
최고다
##없나
못하는
집행
설정
안타깝다
볼수록
발전
##랜드
벌레
재앙
그런가
바뀌
꽃뱀
파이
##기에
##여서
지겨
아칼리
얼굴에
##달라
부러
##루파
##바이
##도가
하여
##웃겨
응원해
하라
검색
김종민
레오나
##완전
##비는
카트
가정
하셨
연기잘
지코
##도전
순산
##세용
범인
##웃기네
##이잖아
##겠습니다
남궁
딸이
어딨
##올라
큰일
맞다
삼가고
##en
부러워
나랑
##박이
##지나
피곤
자동
안본다
빠른
##우가
수술
예상
자유
피부
솔로
버그
둘째
##았으면
##오면
화이
하이
##장훈
쯧쯧
있는거
##치면
전설
ㅅㅅ
해피
좋겠어요
조카
##이었는데
##예정
와이프
충분
라마
##예능
집중
박해
금방
조만간
이팅
##ㅠㅜ
칭찬
##나와서
저번
##모가
박한
감독
##느라
기사를
##조합
##근데
아아
학교
고양이
주연
전소
않음
##사딘
방구
##나나
##000
생각이
최종
빠져
##트릭스
무료
다고
##제목
##가수
오랜만
##림이
##부럽다
##안해
서인
키스
나온다
##그케
가지고
여행
##는것
귀여운
느낌이
어허
클렘
##ㅌㅌ
##시나요
이쁘네요
때문
자라
마니
불쌍해
건강하게
죽은
기다려
봐야지
없고
##선이
젊은
그러면
##구리
저리
본인이
##줘야
##ol
김태희
##포터
그놈
자리
감사합니다
알아야
잘했다
블루
실패
##수지
케이
강호동
니네
##준다
머리가
고만
미우새
처럼
개못
##조아
개그맨
김소
살아라
무서워
개나
##긴하네
반대
라도
그러게
##드만
민폐
##현석
함께
진심으로
##하실
말도
대본
##극혐
##아직
수도
##있고
##렸어
##hd
간만에
gil
담주
윤아
##리는거
##드립니다
비율
김현
오열
##르네
하기
누구지
##와요
증거
해결
##거든
생기
그마
##인줄알
이사
##어버
아요
##성은
혜교
생존
가카
##인정
##ar
##왔네
신동
##나도
안죽
##데요
대단한
##되요
똑같은
##미는
처벌
##충들
이후
레니
부족
미쳤네
바텀
아우
보기좋
응원한다
아래
귀엽고
있어서
해외
영자
##얘기
##정상
ㅊㅋ
비주얼
왜저래
박유천
천사
다이아
##로는
대학
애국
여배우
해명
버닝썬
사장
제니
##로우
못참지
부담
보임
알았는데
대충
##버스
자신
9렙
##스럽게
##우스
ㅎㅎㅎㅎ
홍수
##50
반응
느끼
에바
##ot
이런게
##누군
탈퇴
검사
찍어
##는걸
##꺼야
그런데
##신기
##는줄
자체가
##멸망
##타임
아마
할배
이자
##S2
무대
##나온다
16
나왔으면
풍월량
##행복하세요
##고은
미스
##이미
##보다는
##괜찮
사망
영원히
안궁금
잘생김
##는데요
피디
##살이
##든가
##건지
뭐해
##때부터
디스
죽음
##건가요
##보이네
##꿀잼
##핑크
##였으면
전화
24
2번
##맞음
##수저
침착
깜짝
하긴
##시켜라
실화냐
정배
기안84
잼나
가만히
##아니다
1도
##와라
박한별
##성공
##보니까
14
##수야
이제는
##지다
이해가
##ap
##년이
##범죄
방장
안티
##영은
아닙
없이
##시즌
##부분
##오늘
##거다
##봐서
##다른
이정도
빌드
죄다
너무너무
먹을
좀비
차돌
전형
너가
##씨도
##먹음
##리냐
알았네
트페
가지가지
가엔
##누가
gilyou
개돼지
승리는
ap
##프트
편히
캐스팅
##로나
##리카
못보
되나
이랑
##먹네
##비호감
재능
가스
정리
갓겜
##같아요
골드
##라라
##아아아
##폭행
##렸는데
##조선
그만해
조이
##세상
##리머
밝혀
##너지
##하지말고
훈수
강한
하지말
##힘들
##광고
다음주
어머니
레이
상황
팔아
##ㄹㅋ
집안
안나왔
##었구나
##가가
잖아
야구
차은
아픈
투표
슈돌
##yo
애초에
뭐라고
두개
아예
있냐
##겁니다
##습니
##그리
유이
교수
##대요
살이
오지게
##bc
##거냐
없애
##계속
##아까
화면
이러다
케니
마이크
##타이
##경이
##이쁘네
17
##구라
##돌림
##시나
안볼
약국
멈춰
신호등
##유기
##진은
안함
제2
위에
##그렇
인상
##이던데
이준
큰거
##고있네
뭐여
판단
괴롭
##그랬
애매
하니
##시기
워너원
##즈니
##쓴다
뭐하냐
제가
##그럼
ㅗㅜㅑ
##보이는데
신고
##하는구나
##뭐냐
##살아
팔고
싸움
어쩔수
오지네
사업
시대
미치
ㅈㅈ
얼굴도
노출
딱봐도
함소원
박진
안좋
rir
솔까
말투
##것이
이번에
##마나
기어
왜이렇게
2년
되는데
로이
##명복을
##무섭
노쇼
##쳐서
하죠
##마음
월드
싸우
먹방
##현은
실제로
이런기사
##지니
##지섭
하지만
고급
##hy
이득
##얼굴이
##예쁜
##받아
연출
할듯
##티비
팬이
##었냐
잘만
##이었음
##gg
하지마라
##왔다
##하라고
웃겼
##20
양준
##미인
공포
##om
뇌절
카사딘
아닐까
인물
##오네
##안됨
##일러
갈리오
신선
재미가
##시에
깜놀
낭만
서장훈
화공
##ab
##데이
가네
한달
새로운
보여줘
미나
파란
병원
##추카
##애들이
시청자
잘됐
연예인들
1박
공유
##비스
이재
유지
리산
##녀가
이야기
##친다
오오
난동
앨범
애들은
##입니
##갈비
건드
##ㅂㄷ
##yodel
나영
나오지마라
사겨
##져요
##ㅊㅋ
다가
##분에
갈아
등장
카톡
세금
##케팅
영웅
##도못
새벽
지는
##지금
3개
어울리
결과
세상에
기대할
봤어요
음식
만화
##하차
는게
닮은
드럽게
##ya
##바리
방송에서
##인데요
##서트
의외
강용
강경
아니라고
##요미
##듣보
쥰내
좋던데
##잖어
로아
드라마는
##인들
미니
문제가
아이즈
카드
멋있어
하고싶
##와이
조정
##봐야지
부인
##이해
살짝
눈나
결승
케미
영어
##상관
보이네
##년전
없어요
박지
마녀
##돌려
상상
##국에
건물
##봤어요
##활동
퇴근
다니엘
##많아
멀리
레바
남궁민
##년생
못이
지효
대통령
들고
안될
인성이
riring
않아
20대
화장실
너네
이선
보니까
##현아
sns
귀신
##겠지만
무리
##자네
후회
든든
##것같다
멍청
##을까요
뜬금
트리
##으러
##분은
##형은
렇게
누굴
스킬
##미나
따뜻
##랑은
##갑니다
##한거야
지성
이수근
비밀
거기서
직접
재미없다
##부가
이상화
타이밍
크게
ㅇㄷ
##방에
공격
##거같음
그나마
만드
삼가고인의
##ig
##되서
##안돼
##자고
아빠가
어째
로봇
구원
거학
쉽게
낫지
루시안
예전에
7범
이드라마
잠깐
##십쇼
없냐
배가
은지원
##돌이
보험
##놈이
도발
결혼식
##ㄴㄴ
변현제식
##아파
##답다
##것만
속도
과거
##정아
##인성
##ee
##겠군
우파루파
어른
##출연
##신가
스피
##장면
최수
##만두
왜자꾸
조보아
난민
##학교
대세
예술
##건강
한판
자가
##조심
##관계
드라마가
마스크
2등
사형
##빈이
##드립
##중이
희망
소지섭
##사님
##다이
##싸움
##운동
장기
아이템
김동
라스
반갑
질질
##내고
이김
##깨비
사귄
##세계
##진아
60
정병
바래요
##es
##쿵쾅
채아
레드
있어야
가카그케
아나운서
##ad
댓글들
도전
보고싶어요
##양반
개노잼
서플
어릴
##어리
매일
언리얼
최진
빅헤드
사람들이
##역시
##이라면
잘가라
먹는
##되는거
##들고
광희
오정
##받네
아버
않았
몇번
대기
상처
드리
##대한
한서
그동안
참나
기계
##시원
트레
##부지
죽이
더럽게
##겠음
##거같아
깔끔
##ww
노무현
박명수
건가
행복하시길
##ㅇㅈ
보러
건모
다주
##든지
마누
안했
과학
언급
뭔지
##되냐
##짜증
돌리
##게이
##불가
밑에
말대
일찍
노답
1억
할만
비비
##이었다
복수
남자들
겠네
##아깝다
유부
동물
##거에요
어쩐
##짜리
##으라고
부들
키가
##련아
사진은
안봤
박민영
##셨어요
##부르
##할수
##부모
사랑해요
공익
안되나
서지수
##브라
ㄹㅇㅋㅋ
알았다
님이
##이없
##겟지
취향
##조사
지면
사진이
카타
꺼져라
문희
제2의
##버린
고맙
##순간
저그
세븐
##봅니다
오른쪽
런닝
암튼
##애들은
좋았는데
##ㅈㄷ
강하늘
##오는
매트릭스
장도
행복해보
##내용
##생긴
##호는
받을
##보지
박신
##사세요
안물
##하는거야
##는디
연기를
00
맞는말
일꾼
##하더니
이딴게
진작
신지
신혜선
이쯤
##봤자
아닌거
우울
노래가
중에
탱크
손절
##맞아
배신
이성
##없으면
타고
재밌는데
믿어
가고
생각나네
걸그룹
슬퍼
나네
##이커
속이
##하려고
이상하게
홍자
이뻤
이렐
행복해
##것다
유아인
##고만
죽었
##무서
브라움
정도면
스티
##vs
##안에
유승준
최소
소닉
ㅂㅅ
리가
군대가
노노
양현석
문신
3년
##키우
마나
나오지마
마스터
폐지해라
관심없다
##네ㅋ
동네
문도
생일
하네요
이긴
효리
빼라
루루태
시간이
##덩이
##오세요
하던데
못하
수사
고수달
가나
진화
김남길
할아버지
김승
##부들
낚시
탈락
별걸
##스런
##때는
##이지만
##있는거
쟤는
##었던
여러분
##간히
##우리
##같애
##트로
훈남
##제홍
인싸
있고
##야해
여우
청소
##기전에
##2일
##한것
##as
##이비
##어떻
##Bg
##쓰고
##아니지
살찐
##인도
이상민
관상
선물
합시다
##나오는
선남
벡스
쉴드
크리
##지마요
##다음
맞나
불안
친일
8렙
##말은
##영씨
##지를
##is
##였지
안본
잘생기
약쟁이
손해
국룰
유일
##선녀
##뭔데
##이안
##Byeyodel
##무리
추가
나름
박성
믿을
##소나
와꾸
##이게
viichanCu
힘든
ㅂㄷ
알지
5코
존재
##아니면
안하고
학자
여긴
쁘다
돈을
들은
##부로
강화
진행
##랐네
##보세요
##일세
가렌
왔다
##릴듯
왜이래
됩니다
##좋고
어쩜
코가
메타
보라
쩐다
피지컬
##더맨
##먹은
##텐츠
##새기
재미없어
이쁠
그브
더러워
테이
##못해
입술
##케이
##아닐
선미
기회
##발이
##한척
예쁜데
검은
반가
아녀
사이다
멋있어요
##걱정
욕심
##한줄
zzamBye
##바람
대박나
##세연
##하구만
##되고
##식으로
##는건가요
지수
##신듯
도경
아쉽네
피닉
구인
##추행
##보여요
##지효
##에에
##였구나
##하다고
많은데
##보라
했지
어깨
거임
안타깝네요
##사냥
사교
##현우
주고
왼쪽
##만봐도
##까진
귀여워요
##버리네
##소식
이프로
최강
때려
##재밋
이놈
언제까지
위너
##안함
잘어울려요
크리스마스
우리도
##둘이
##ㄱㅋㄱㅋ
##불편
틀딱
##ry
댓글이
예고
뭘해도
보기좋아요
와이지
##관종
고구마
무지성
##래곤
됐네
어캐
게임이
##두고
짜증나
##호사
까불
##만이
ON
형도
되네
배우님
고향
##지어
##악플
##한거임
제이
##페미
막내
그니까
##진않
미쳐
##뉴스
카메
##자식
##어질
니들이
##영웅
김혜
모렐
응애
##해봐
최수종
##패치
거품
##한사람
구만
되는거
##이었네
심각
콜라
치료
이뿌다
##리즈
초월
##오지
돌변
오픈
플레이
주는
김제
나머
다야
##잘생겼
어울려요
전문
##힘내세요
드립
갈비
##났어
##주일
##장난
차은우
좌빨
반전
##할게
행복하세
분명
오글
전형적인
잘했
맘에
##용병
류준
안들
##된거
백퍼
런닝맨
도시
시끄
그분
##몰라
##하는거지
##있게
애도
##프레
##일뿐
미녀
##heer
몰려
좋더라
##효니
유행
##았지
신경쓰
##햇네
똑같이
viichanH
부자
테란
##녀석
##보는데
##나와라
##이구만
많아서
기생
불청
##de
보기싫
나혼
배우들
졸업
##배우님
더라
##ha
빨갱
대깨
에효
받고
##여행
##닮았네
말대꾸
눈물이
세라
실버
요리
##30
##느님
힘들어
##42
보다가
아닙니다
아줌마들
##홍철
##반데
몇년
##잡고
그지
이마
좋을
토니
##맞네
##집은
##끝나
우왁
왜들
22
##이렇게
##으시
할매
##이었어
켄치
##하다가
이뽀
##나보다
낸시
점수
##치킨
많음
시절
##수술
소라
나락
아는데
##려는
장윤정
클라스
연하
의리
##한국
##성훈
잘사세요
##세대
##녀들
제시
지네
##에여
나오냐
##학생
변태
##줘서
돈많
##임이
듣고
이어
자기가
무서운
##면제
한표
##쳤네
진지
출산
##준호
강용석
믿고보는
애쉬
라니
맛이
하드
ㅇㅅ
누구임
##애는
비전
##성형
저정도
##닮음
##ㅎㅋ
팔자
달려
볼만
##할만
합의
패배
힙합
yodelayByeyodel
개소리
5시
디코
##신분
역겨
유쾌
##터짐
커엽
뚱뚱
버티
소녀
박경
차태현
행동
##홀로
##it
도둑
다행이다
##었네요
##간지
##대신
에고
안먹
##사부
정유미
배치
##르면
유기
호구
콘서트
주제
집에서
돈도
##리게
##액션
도깨비
##신다
여자들이
보검
##안나
효린
뒤집
돈은
##같은거
위치
##잘함
스킨
방송에
##난거
##실망
어어
확정
##햇다
싶어
카밀
중독
줌마
##바데
##하고는
##이시
spooon7Bg
##패스
걸러
이서진
##좀해라
웃는
##모델
잘어울림
##100
바다
##캐릭
##운드
시야
성인
최민수
##내려
두분다
더럽다
표정이
태연
장사
500
맞죠
##위가
추하다
예쁘네요
you
이경
이런걸
군대는
팬들
빠지
말아
외국인
##장은
귀엽네
##이혼
이제와서
쓰는
어쩐지
서강
총검
비싸
파산
가득
볼때마다
목소리가
##태가
매력적
##고기
##할수있
신부
부럽네
잘했어
센스
류준열
승리가
##레전드
잘생겼네
액션
##마디
호그
앞에
##대기
똑같네
놀랍
##있어서
무식
##버거
아이즈원
조세
지리네
샤코
##순이
##연습
##교육
유튭
싶은
별거
안되는
인가요
##매물
할수있
##들끼리
거미
ok
예서
침착맨
이보
기다릴
그놈의
##하시네요
##걸까
##혁이
##트는
어울린다
##이뻐요
##귀여워
##셨네요
##점이
2차
##가다
사나
##우승
##ㅣㅣ
##축하해요
다크
##못함
간지
##안이
##날듯
실제
안에
보너
##진심
영능
신서
##닮았
언제적
##희씨
스트리머
러브
보면서
99
대마
탈모
세구
감옥
##수도있지
핑클
##로만
어울림
밉상
스마
고기
##음이
멜론
열애설
로이킴
게스트
##헤어
##조용
viichanCu4
ㄲㅂ
##했구나
노홍철
플래
성장
거울
긴장
하시길
크라니
늦게
##방이
그와중에
아름다운
마렵
##둘다
학생
되면
저분
류제홍
매력이
노래도
##예쁘다
##년도
##탈출
마마
##질듯
##롱이
엑스
##미라
조현
임수
와서
##장에
분량
소식
##하는지
자격
자막
##해야함
전현무가
거른다
##월드
##불러
왜그래
너프
##진듯
용기
안하
##토리
쓰레쉬
##아리
봐요
##집에
##일은
오리
##ㅌㅋ
##내라
보기싫다
##물고
원탑
##ik
##때도
##저런
미쳣
역겹다
3번
##그래도
##여자가
##제일
성폭행
##아쉽
한채
말은
현명
장인
효과
##ts
누군지도
케틀
##이구
설명
조재현
##할꺼
제목이
뱃살
##현씨
겨울
##쳤다
##환이
얍얍
서현진
그것도
하던
##닼ㅋㅋㅋ
##바닥
##가야지
떠나
느그
##바라
이스
지겹
##시아
##이로
##임신
운영
##야됨
갑시다
바라
허세
##상도
인증
청하
리븐
##달라고
나은
전역
##민아
생각나
##ㅔㅔ
##나오냐
##쓰네
##론데
유인
이분은
re
압도
제로
##다면
김희철
싫음
##irac
재미도
##때매
폭망
##OOO
꼬라지
보건
체력
도전자
짱개
빼면
열일
협곡
평소
않은
박시
##일도
감정
이면
미인
무빙
##지영
괜찮은
삭제
##웃기
##우고
##대표
##그렇게
귀여움
공효
##눈물
##시러
못생김
##잡아
장자연
##사네
오래오래
종우야
스피드
눈에
명품
포장
봤다
증강
##알바
저녁
##재가
일이
##어떻게
##현실
##연은
성추행
##낫다
##낳대
##작품
##하시는
자르
##일로
선수
##지요
##40
못하네
일어
금수저
사생활
##이터
##조작
유진
오연
##들한테
어떠
계집
신발
아이언
스웨
김나
##아버
##승리
됐다
재밌네
##받을
버리
##cat
##이리
이참
##이슈
있나요
노이즈
##하심
위해
국밥
전개
사실상
피오라
##군대
임마
사랑합니다
##11
가슴이
김재원
좋았다
##야한다
가갑
진짜로
오면
언젠
승기
싼티
레게
##쳐라
왁굳
##질이
무죄
##근혜
주면
결혼하면
혜진
##운거
##인게
##안가
##피디
사람도
사랑이
##랑이
입장
더럽
편안
##화는
대리
경험
심장
나서
부스터
안산
작은
##타기
1박2일
선남선녀
우리는
##올려
##04
개뿔
##회사
움직
오나
와드
##스럽네
경기
문희준
즐거
장재
나오는거
할거
##지도않
한고은
신정환
##TS
에라이
쓸데
주지
##긴하지
이쁘기만
박신혜
이것이
##죽어
일어나
어라
부모가
##중독
클럽
##항상
##쓰면
슈가
안전
좋으
##없어요
##러지
##복이
수영
코스
##ow
버스
응원합니
고민
나이스
디즈니
공장
어리
##내내
##맙시다
명예
##나이에
이국
혜나
살빠
이휘
##징어
##하는듯
MB
치고
##아워
있구나
역쉬
질문이
##자라
되겠네
헤어지
##잔아
##김치
듀오
ㄹㅈㄷ
직업이
못한
##쓰는
말파
내용이
으악
패션
##티어
##받는
##표정
##ul
피박
##인디
종영
불법
##하겠지
보는데
렙업
어디갔
한참
##부는
제정신
##웠다
##먼저
한대
그러니까
박쥐
울어
유산
결혼까지
돌아와
쇼진
지만
##제가
나왔네
##졌어요
배고
##모드
##da
##명복을빕니다
이던
##이더
맞을
잘하는데
##이자
한남들
##구가
레알
래도
##것들이
자는
##Shy
워윅
##3성
악플러들
##카드
##하구
##것네
주식
말해
재밌겠다
사람을
글쎄
해봐
매크로
아휴
##말을
발연기
원작
대놓고
세상이
에코
ㅎㅇ
##자도
화나요
##폐지
##먹으면
##시가
산이
##BS
하정
올라가
좋겠네요
홍현
먹었
보게
아프리카
센터
환장
역할
##집니다
##만하면
되고
##경호
역겹
송지효
##존잘
##웃김
천만
무한도전
싶어요
졸귀
3명
##kg
##아니네
안하면
##어머니
쓰고
##천사
싸가지
경호
대사
33
고백
##어쩌
기대됩니다
여자분
없는거
누가봐도
먼가
뭐래
김수현
그자체
##린데
기사는
이겨내
기획
충분히
##챙겨
연예인이
기술
장가
머독
화가
좋겠네
공주
##몸매
결론
##엇네
ㅂㄷㅂㄷ
쪽팔
회복
##켄치
지도
##트롤
결혼을
##여친
늙어
에요
제주도
장면
하면서
##하고싶다
##기면
데모
##새끼들
##상이몽
##어로
꽃빈
아스
보이는
소유진
아무것도
##한건가
##맞지
후반
어떡해
생활
한무
저정도면
##는것도
티비에
레기
##적이다
마크
g42
귀요미
##르르
키워
플플
##미친
거리
라디오
김제동
비에
동성
시발
##공격
안타까
##앗네
웃긴
개나소나
리는
사장님
##답게
훌륭
대로
구인수
맞는데
입대
뭔죄
되어
크라니쉬
이민정
이따
##yp
##한대
##신은
코로나
##나봐요
아라
아이가
있긴
살면
이참에
##위에
##저기
쿵쾅이
슬프다
아이콘
pc
연말
와라
##였어요
태어
장동건
##팔아
##장구
80
언론
옥냥
##셔도
##피해
##모름
아무나
무기
아싸
이냐
수가
궁금하다
6암
로맨
스파
##doe
##이득
##다운
##긴하다
좋았어요
라는
아까워
넘사
##다ㅋㅋㅋ
##어여
##0년대
꼬리
박성광
개빡
동영상
##술사
##해진
##안하고
모를
해적
##자체가
기대합니다
지금이
##화면
안좋아
전쟁
습니다
##지않음
유병
뮤비
##내가
세라핀
##평가
한다고
##팔고
탈론
잘어울리
##준비
일주일
봅니다
여기도
##들이네
갱플
옷이
몇개
취소
잔나비
의문
보이는데
땜에
여자도
아지
##로가
3대
##하다니
절대로
##논다
발전기
인사
초밥
코인
럽다
윤지
넥슨
히트
아니겠지
##듯이
양세종
이여자
부모님
##할텐데
애를
전지
##줘야지
##실력
믿는다
있으
ch
스카이
기사로
없었
부디
쓰지
모습이
##갈통
제작진
돌림
##시티
##하잖아
##대회
김우
##ㅡㅡㅡ
##졌음
##릅니다
##선생님
##란이
동백
정신나
누구세요
그정도
좋은거
##존나
서강준
불쌍한
마지막에
혜리
강간
스폰
유연
##마니
##구려
원조
##함이
답이다
크다
20년
최고야
늘보
##까봐
음원
지리
이세돌
##어는
스테
##감독
면상
##자마자
않다
탈세
명작
에결
조민
한번만
피바
쾌차
냅둬라
##타는
##성규
##미모
변명
정지
왜안
##비서
##홍보
얘들아
찐따
##자다
낫네
할일
모른다
한가
너무좋아
응원할게요
철수
ㅜㅠ
##할것
어짜
모르고
##축하드려요
김소연
갑질
바나나
미소
김주
아이린
개판
##맞고
##왜저
잘어울린다
깨끗
좋을듯
오달
##읍니다
##아녀
##ly
##사실
3등
좋은일
벌쳐
##프로그램
드러
짐승
##워치
##한지
##레임
안나와
다는
킹아
##작가
분이
절친
하더라
기자들
데바데
맞고
##어케
##때까지
안사
배그
신의
##간거
이상형
했나
##igh
도배
머냐
사무
서포터
##내요
재미는
자빠
하실
한서희
##검사
닮은듯
##져야
뽀뽀
##이건
##행동
않네
기사거리
양세형
꼰대
소이
가보자
손가락
터렛
볼게
만났
소문
개미
원툴
##왔는데
전참
아무튼
쓰면
대가리
##99
애낳
선생
##졌는데
모르겠네
##만해도
##디가
##씨랑
##ong
개모
커피
마누라
실명
이러고
##ㄹㄱ
##ut
kimdoe
지겨워
##장애
##요한
맞아요
어이가
예뻤
동상이몽
##길바
왜그러
##적이네
##아웃
상남자
걸어
아줌
입고
재방
##기억
대모
백신
한예
피닉스박
박해미
막판
##졌나
확률
인생은
대중
스파이더맨
##민호
##봤네
##사자
뭐든
행복하길
잘나가
지난
##있을
있을까
망했
##ㅈㄴ
양반
##은건
이럼
있다고
노란
야수
짜고
apm
틀린
##top
기네
카메라
##는거다
말라
괜찮은데
살좀
스크
잘하더라
##짓을
유난
그러고
##쥬얼
나두
##는뎅
##갈듯
이상윤
##주나
영혼
아니에요
##많다
##이뿌
타이가
마시
##안타
겠지
컨텐츠
좋다고
##만들어
한지
낸시랭
어디감
##으으
답이
예의
직스
##저거
##무시
어울려
##마라
터지
##져스
계약
망한
자세
공중
홍석
##년아
드레스
##넣어
기대됨
않았나
##기싫
남태현
파워
##ㅅㄲ
크로
정신이
ue
spooon7Shy
##로서
##도라
사이온
맙시다
좋아서
##하든
살찌
##어때
여기가
##토스
영원한
##종일
장도연
밥맛
여진
##치지
##해보여
2세
연예인은
패치
##비슷
맞추
완치
누군가
##본데
##구멍
김원
##사과
만난
당장
넘넘
유전
##ㅜㅠ
부산
달심
라이브
##는거봐
가사
할때
가끔
이쯤되면
레니아워
비싼
웹툰
정확
##되네요
##타고
시즌3
다운
##os
201
이동욱
##ㅜㅜㅜㅜ
폭발
손흥
Yg
소미
전소민
가세요
이휘재
tv
##남이
어질
버프
##한테는
##버림
신인
##생겼네
##mr
고마워
##찍고
갬성
##티가
국가
거르는
##해보임
상대가
연옌
너희
##했을
몰라도
모모
##간이
하차해라
핑크
혼전
갔네
##없냐
##달리
광주
강아지
테크
5분
고고
눌러
미스터
안다
발로
##성격
조세호
보살
분노
미안해
##태틱
##써라
잘봤
##일수도
##겁나
5년
21
그립다
ju
럭키
##천재
야무
헷갈
건강하세요
먹으면
으휴
##보이는
전생
is
엠비
##교수
기원
따효니
사쿠
##상식
정답
안들어
하트
촬영
as
좋게
그녀
##쩐다
보아
안경
인상이
하나요
전자
한국인
장지
##래기
심쿵
연락
다르네
있습니다
90
ㅇㅈ이지
재미있게
##물쥐
고멤
##자님
고통
맞춰
아까운
우아
##수심
##바꾸
##나다
이쁘당
얼굴만
김구라
현역
애쓴다
##뒤에
나오고
##어려
준희
##사라
박근혜
개같
기적
최근
##든다
##팀이
싱글
트롤
엔진
수준이
신이
트로
이새기
##훈이
##승장구
한마디
누님
재벌
클라
##바보
버리고
##지ㅋㅋ
##클럽
공효진
빠순이들
에이스
개사기
일진
##코인
못생겼다
면서
끝이
##렸어요
##아내
##살인
시러
안나오면
##직업
필터
##하며
##원도
나아
채팅창
개멋
비행
기사좀
##있었
손담
임수향
##테일
##아무
별게
재미없음
##윤아
an
##부활
##았냐
##서폿
데리고
이중
##신데
의외로
좋긴
이기면
허허
인교
소라카
혜선
관계
김숙
##pl
##1등
##드리
하는구나
적폐
운빨
노틸
완쾌
인듯
자크
연기자
##이후
##거같아요
##찾아
##용이
##시간에
신성
##신가요
##아닌가요
유출
다름
줘라
##남아
갑니다
패스
##zz
결혼하고
부들부들
##까지는
##정지
##가도
빌드업
깡패
우려
별로다
서인국
위로
##랭크
지구
sm
##공주
자나
안보여
말하는
재밌었어요
##ㅅㅂ
계산
이판
오토
##보러
삼촌
##지네요
발광
같네요
건강한
##포인트
추카추카
대화
##했습니다
##매가
##그림
mc
나오나
전체
##되게
##하겠습니다
쉬세요
없을
아내의
팬티
##의미
양준일
##선언
##이겨
머가
##하지마세요
왔네
yeon
##이를
##만은
보지
##ㅋㅋㅋㅋㅋㅋㅋㅋ
##명은
대머리
포켓
##운이
고양
충재
더이상
나이차
##주라
ueun
##는대
이대
##로운
멋지네요
아니죠
##드로
대박이다
나혼산
##우우
##처리
##었습니다
##아이돌
##경기
맛있게
공연
정보
홍어
틀어
구질
드뎌
무슨죄
못가
없으니
2부
필수
##스러움
남캠
한물
선넘
1000
당신은
홍석천
저러고
마녀사냥
##루스
살기
싫은
wakD
종교
원빈
##입고
생긴거
그치
소신
견제
악플달
결혼했
잘생겨
한번도
올인
정이
##해줄
걷자
보여주세요
##시청
##구질
##셨나요
두번째
이하늬
단발
원정상
티파
##오라
##왜케
##그라
빨아
있었는데
이필
##이에
##환아
안하냐
하정우
##여라
viichanHt
멋지네
전라
미화
##오스
축복
##수상
집어
오해
귀여우
휘성
기대컨
변신
##나은
어벤
구멍
그래요
##피셜
에구
##인기
장혁
멀쩡
비슷한
##처음
밀어
oktop
어쨌
##청원
##러들
만나서
지니
호텔
세월호
지내
##들갑
##자를
##ta
##이유가
##고수
##운터
##04S2
##장인
오네
속상
나와주세요
여유
그렇다
딸은
이는
##이랑은
##드려
내세요
고마해라
##여신
결별
다신
한잔
별것도
재밌었음
ㅊㅋㅊㅋ
##여워
##버렸
나영석
##한당
입이
좀더
같애
잘자
돈으로
ㅋㅋㅋ아
##가루
아이들
##버전
박시후
이고
차트
##리스트
유천
##랐다
어디까지
기사제목
##하네ㅋㅋㅋ
이쁘면
남아
스트레스
사면
언냐
##엇다
가게
에임
한심하다
##파티
안해도
태어나
천보녀
시다
##프다
소설
##도는
결정
데스
뭐함
지진
하니까
날아
먹자
새우
##는거죠
특이
오징어
##년에
골목
선배
잘보고
할수
아고
문제지
지하
##라나
부럽네요
빠순이
##국민
##kw
바쁘
어짜피
졌다
##홧팅
차우
##맛이
##뉴뉴
무고
없구나
봐서
##부터가
모야
티아라
##ㄱㅋㅋ
##고싶네
지린다
##기지
돌아오
##결합
장성규
냅둬
이렇
##으론
진국
고쳐
래서
유전자
##ㄹㅋㄹㅋ
침대
황정
다시보기
아서
##집이
##바꿔
소리가
남녀
몰카
##비전
생겨
##단다
놈들
##고싶어
철면
크네
##올리
##하하하
공짜
부러운
덕분에
##이쁜데
300
구경
고인물
##의사
##일에
##받은
빠진
##햇는데
하여튼
레벨
##ㅊㅊ
드리프트
##던데요
홍수현
마블
##목소리
사네
안보고
##히는
뛰어
임영웅
대각
스스로
##매니
에반데
##남친
박봄
##글링
존못
##거네
주가
환영
매직
##인척
먼데
쟤가
##양아치
전투
특히
뒤로
다해
개웃기
##드시
##버렸네
지원
##하는거임
가해
스케
레오
이악
##좀그만
myo
##디션
원합니다
in
##여기
이쁜사랑
뭔가요
홍진
살고
붕어
가즈
##AP
##더라구요
##하려
##은지
도파
대상은
##믿고
리신
##이였는데
지고
##나면
나음
가운데
##트리
이연
우는
너나
재밌는
귀찮
##ur
알고있
##따리
구려
운이
잼민
방법
너무하네
##어용
##이네ㅋㅋㅋ
넷플
황교
건후
아니잖아
배정
오연서
인간들
아름답
##했네요
##저리
전무
대단하네
거북
아니길
남은
기레기야
##좋지
##리언
어울리는
아진짜
우왁굳
역사
##ㅅㅅ
지않
##신거
ㅅㄲ
스페
기만
조여
주자
##말든
하여간
블핑
생각해
공룡
이상하다
##이군
##소속
##Heart
물쥐야
심하네
비트
시너지
김생
##먹었
국내
일본인
##하이
파티
오지랖
니코
엠씨
##잘생
표현
빡세
##감성
잉맘
선즙
##기기
안믿
##경은
지상
됐지
망함
학살이
씹덕
궁금해
증말
새봄
않을까
##리어
망치
##이길
ueun04S2
주먹
##우먼
선언
희생
숟가락
##비율
돈떨어
왤캐
주인
딱히
##도없
박스
##줘도
##찍어
강동
##보드
선예
##을수
두고
할리
##래퍼
친일파
메이
멜로
잘해서
oktopcat
매력있
바뀐
응원합
폭탄
나갔
##무새
실시간
나이에
화이팅입니다
좀만
받았
##보면서
내눈
너무재밌
##살아라
##시윤
##없게
그대
##책임
##벅지
노예
##생겼다
##피아
닮았네요
개발
##중요
##얼마나
##하구나
##도아니고
개망
루난
인게임
##싶다
몸이
오프
##나무
##위반
##선영
웃고
##닮은
그러다
레전드네
##듣고
걸리
버텨
에릭
차기
되냐
이말
학폭
만세
리액션
없나요
앞으로도
셋째
##줬으면
##속도
##예뻐요
김용
##거리가
##계의
##답니다
##메타
홍현희
끝났네
사펑
##동네
송송
##년은
작가가
못한다
러블리
찬성
1성
##나오지
작가님
23
개가
협찬
##22
##개념
##금지
비쥬얼
살지
##스톤
##웠어요
슈가맨
매번
##앗다
##리트
응원할께요
70
영도
##피자
아깝지
빼박
##거예요
철수형
물건
ha
##일텐데
##해짐
가루
가까
쇼미
정석
마케팅
정형
##ight
##대네
이와중에
##2성
안주
오버워치
##벤트
죽는
##신영
드론
##지랄
빨갱이
합방
수염
##인가봐
##선택
수정
정의
김연
엉덩이
이러니
윤세
##겠구만
염병
##놨네
냄새가
어떨
##채널
##르게
실물
##엌ㅋㅋㅋ
변호사
미만
##다행
비에고
##에이
##셨나
유니
##섹시
아쉽네요
더블
##할게요
잘나
하는짓
그러네
##부인
소름돋
##하셨어요
금지
미션
제홍
2대
군대나
김희선
제대
##도르
인교진
인터넷
만원
크림이
##한테도
##보게
골프
다시는
##르다
주진
두사람
##한걸
이라고
##조가
##보가
젝키
끝난
현우
딘딘
토큰
기생충
##뭐가
##색이
##되어
##하는건가
중간에
##능력
##위로
##닮았다
겨우
해피엔딩
누이
어딘
6렙
대가
재밌었는데
죽으면
##쩌네
4등
개재밌
전참시
산으로
한국에서
초반에
##et
보세요
##잘하네
##개그
##엇는데
##어스
저런거
이후로
머임
김태리
손흥민
기사에
조정석
신서유기
##아닌듯
##하시나요
##으시길
잘어울려
고딩
힘들다
마리
우웩
머지
자극
##매매
악플다는
##상태
박살
##것같아요
할말
잘해라
뇌가
똑바로
##하는것
##메이
##되길
##퇘지
##인가보네
개콘
안된
사진을
이혜
리네
좋은곳
평타
김승현
##트키
##데스
##보죠
긍정
뽀삐
케이스
개인적으로
##카트
##신고
왜캐
월드컵
졌네
만큼
김수미
34
기는
애교
여자친구
만만
가세연
안감
세탁
고물
##웃음
##으로도
마동
##복귀
안되지
##수사
로코
##다들
불매
myoya
곡궁
##마가
##효과
##으니깐
잡고
홍탁
##수씨
or
##안궁
재산
##쳐내
탐켄치
초록
##여자는
스웨인
1번
못난
##려야
아프다
특별
밥먹
##영아
##열심히
자식이
계획
장애
모르겠음
배달
##긴데
다르다
맞는거
열어
잘다녀
야발
##ㄷㄷㄷㄷ
멋지고
이걸로
##봤어
##ang
물타기
##지않아
##에겐
##스럽고
##덩어리
또라이
유투
진이
남이
설치
몰랐네
결혼한
만날
스윙
살자
소주
잘하면
방송을
##ㄱㅋㅋㅋ
##함께
개오
마오
##가져
요요
챙기
##요즘
리턴
두명
고준
커서
##컨셉
흑운
만드는
##기의
##12
저주
##리를
진자
귀염
현주
발음
잘했네
대단하
청순
방송국
나와야
주변
그만큼
갖다
템이
##도록
##제이
포켓몬
##해보이
너만
정용
찰떡
##ㅐㅐ
##이였어
빚투
윤종
딩거
재밌던데
홍콩
잔인
##도우
승승장구
한예슬
##모두
있잖아
딜러
##수를
된거
사람들은
모아
##라고요
아이구
##ㅏㅏㅏㅏ
망할
배꼽
내고
이새낀
꾸준
안나옴
건들지
와중에
##재앙
##이쁘고
나왔다
##일본
덮으려고
롯데
최고지
6시
##이냐고
한게
##예쁨
편하게
대부분
너의
결혼해라
아놔
중기
슬픈
##세끼
##잇어
##잇네
문제다
쓰레기들
눈빛이
##겻다
멋있는
알게
1점
치매
##잘하고
##어쩔
##원래
걸레
##햇어
1분
보이지
지들
##여도
##두번
##애기
##빼면
크림
리즈
핵노잼
살쪄
##디언
##물어
아카
방송은
##세구
##관이
순산하세요
참고
되겠다
차우찬
지키
##먹자
이래도
승리야
군면제
쉬운
식당
the
##할께요
##누님
보여요
##조용히
이이
싶네
청원
혁신
빼자
공산
방플
##타지
한글
못막
##규리
잘한
인터뷰
한녀들
서폿이
예인
이새끼는
파파
##추천
억지로
신가
좋은사람
##해여
##아직도
토토
##습니까
한혜
##선생
싸펑
프로브
번역
하루종일
##것을
##논란
##유치
기억이
블랙핑크
##들어가
gilyouH
없네요
##렸음
교회
장동민
##실듯
사겨라
재밌었
5개
개웃겨
##키스
여진구
##왜안
디스패치
##적이야
갑분
##캐슬
나왓
같던데
관상이
##은아
보호
교육
감우성
##임ㅋㅋ
핸드
##발언
나라가
##히네
##을걸
오는
발견
##ㄱㄱㄱ
poongK
아빠랑
##모양
##수다
병신
##ㅑㅑ
##전은
기대중
mbc
살림
##받았
##꺼면
##실화
##잔데
날씬
##대가리
##보냐
##인걸
유병재
일을
유명한
원더
닮아
이기사
어야
힘이
보석
##저분
##입니까
##ps
쩌네
한심한
##웠음
잠시
보답
대단해
고주
똘삼
##나봄
가시
당신이
그랩
싶네요
##아픈
하겠네
##교수님
전생에
##보다가
장미
정규
##자야
##됐어
무뉴뉴
트레일러
시체
착각
소이현
다죽
##버는
통통
##빙빙
한국남자
안남
어마
##얔ㅋㅋㅋ
##튜브
##겠니
았네
mdgdM
쓰네
##고싶은
이런건
싱크
10분
장재인
팬입니다
##넘어
머니
##소라
생긴게
물고
관심없
존경합니다
비호
뭔소리
티어
##대장
김재욱
이때
##돈으로
신화
결혼해
처음부터
착하고
##눈이
신혼
김기
했어요
##난리
##소녀
##스탈
발언
또또
##들이랑
여자들은
##모습이
려요
죄냐
부부가
##머리가
##는거네
시네
##시는분
##몰입
##사진은
최악의
##iki
되요
##로써
사다리
문죄
##컸네
재결합
내리
##도네
전판
##른거
초등
싸이코
별론데
##르자
##할배
훌렁
김생민
##이네ㅋㅋ
풀어
##겠당
소개
공파
아하
##드래곤
정부
황제
바지
##대응
안대
됐어
맘이
나홀로
##이겠지
찍고
있던데
고등
##이야기
##잘하
##말로
애기가
##ru
좋았음
손담비
너무나
##공감
##지션
텐데
##마렵
윤시윤
하겠지
##은거야
모자이크
보는거
##NG
맞어
늘어
##각이
##주니
연상
신뢰
엄마는
나이도
투자
극한
##막장
한방
##었다고
올킬
물리
터트
##는가
각성
이별
선동
죄가
옥주
안녕하세요
피가
bj
ad
아까움
들어오
죽는다
50대
##그래픽
남탓
내놔
파이크
나이들
배려
에혀
어때서
코코
##벌써
욕을
##져도
엘든
했냐
저번에
1렙
꼴찌
수련
##입장
##자나요
##그럴
##야겠다
##당함
트런
안마
##ri
저딴
잘됐으면
##당한
1코
보단
옛날에
##통수
배워
놀고
쿠하
##인건
##나고
세트
##소름
추잡
살았
##하시죠
끝나고
세대
포셔
ㅁㅈ
이니
자존
한건
배정남
다른사람
좋아해
저저
당황
##지노
##귀엽다
보기좋다
##천히
사재
##바지
면제
##구속
ㄴㅇ
이대로
성격이
##돌아가
소년
이뻐서
었다
##va
##앞에
결방
늙었네
세나
마무리
안재
자이라
##걸리
잼민이
모르겠는데
다른데
았다
프듀
##솔직
윤계
##뭔가
xkw
즉시
흑화
끔찍
컸네
티가
혈석
쵝오
토끼
써라
이번판
안하는
할게
민주
싹다
##정훈
강제
조수
밸류
다른거
어지간히
완성
쪽바리
않는
띄워
맞나요
가는구나
했던
추자
##레드
협박
최진혁
##빼라
갖고
정상이
김치녀
검열
##카락
미세
이준기
타격
##임ㅋㅋㅋ
똑같아
초대
##열어
못생겨
##대의
##이였음
막방
##은거지
아이언맨
##래도
기레기들
축하드려
고무
##감사
관련
##을려고
##Cheer
안타깝네
신은
우울증
##것같아
작업
망해
효니
현재
김흥
힙찔
큐브
##있어야
너불
##티스트
허리
착해
##봤음
것들
유느님
몰라서
##lap
아니었
박진영
나머지
수건
정손
집사부
누구신지
성유리
나보다
안되네
##느리
이쁘더라
##한다는
흥미
##지기
어후
호들갑
밤에
버린
집이
##지는거
##주세
누규
첨부터
##있나요
BTS
엄마랑
##복사
빵빵
사귀면
범인은
무섭네
4개
별로임
알겠
##존예
안어울림
못알아
TV
##긋지
2천
않냐
탄생
이경규
4명
넘사벽
줘야
단단
##배기
강경준
이상한데
티저
##ch
겸손
인간이
gde
##내는
##wa
##주제
김준
여자를
좌표
연우
물이
토스
천박
서준
어디갔어
만남
모르겠고
자고
##인건가
괴롭히
안재현이
채널돌림
출근
떠오
모르는데
##이였네
##dol
자제
하아
5천
##이러
2명
##영주
##OP
##러스
##이긴해
##역할
코스프레
벌금
치네
그래봤자
##치료
공식
##bb
1시간
##나여
##먹지
리듬
뭐에요
매장
##거는
나쁜놈
반반
##벨벳
##가봐
자낳대
정재
82
##진게
맛집
평균
##기부
단군
시길
마린
스타는
고추
##적은
##잘한다
걸로
성이
팀원
잘하세요
전략
남자친구
1대
첫번째
##사도
지민이
##돈이
티비에서
감자
됐고
대답
##맞추
##티즌
신랑
결혼하
더러
배우가
못해서
##Nun
해투
##님의
##옆에
그만하자
##났음
매너
몰래
부분
크랭크
박정
저희
술집
와인
리스
폭행
골룸
유튜버
##은혜
장르
유민
개구
상태
모른
눈썹
여주가
멀록
##권이
로드
안달
여적
##야돼
##저렇게
불가능
##병규
니들은
시언
심하다
진출
##방에서
##낭비
하라고
구질구질
##iracl
##후에
##dd
7렙
황하나
##유정
윤정
기사라고
이필모
질린다
뭐하
쳐맞
송이
##조리
##주행
상자
##하긴해
##피스
강성훈
못믿
##쓰지
##마케팅
##리안
흑인
스카
##집안
##그거
짜증난다
인기가
아끼
이용진
먹지
헤어졌
약쟁
##겻네
일상
##기업
지금까지
이들
이완
한국여자
그러지
heart2Bye
늙어서
잘될
##쪽이
즈아
지창
사는게
분들
인공
##루트
xkwhd
취집
오정연
소속사가
가르
##서가
않는다
쟤도
뽑아
소환
##lo
##껀데
##나니
##기어
라위
##멋진
결말
경매
자자
손이
위한
내내
오글거
염정아
##였던
연승
##신경
준구
맞냐
여자랑
ㅇㅋ
징그러
보너스박
##붕이
##어마
직원
##주기
##만하지
성태
욕하는
##하셨습니다
##순신
결혼하는
이정재
레게노
한동
##가보네
잘생겼어
준호
안되는데
빌런
안논다
이주
유인나
이쁜거
##ㄹㄹ
저러다
##넼ㅋㅋ
명복을빕니다
영주
##사람도
낳냐
많지
술이
쟤네
##절대
##스포
동갑
버섯
포자
##웠는데
##나지
##르기
친구가
##간에
동방
이언니
있던
장갑
##할수도
곰보
사쿠라
발악
스태틱
##소리가
안보이
하구만
##주냐
##gu
곱창
이벤트
려고
심지어
##하여
##치는거
##웠어
버거
하겠다
##순위
로또
##xx
##써요
##바뀌
인이
어디에
##부탁
인조
##제대로
그려
##OA
건들지마라
대구
섹스
끌어
지말
##벌레
김치만두
##향이
##먹어서
혜지
싶은데
먹네
##안감
듣기
##숭이
##안봄
대성
##지내
##Oh
정령
##해보인다
##니당
붙여
안나왔으면
1편
mb
##시요
이제야
않은데
##외모
서순
미노
쾌유
한효
##위해
꼴뵈
성우
김정훈
다음은
##머야
##인대
이런것도
나오는데
히키
사이버
존버
탑은
##악질
죽었다
시계
##많음
##타령
기물
징그럽다
스팀
뭐하러
사미라
##느껴
고싶다
김선
##해줘요
장기용
##석은
사귀는거
##러쉬
징징
커버
##시브
성범죄
29
##플레이
먹여
봤음
추방
##튀김
날먹
데요
##판이
믿어요
아리
45
준표
##거든요
어려워
님들
거부
형제
##리그
황정음
연예인도
##현주
##오고
트럭
쓰레기네
쿵쾅쿵쾅
처리
##CL
가방
##튜버
오나라
서른
##빠져
김서
역전
##뭐임
꼴등
예비
##디나
##겄다
역시나
##을수도
믿거
카운터
##누군지
닮았어요
ㅜㅜㅜㅜ
##미지
##보이지
무적
전기
똥꼬
언능
##캐릭터
아닐까요
마자
않고
##ㅓㅓㅓ
##생연
알았어
저럴
##길이
문제야
##났는데
창피
##리라
한혜진이
넣고
##축하합니다
시즌1
조연
뻔한
##댕이
##엇어
가위
여윽
##그런가
안궁
##개같이
##탱이
성별
무슨일
쌍둥이
##나왔으면
한번더
순삭
##야되
##마법
##즈가
수록
힘드
애들아
인물이
있으니
##안하냐
##스럽네요
승부
##속에
먹은
시어머니
그렇고
##것같음
후배
배도
##종국
찢어
정인
##을왜
걸린
##인물
었네
언제부터
까비
##빠진
##기엔
그곳
이겼다
mdgdMove
죽일
판빙빙
발라
##잇음
않아요
기사내
##렌다
애비
##무원
##새키
아따
##서스
고영
복사
인지
##전쟁
천천히
손예
##만하네
사겼
하세
그럴수도
ㅏㅏ
##반대
##땜시
놀러
수지는
##본방
##얼마
안되냐
인지도
하는거지
징역
성매매
오르
##오자
때가
##노우
김보
게임을
##무게
그는
##으로는
##엇음
잊혀
케인
더빙
##왔어
되길
제라스
즐겁
한결
##로도
나를
입만
개극혐
말씀
안어울려
아이유는
중국인
##유지
##사지
##01
가도
달다
카페
거신
건방
박준
##태영
##ㅅㅋ
붕어빵
##많은데
살아요
몇명
총알
##걸이
있네요
##했으니
황민
할까
멋있음
내보내
저글링
행쇼
들아
사랑하세요
##결과
##웨이
울고
근육
양쪽
##싫음
##들이나
끝날
할줄
안정환
th
김비서
##저나
##고소
##먹기
돈만
아깝네
소녀시대
열받
이루
해보자
해골
실력이
나와도
악플이
좋아했는데
##거같은
은근히
##세가
벌어
##갑시다
황교익
가려
하나만
만족
봤네
자연사
캐리어
정국
없잖아
타임
스토리가
사이비
##못하는
##낫네
받아야
으아
##처녀
헤드
안물안궁
클래
삼성
##잘알
강의
##부자
마인드
##했잖아
수은
국뽕
##린이
망해라
몸매가
똥싸
##하네ㅋㅋ
나타
##박스
reva
##개는
보나
어릴때
구분
시기
흔들
나이들어
##각이다
##ㅌㅊ
사시길
시점
##을지도
노인
먹는거
국민청원
##재훈
##돼요
##존잼
건데
##달콩
차단
토나온다
미안하다
서양
존멋
꺼지
##ti
아들은
박보영
##이었으면
##셨다
빵떡
걸렸
##은안
데이트
##ani
##한텐
맞았
어떰
감성팔이
##이김
##음악
##강호
거슬
##되겠네
펭수
어플
##콜라
##같지
##만함
미안한데
안걸
아네
##맞는
징크
##까스
여눈
게임은
가로
그것
권상
##할줄
##팬들
##장을
치속
##여요
이상함
##가는거
##운다
할말이
최후
안봐도
재석
정산
보스
##Nuna
문에
부러워요
##든말든
##일을
갔어
맛있어
맥주
타짜
진은
##이예요
김영희
베댓
넘어가
백수
배경
레전
놓고
설렘
##가냐
고마워요
##장도
##셨으면
생각난다
ju10
##사위
##만나서
먹음
산타
##진진
이혼이
나오겠네
이국주
##줍시다
봉쇄
같은거
##살지
##아기
##이었지
##단계
PC
딴따라
##자의
달아
지창욱
##사나
우왕
차가
##Bb
##테이
정신차려
지나가
가는거
특징
감히
##고있다
##마저
여기까지
꽃길
##지않은
머리카락
##라이팅
##갑다
##희님
진다
고래
손석
수지가
떡상
뉘신지
못받
##버리고
잘만들
나올듯
##놈은
MBC
터짐
##정도는
차이가
##반이
개같이멸망
##소서
미남
##볼까
##할머니
도움
##만의
닮아서
##업자
비해
싫어요
엘든링
나갈
무너
수다
힘들었
예약
##오지네
먹튀
조리
청춘
의문의
##사비
##감은
##보네요
##한남
##으다
##ba
상화
##차이가
아비
심하게
##먼지
##있다고
강한나
##대전
눈깔
짱짱
모양
##시민
리타
알콩
플레임이
##름이
##그마
잘하지
묘야
모르면
지마라
공황
##겠나
배찌
##리엄
##만남
놀라
잘했는데
서운
연애인
쉽지
##이그
김태호
##성기
48
##꺼다
##했나요
기사화
##긴했어
##같어
끄덕
문화
##편은
루태는
규현
시험
##알려
##하셨네
##안하면
##줄게
미니언
크갈비
안좋은
나가라
##애니
연예인들은
막아
##구로
##햇음
축하축하
안뜨
##이서
##하군
한번에
아르
짝짝
2배
못이기
##살기
##십시오
##킹볼
열등
얼굴을
헤어진
##아래
라미
깜빵
##병이
##급이
##ㅗㅗ
sbs
##나쁜
##지ㅋㅋㅋ
##자주
우정
##단이
##으시네
말랐
##기레기
사귀고
##냐ㅋㅋㅋ
예쁜사랑
닌가
힘내세
도라
조인성
신봉
망했네
택시
소중
JY
##좀해
##유명
조민기
가오
없는게
##듣보잡
SN
못된
##덕에
베스트
##해주면
##안타깝
##자로
오랫
우선
스윗
##혀라
빨라
##CLAP
징글
일은
했다고
주차
##담이
잘어울리는
위해서
정권
##보는거
서민
26
연장
좋습니다
##뎈ㅋㅋㅋ
벌써부터
##생기
##겜이
정우
##세윤
##실패
##부족
하길
##서야
술마
성형전
마렵네
##알고
영구
저여자
##기사가
리틀
암별
중립
근대
비챤
삼식이
##줄알았는데
남자들이
주문
##박사
조금만
급이
봤어
직히
칼리
박아
합류
가죠
##좋네요
따뜻한
맞긴
##생이
##각인데
재밌지
봐야겠다
계란
##어부
얘들
정준하
있죠
인생이
##듀오
##해줘라
는건
티나
힘내시고
머리에
헤어지면
안할
##ㅉㅉㅉ
사자
구구
어쩌다
##으려
여자의
##건이
나쁘지
몇살
매우
##개가
##귀신
##입대
있는게
몸매는
ju1050
1승
안현
차짬
##님들
##했나보네
##희롱
이명
되나요
떨어지
도구가
##고가
##없으니
감탄
누구랑
##잇다
예진
웃긴다
##새끼가
##같아서
##스티
짬뽕
가리
오더
조병규
못봐
용준
킬러
안하나
아구가
##셔야죠
조선족
##한것도
김흥국
##인드
아시
##해야한다
안됐
##턴에
멤버들
##범이
##하신분
타워
혐오
금요일
##베인
이제그만
지방
천국
##에만
전지현
눈을
##은왜
가지가지한다
이글
왕따
지들이
##써서
다를
지우
별걸다
##밀리
어려운
김남주
##했을까
##처벌
줘야지
poongKiki
하지말고
##버튼
쉽다
##풀이
조회
에일
하나는
광대
구하
빅헤
##ㄱㅇ
6학
어쩌라
유유
빙결
화려
린다
##르지
꼴페미
##감동
중계
디아
세상에서
님은
##ㅎㅋㅎㅋ
힘들지
을듯
요란
##ON
##abb
이도
신곡
##만드
##인배
데드
최애
돈주고
완벽한
##노답
조기
자한당
##ㅌㅋㅋㅋ
##련이
라인전
봅시다
시켜라
더더
##천지
쁘네
영자언니
##을꺼
한듯
##울듯
콜라보
전사
치면
##가는구나
개봉
이쁘니까
한채아
알겠다
속도위반
남성
이부부
##겟는데
사귈
골목식당
듣는
##들이야
사서
여윽시
시나
축하한다
##일반
개웃김
첫째
ㅇㅂ
##정화
강력
##상황
##모르겠다
야동
플스
하는건
##이더라
메갈들
ㅇㄴ
단어
반짝
관심도
이광
##TA
##투리
닮았어
##대사
히오스
저질
##병원
불쌍하네
야망
똑같다
먹어야
지능
송민호
##없는거
##일때
왔는데
##그널
나왔음
##으라
나은이
우리집
치는
##회견
##사랑해
여기는
능지
##놈아
##수로
##답답
길어
모기
안보면
##해머
악플은
개이득
##민씨
하지않
##다다
개구리
어때요
##세트
##시게
스탈
이나영
비행기
##프가
##기분
밍키
##근이
ㄱㄱㄱㄱ
바른
텐션
##97
말랑
써야
##즈는
심심
##치다
ㄱㅇㅇ
##퇴출
신나
##작은
다같이
##잡네
##아름
라서
어도
돈에
모니
판박
없었다
##안되는
1시
##퓨터
싫어합니다
최우
엄청난
ㅇㅅㅇ
괜찮아요
##연패
윤식당
##음식
여적여
뽀샵
##멋지다
왜그랬
잘해요
##고정
놀랬
비난
재인
재밌고
고생이
잘하시
키아나
##형제
집단
한혜진은
대장
가족이
손잡
##라시
이커플
형이야
서태
셋다
##부다
##해ㅋㅋㅋ
돈많은
##ood
야이
##지우
##uu
거결
돌싱
##기들
한국의
1회
여론
기자양반
##말도
신동엽
멋있네
no
##졌으면
운다
오크
아역
써니
최선
날라
##고있어
오세요
##재는
노노그램
##정을
손나은
연좌
zzamCLAP
##몰랐
영화는
잘가요
바꿔라
톱스타
잔잔
질럿
파밍
##사냐
##바랍니다
케이윌
6개월
1개
##tv
사귀는
이시국에
만나요
어질어질
강식당
SM
거냐
하나씩
즐기
유부남
##음ㅋㅋㅋ
재기
가냐
##만하다
후속
나빠
그러니
##정도로
볼수
노산
송혜교는
죽네
크리스탈
찍은
히히
##보고싶어요
##분위
##하지도
##축하해
##한거냐
ㄱㅇ
##희야
##님을
나간
김나영
리고
악역
무난
이악물고
생각하면
뭘까
윤종신
##여성
##기전
송승
믿습니다
아무무
예뻐서
내년에
MC
광수
시공
##상종
동매
결혼해서
방어
가보
몰랐는데
교체
기다리고
핑계
##모그
시원하게
핀냐
이만
진작에
##레인
꼬꼬
##긋지긋
##마술
##가세요
전진
##펀치
민초
사골
##경찰
만나면
옵저
크으
순진
##거같네
속보
ㅆㄹㄱ
천생연
기대가
##매니저
##먹방
##과의
뭐니
생겼어
##너스
있었네
가능한
바루스
##리롤
살아있
기대할게요
42
이분도
박사
박형
##애애
##이미지
니달리
알면
좋겟다
캡쳐
없어도
cc
##을거같은데
반지
가진
55
살살
여기저기
나을듯
##실이
##미스
##라딘
ㄴㄴㄴ
주접
다음에
어지럽네
##마지막
가발
##못차
##크네
사이코
진리
##rea
개돼지들
##할려고
##하시면
##Clap
##무대
이뿐
##버리기
이혼녀
술먹고
이거는
##보기싫다
오늘부터
건강히
kbs
객관
기절
##스톱
##an1
##좋아하는
발표
최초
카드가
##해보자
나르
##an2
녀석
##놀이
화나
홍자매
모지
닥터
##해야해
고생많
몰랐다
넣으면
##얼굴에
##스토리
주진모
##수아
##왤케
필모
현빈이
##는왜
사랑한다
기사냐
##크다
집착
배우는
##님이랑
이승윤
##해주네
윤지오
사진만
##데려
관심이
왹져
##먹어라
##아ㅏ
##인증
올린
존윅
나눠
##했구만
저것도
감방
잘못했네
골라
OO
##미팅
기안이
서울대
##가슴
##노무
사랑스러워
살다
경쟁
힘들겠다
함부로
시선
가인
는다
##정부
내라
##히면
27
chod
##거스
정은
동생이
말든
컨트롤
지렸다
##만든
엑스원
흘러
오달수
ㅈㅅ
하시네
이제부터
미모가
하러
##블루
잘되길
클릭
이집
나오세요
나온거
오호
문어
치킨랜
##잘살
##비를
된다고
##작권
은거
##느끼
##야할듯
##해봐라
##리수
방귀
드라마에서
##딸이
##미드
좋아하
##셨는데
결혼할
##에다
가나요
솔지
##같네요
볼매
의자
같지
끝남
플러리가
부럽당
##쓰는거
시리즈
의미가
##날이
기다리
##ue
20살
이채
##하셈
##배는
##해놓고
##안나오
독성
##점점
레드벨벳
##엔진
통수
##pr
재미있어요
##의식
하루에
본거
##ve
##하세용
##무도
새끼들
공중파
유일한
손에
귓말
초심
cd
시상식
고영욱
신기하다
떡락
받은
비디오
##을것
못차
##줄이
목숨
##하자나
##포기
##갖고
이쁘지
지인
었어
별로던데
예쁠
36
상큼
##색히
안내
도경완
##사교
##방탄
뒤에서
##잘하는
잼나요
래퍼
상이
##누군데
발작
짝퉁
리에
목표
인정이지
##엄마가
150
어쨌든
천만원
검찰
저렇
망상
cs
##77
쿠키
##멋져
##하루
안늙
고티
al
안한
##이든
병맛
이세계
##러너
드려요
그나저나
##발견
딸기
##봤으면
버전
들을
3분할
없다고
않나요
패시브
##잖슴
점프
트런들
비상
웃기고
예쁘긴
miracl
구리
##우네
##오름
35
비벼
똥겜
당연한
자매
##원영
##미화
그래픽이
팬들이
모든게
##아닐까
르블
##케미
시골
##도그
ㅋㅋㅋ개
종국
씨발
합니
누나가
##안한
신성록
죽어라
##형인간
##은정
##하고있네
##확인
여준
몰아
있어도
##2개
김정은
들었
야스오
나한테
##부른
개추
쩔어
봉가스
양아
조덕
블리
이즈가
수지야
볼수있
하다가
아씨
##하지말자
보이스
안봤는데
도장
보고싶네요
gta
허벅지
##넣고
##자이
가지마
이번에도
개성
김부
서인영
나올때
환불
저기서
##있네요
##면가
때리
##데기
어디로
##받아라
나이를
신가골
잘했어요
아스달
아티스트
미개
한창
5범
##JA
페미니
휴방
##야죠
굴이
파국
##앗는데
이분이
정준호
##해체
신병
##로리
자빠졌네
남자들은
왜저러
##졌네요
싸워
크립
고르
##살려
##업이
노관심
시급
##망신
방송이
##마냥
두꺼
관심없음
크면
이미지가
##인형
##사를
##해진다
##코스
파트
화질
##주는거
향미
잘하던데
##쓰냐
연기로
마다
3천
나오나요
돈보고
실망이다
이네요
##증강
모르지만
백년
자기관리
박진희
뿜뿜
##차가
궁금하네
뉴욕
##웃겼
좋아함
##의원
##랬는데
외모가
기대되요
##맞다
보이네요
어림
창고
한방에
다큐
##화장
##저건
##눈나
재밌었다
으이구
##저격
##나왔네
스포츠
쓰자
박나래가
기사만
##먹는거
에이미
하얀
##집에서
육아
기운
믿음
##게더
쉐옹
살길
##짬뽕
##근본
##걸요
##으려나
##넼ㅋ
폭력
##뚝에
났네
알았음
##걸스
올드
##할뻔
##인것
김다
리그
입갤
종현
##혀서
순위
##행복하게
넣자
##졌냐
##이었나
##이자나
아니였
##우드
##손해
##이스트
최대
루머
##쳐도
뭐죠
준영
##블랙
외모는
알콩달콩
0점
찰싹
600
그런듯
##주인공
왜이러
생겨서
##ㅅㄱ
##웠네
걸려
##전문
있을듯
윤계상
##애를
응원하고
2회
##말던
안영
##졋네
준내
천상
익숙
전현무는
##이쁘게
지저분
##됬네
미성
용발
de
메이드
이름은
유미가
유산슬
좋아하네
미워
네이
타렉
##석아
올해는
##안해도
만들자
죽어도
##세탁
미안요
지연
봤으면
##못생
빠이
조여정
영향
나미
##레이서
김국
남양
##제비
결혼도
민아
조윤
자네
대박이네
군대로
명수
드라마에
털어
SNS
깝다
##겠더라
##지않다
##지켜
선처
##했겠지
##데뷔
왜나와
##브스
##십니까
##us
안돼요
약한
이엘
##봅시다
놀아
있는듯
컴퓨터
백지영
##재밌음
무무
##히트
##하나는
##알지
올리지
스위치
귀엽네요
오진다
어울리는데
아지매
##미쳤
냐고
이진욱
앉아
호박
물론
이영애
구원파
me
뻐요
백종원이
점심
##해주는
킹받네
보는내내
##손으로
알파
재활
한수
마동석
적당
정용화
##됐음
궁합
니고
지금이라도
##Ts
죽어서
흥행
##1도
##Zer
이민기
랜덤
##사람들이
##시킨
##리티
##누구냐
4코
영태
##롭게
밥은
남편은
성희롱
뭔일
##좋던데
12시
맞는듯
캠핑
##연승
처형
착하게
##징글
##좋게
대다
꼴깝
민호
일라
##아재
정신병자
##돌리
##잔치
##라이트
아주머니
여기에
그랬어
사재기
기성
얼음
발암
##19
미친거
노사
뭐냐고
토요일
##겠냐고
##철이
마요
차피
못이겨
매주
##리앗
##했었는데
드립니다
무릎
없던데
##한심
나와요
##뚜기
아기가
스카이캐슬
철면수심
##량이
단체
즐겨
출동
연예인병
딜이
##ㅁㅇ
출발
##하나보네
##인거야
루트
##기준
인맥
##거봐
너무좋다
같아서
##팩트
구혜선이
메모
괜찮음
춤추
고3
##루나
##으심
마이크로
길게
망가
44
##하느라
김경
는듯
##구는
##소가
##바다
##꼬라지
##미안
난리네
카르
##하실듯
개카
##와도
남았
일요일
##멋있다
굿굿
##점은
코미
이번주
##어린
비호감이다
하려고
##완료
떻게
##상욱
##수리
##안어울
압도적
돌연
드가
빠르네
나중
나라를
##미니
레즈
##무조건
##추가
지현우
글로
##해야됨
개지
지각
있었어
불렀
나뿐
##편이
##미녀
##ㅈㅇ
맞아야
##보이네요
유일하게
가가
나디나
##선물
마마무
끌고
##닮아
아유
안써
##죽음
예수
약해
웅장
콜옵
증명
##발표
열등감
하고싶다
고주원
엘리자
주네
##좋았
인연
##슬람
사랑입니다
##오오오
##나오지마라
miraclM
남매
##빠지
진상
김우빈
드세요
##이었구나
부검
시민
따라가
##바위
##ㅈㄹ
##치게
건강하고
##일차
아름답다
했겠지
##유가
마가
##집어
기획사
신청
함정
나이차이
열혈
##아쉬
웃기다
##실수
개명
여름
##도시
다섯
소화
유재
JYP
누구나
어제는
퇴사
인천
지긋지긋
어렵다
러너는
진부
잘생기고
도망가
놀랐
2주
그만하고
아형
잼나게
후보
##Cry
##냐구
누구여
밝히
##했는
##아아아아
장훈
##한명
팔이
##맨이
##등장
하지말자
##유예
chodan1
잘봤어요
이노래
정형돈
못하는데
##살자
밀고
아부지
신났네
유재석은
##것지
서렌
탱커
박수홍
되서
##퇴물
##겄네
##정글
여워
살쪘
##남자가
육지
수능
거인
김병
독립
얼려
##배우들
##승연
필립
나이는
스캔
못하고
자신감
죽이고
어벤져스
##린지
있었음
##ip
환자
75
괜찮다
성형은
6년
어울리네
민망
많냐
송은이
윤세아
##인거지
윌리엄
믿고거
언냐들
##장에서
가능성
제드
이장
김학
재현
중졸
해인
##안되나
쓸데없는
빼도
여태
보수
##런지
냅두
연패
##셧네
자르반
맛있다
기자들이
모르겠지만
##재미없
었는데
서브
니는
비공개
완료
천명
거시기
풋살
##방은
멋집니다
##한건데
##긴하
미인이
많으면
##갈때
정신나간
##타가
##물에
##되니
레킹볼
못할
초기
김사랑
판도라
결혼하세요
송승헌
##여자들
이유는
유연석
차기작
못하면
나비
하시죠
조건
##투표
##입은
가챠
발정
잘생기긴
##유진
꽃빈님
##맨날
하는지
읽어
##멋짐
닥치고
짧은
##그대로
##꺼져
키아
연예대상
고맙다
##무섭다
니라
헤어질
논다
##넼ㅋㅋㅋㅋ
긴해
울지마
##갔으면
멘트
바이브
신혜
불쾌
우짜
##급이네
ㅇㄷㄹ
##정해
##준아
##서는
에스
조커
##갑네
양파
스킵
##오냐
비하
##ㄷㄱ
많아요
##앜ㅋㅋㅋ
##별루
오프닝
신지드
늘려
##덜덜
강남이
이민호
es
말하는거
맘대로
붙어
오케이
##응원해요
잘먹
##사회
##변이
살빼면
유유상종
이상하네
권나라
주의
##서도
법적
참지
생각남
달리
월클
##금이
사라지
##그렇지
없습니다
인도
국회
않을
영화가
이홍
##라운드
흥하세요
##할일
돈좀
너무좋
##좋겠어요
안되나요
안한다
##하냐고
보냈
엄지
##ce
##준거
람이
##다은
이온
##정한
들려
##ra
##수있음
감당
##성우
복하세요
##댄다
약속
울컥
어딨어
##났어요
##지않냐
신중
포르
반복
업하고
누구에요
맞춤
모르네
받아라
##연기는
기분이
크고
10억
배도라지
분위기가
채워
##버그
dop
신기하네
##ae
몰라요
빠르다
자들
##어어어
적은
사냐
월급
##뭐지
##더라도
##했어야지
뭔상관
##꼬리
##받아야
##하니깐
개모태
했을까
예고편
##안남
##챙기
김창
봐주
엠넷
오메
류승
배운
마른
사야
아야
이태임
##질문
##고있는
드랍
청와
결론은
ddol
##을라고
스시
소나
아갈
미쳤어
카스
떡볶
개쩔
제국
##나오는거
##계약
##Lol
fd
우도
##에스
유노
사죄
가왕
미국인
##15
냥이
서지혜
경솔
##기원
없는듯
##부네
적응
##코리아
나이값
방구사
##소스
##어렵
워모그
##남매
차승
##놓은
##으며
안하네
지름
앞에서
##짓말
고로
##스데이
AD
김진
유사
asmr
스노우
많구나
미네
이아
##거리는
리더
대박이
이불
##멋지
앞라인
네ㅋㅋ
보정
니야
이명박
37
와사비
망했다
살아남
경리
수현
치즈
천생연분
그것이
##울어
민경
옵치는
##우파
##렸나
##메이커
추락
##뜨면
##카인
##aa
##서치
애인
안받
##들이지
암살자
늙었
##방패
##뭐해
주무
##나네요
강인
나왔는데
탁재훈
##했을듯
##동근
댓글에
안봤으면
있었나
##군여
##수정
맞으면
##나는데
먹고싶다
##id
좋으면
나야
후원
##수영
##는다고
레이스
몸에
강지
못먹
##순삭
입은
잘어
##제도
비겁
한계
와진짜
드래곤
박상
직도
오공
저사람
색깔
##로워
응원함
김명
버튼
친한
가볍
김상
선바
##안된다
무거
성실
트라이
정선
개그우먼
육성
돼요
##피는
##함ㅋㅋ
뭐고
김혜수
놀람
##재밌어
##터지
##적이고
넘모
힐러
##일보
아이유가
설렌다
천원
스튜
이보영
지어
당신의
사냥
건가요
손호
양말
오만
##전환
식상하다
슈스
안간다
진심이
##소울
휴가
어둠
신드라
##지용
##되나요
pd
안지
미혼
재미로
반대로
##여우
외계
기대하고
새삼
사용
말하면
##배가
ㅂㅂ
##구도
미라
##갈수록
예능은
##죽을
선한
슬리
##장고
##불쌍해
앵무
폭풍
도시어부
##주제에
도적
##셨음
##있던데
##충이
안정
##살에
기름
힘든데
이왕
흔한
##시렁
##간다고
##빠빠
용식이
##수수
3부
애미
몸무게
노래를
떨어짐
넘쳐
##린듯
##까지만
##죽이
무고죄
달고
##리스마
세월이
보기좋네요
ㅊㅊ
조성
평가
##18
조합이
최종범
숨결
그렇다고
구글
##언이
##도둑
사가
한칸
회장
##갔는데
##데레
아무리봐도
##버렸다
##됐는데
뜨면
김민정
모바
기대해
##친거
##으나
찾아야
##마시
##Ang
##타이밍
##르코
##재밌다
내꺼
30분
##하는중
28
##공부
##ㅎㅎㅎㅎ
##을게
기대기대
지존
임포
##연기가
연결
조각
9시
성규
##마약
##었나요
뭐하나
적이
##블로
출연료
자연미인
##이였다
강은
##졋다
얼굴로
사요
하는거야
놈이
그러냐
ㅈ망
봤습니다
##이번
##릴라
##시켰
으니
졌어
##아네
##치열
나는데
st
##호그
##볼수록
##본방사수
뒤질
아니었나
노이즈마케팅
일반인이
##노스
어쩌냐
바래
놀래
##대지
곱게
매물
##이없네
기원합니다
하다하다
불편해
폭로
##라이즈
하고싶은거
침장
##화공
알면서
하겠
래픽
웃겼음
심은
마음도
웨딩
##보기싫
언니가
관상은
##슬퍼
##짘ㅋㅋㅋ
실검1위
작작해라
숙청
김준호
심리
여럿
다나
수수
##만화
최자
털털
##겨라
##아는데
망작
대처
못하는게
남들
심해
닮아가
히든
방구석
민수
한개
잡았
##좀요
메인에
rabb
귀여운데
더욱
기를
##재수
기자는
잼잼
삼시
##so
##독교
쌍수
지워
설현이
안보는
##있는듯
모르나
##린게
##롤체
그웬
반말
##토르
옵저버
마카
##한거다
##번호
죽무
는구나
##조금
##온거
한동숙
신봉선
뜯어
##것같은
##진씨
가격
##의신
옥주현
##모자
안변
수저
##억까
##도리
보려고
oktopcatO
흑운장
번호
ㅅㅂㅋㅋㅋ
##맞나
맛잇
##판에
##상을
##어색
31
신세
펀치
##aj
병헌
송혜교가
킹받
4년
주상욱
##스나
##지말지
야숨
정도는
##이겼
##상무
##주님
##안하
마리오
##버프
##템이
평범한
꺼내
만나고
살인자
##렷다
##욕심
웃어
##있습니다
##렷네
한숨
##세다
##미리
##hat
힘내시길
강민
대기업
오구
##하지않나
용접
팝콘
##ner
자연스럽게
힘듬
남주가
종수
he
싫은데
멋지게
##설레
n97
##줄은
##은요
pl
연인
수호
##종이
##모야
롤체나
일러
##줬네
한별
##할거면
더그
었음
내부
극복
터질
##버티
##실검
있게
##레이드
귀여웡
명복
조심해라
오빠가
권상우
자러
김성령
##을때가
설리가
노브라
말지
##re
성격도
3시
##던디
##잖음
대지
입에
디게
##꼭지
생명
##저러
##힌다
볼거
##부턴
쓰냐
##디아
##ff
박형식
so
##누구야
##은좀
야방
피아
##25
오브
사전
##ㅋㄱ
##일만
뮤지컬
드라마를
몰입도
싶어서
있었다
##오브
기자회견
엘리
##조이
베이
##자인
무사
접대
이기는
##하는사람
소름끼
팬치
##여야
##uk
2월
천장
힘을
시비
벌레임
신현
중2
부자연
김서형
##TT
2000
##필드
##보구
##케이스
##솔직히
평소에
##적임
이쁜듯
응원할게
고장
##따로
##확실
##ㄴㅇ
살쪄도
똑같음
진영
##재산
며느리
##네가
##여왕
거르
##렉스
##장갑
트럼
다른건
루덴
##폭력
##겠구나
거긴
##말자
##낳고
##듣는
굉장
겼다
##ST
##게늄
동양
지아
##두분
스타매물
꼴뵈기
##기대된다
문재앙이
뉴비
##여자랑
gilyouNuna
우결
##이아니라
프로는
저작권
불리
##대통령
빠지면
사시
칭찬해
망신
전소미
나은데
토마
인거
##지않을까
판타지
죄송합니다
범조
머리는
잘못된
12월
##나라로
수련회
토나와
##김에
강동원
독보
엠비씨
기럭
탄핵
요정
부끄럽
싸다
이여
나나
하드캐리
치워
##아이가
작년
##앨범
##스킨
##때려
생각을
##인줄알고
감초
잉꼬
왜그
우유
파랑
##불쌍하다
가는게
##하는것도
소원
수고했어
친구들
그래야
##과는
##런스
##성을
여왕
김성주
##애도
##하더만
##기안
느려
방패
##위키
##해봐야
윤은혜
to
##카림
##속이
남편분
##도와
##상수
말로
장현
##판은
##이었어요
##대단하다
무뇌
run
인간적으로
##리는게
하시는
어마어마
##컸다
여혐
노래방
##제는
구토
##정신이
##치로
이요
##잘생김
못본
##할지
##드가자
꾸준히
둘중
##만보
##이상해
##그래서
##귀엽네
검색어
##성도
가족들
햄버거
을까
에이핑크
##영란
히키킹
장수
유미는
마닷이
예측
##시스
##HH
입양
귀엽당
마음에
##진국
닮았는데
다녀와
만드네
없죠
##팡이
생긴대로
닮았음
이쁘던데
##롭다
마스
아바
n97a
허경
방탄이
전국
##시키자
화해
##테니
이하늘
김고은
페이커
빌려
상폐
##크루
한시간
##서로
보컬
분은
##훨씬
초코
기집
나왔던
##해주지
##드론
##강화
미성년
분수
##에서만
쳐먹
##하시지
##캐스팅
받는
줘요
아프지마
참아
##tbc
##wo
##렸지
윤상
##셨어
안아
##연하
##의가
##게이야
##ㅡㅠ
정상은
이성경
사무엘
##보이고
아빠는
동남아
##키니
##인가여
##ho
##치자
##졌지
컸다
##치도
##곳에
집은
##판단
##날두
cdm
##하셔
그런건
rabban2
##체스
기여
##난듯
마지
애한테
20시간
높은
저쪽
합격
##이걸
없으니까
환상
목소리도
디테일
커마
팬미팅
좋은듯
##합니당
400
공인
##고싶어요
문제임
어이없네
##제작
##달려
한쪽
##반응
오마이
##모는
하더니
##닮아서
다리가
합성
안잡
##달아
보고싶네
이뿌네
루태야
아이스
클라라
씨엘
##했지만
개좋아
##망한
##얼굴은
간장
사극
##주연
##추리
화내
##사에
##클라스
##파이어
니도
##대에
변기유천
치명
##바래요
진수
아이비
좋냐
##르신
노래만
##못하네
고물상
7병
아픔
클론
##키고
##준상
치트키
##kf
고집
옷을
습관
안나오네
##었을
줘도
네가
손태영
종이
주제에
##도망
잘하는거
한때
라인업
아름다우
##거품
##작이
pt
조져
##회복
##겨운
##시청률
힘들게
통화
##사람들은
##해주자
모래
비하면
##드레
##중국
시장
무지개
##나오게
##고있는데
로맨스
꾸미
뉴규
비공
조폭
마을
##코가
흐름
##이라며
남자보는
##보급
##이라던데
거다
우째
오뱅
문열어
여푸
woohanTs
##한놈
한국에
화살
2층
인성도
고작
마흔
나성
##시라
황민현
##어야함
잘봤습니다
84
아가리
##이너무
교환
치킨무
미모는
했구나
멋지십니다
en
모두가
이기네
조심해
##부대
##된다고
말만
안되요
##팬이
##기다려
##설정
명곡
경상도
브란
애들도
##ex
사랑은
인조인간
38
안영미
전원
##냐ㅋㅋ
##똑같
박소
ㅋㅋㅋ진짜
##은퇴
##들만의
사랑스럽다
##었는
##멋있
##판왕
재료
##쳐먹
애나
하는듯
초가
##뻔뻔
##펜스
고향이
바랄
쩌리
##나오고
징그러워
많고
##ug
먹어서
##키는
최고임
맘고생
오랑
##한수
##마스터
비가
##알아야
##공연
조교
하신
디바
크라
##졸라
마네
결국은
드라마도
해야함
스윙스
딴거
조회수
처녀
이뻐라
셀카
##렸으면
헛소리
##형준
##적당히
##센스
군생활
재수없어
정소
워요
##렌치
터뜨
##부리
사랑하는
##가게
쌉가능
남자도
못잡
사일
실검에
Cheer
온유
##이쁘네요
##무서워
포토
부부는
재밌을
문가
워낙
팬이에요
흑우
##갈이
ㅋㄱ
##따위
##저히
##차별
대전
와아
##과함께
기사도
##거리네
ydcJ
##리세요
해줄
간이
##면서요
아파트
##꾸로
아트
##안본다
##키가
##연기도
띵님
정유
해줘요
어따
코딩
하나같이
##구야
##배우가
미운
폴트
못하게
##자살
한효주
본인도
am
콩후
크흠
fv
##나오는데
전설의
불가
##볼게
일도
##끼가
##욬ㅋㅋㅋ
##통이
##낫지
산책
##시야
인다
허지
미세먼지
##만하
장난감
많네요
이빨
##봉이
##ag
김치년
이뻤는데
낳고
서든
오늘밤
##느낌이
손예진이
최진실
바뀜
##당이
김다미
오라
##이였으면
치킨랜치
안했다
##인데도
##연씨
##개를
악령
꼴보기싫
애호가
##한거같은데
##에나
개똥
튼튼
##우지
모가
너야
무조
스턴
4번
##정권
잘난
월요일
##일체
말던지
##낸다
문근
##크고
다하네
유느
부탁드립니다
##정원
좋아하는데
##지로
##올듯
##펑크
시켰
##애랑
##지는데
배틀
인생을
마셔
결혼이
하지마세요
##포스
운명
길다
자랑질
철이
이러다가
아침에
##힘내요
김성태
jin
서버
연애의
떠나서
##만도
##ㅡㅜ
삭발
다행이네요
##지니스
개리
꼴값
##에바
추자현
심시티
##율이
##했노
탑이
보구
피카
여동생
보미
심술
나얼
편의
살을
##편집
한번씩
가창
워해머
맛있는
파라
업치고
아이디
##트맨
##함ㅋㅋㅋ
잘만나
만에
##해주고
있으니까
##허네
이쁜건
올라오
다르지
인피니
##건들
판박이
홍윤
문제네
do
##는거에요
##사제
이해불가
기삿
이윤
##검색
##빠이
진지하게
역겹네
##의심
##그게
둘은
태불
한복
##스토
됐는데
##버릇
수치
##축하드립니다
의식
대깨문
핸드폰
연속
##조차
##야하는데
보고싶어
드러운
아침부터
마시고
베이비
부릅니다
##멋져요
##련들
강추
훈련
##오랜
##오글
인팁
##드백
라이엇
경수
드레
대단해요
yegg
훌렁이
한강
##채원
쥬비스
지독
만들고
간신
살아야
90년대
같기도
##잘어울려요
모니터
##파이팅
##없애
딸도
별이
유부녀
바꼈
김민희
##보나
##주에
다르게
##OT
##하세여
알고싶
남자다
##니까요
난리야
##본드
##레이션
부인이
변호
##폭발
김주혁
이은
동백이
7년
유쾌한
잘라
ㅡㅡㅡ
남자랑
종민
##분들이
믿는
밝은
만약
##위험
##디디
##어야죠
며칠
##플라
실드
woohanLol
##입이
어쨋
음성
입금
정찰
판사
##그자체
죽은거
가수가
한턴
##회장
##현빈
보트
하뮬
##전사
##역질
이런것
매력있음
이년
##세로
##1년
대결
근황
댄스
모든걸
##너무좋아
##데미
##동자
잘했음
지다
##올린
##불허
조센
##ㄲㅋ
기대되네요
##출산
적당히해라
##줬는데
##세이
파이리
##있구나
##을안
전무님
벗고
##했니
##끝까지
이뻣
##못참
##는거같은데
##수있다
##연속
##빌드
##촬영
처음에
한순간
##역사
끝나면
##jal
##살인데
##ㄱㅊ
대인배
##을지
농담
주방
##엇나
종우는
웃겨요
질병
##많아서
한국은
##끼는
연기대상
샤이니
토르
보여서
능력자
혼전임신
##창석
출연진
던져
너무잘
성공했네
것이
억빠
앞머리
죽었네
방탄은
야생
화성
##ck
##슬론
연기에
##같은소리
나가면
구혜선씨
##봣는데
##할때가
가는데
##있어도
알라딘
저런게
카카
혼내
쵸단
는지
##구석
##예원
정려
뭐다
민정
토컨
반가워요
양심이
못봤
##컴백
구린
들어도
재밌더라
성공한
##지않았나
굽쥐
걸으세요
이적
컵헤드
음주운전은
있겠지
버튜버
##모르겠
예민
##yong
##끼고
김풍
프랑
뒤지
빨리가
##나이트
ng
맛있겠다
1명
간미
마미
##이어
행님
##그네
사촌
어여
##해야돼
저런걸
가져와
상위
해조
각자
##선은
없으
쳐다
현대
그램
환갑
알바들
##포도
##무엇
##난동
100퍼
떨어져
새기
러너가
##와이프
소재
입구
32
le
패드
문빠
생겼는데
오지마
말던
내일도
##아닙
김새
##종영
심한
프로포
새우튀김
##로로
유투브
일듯
##드러
##LO
독특
송강호
쓴다
이겜
##러리
##도기
낭비
천벌
##준영
##마는
성숙
잡으면
##다니는
빠르게
한끼
##채팅
##다르
메타버스
el
였어
한줄
싫어하는
##있으니
##한이
##이었던
매력적인
라미란
오랜만이네
각이
마법사
조씨
##소속사
어느정도
##tt
##대륙
##리에
유치해
##식은
##집단
이혼하고
챔프
행복해라
주거
다행이네
##무지
##하필
##음ㅋㅋ
##같으면
뒤집어
하든
##pd
차세
자기야
알차
##미남
트집
그런게
박효
##주로
기레기가
흥분
놀랍다
김호
잊지
많았
생방
염색
1초
##한혜진
복을
복구
네ㅋ
얼짱
두부
세기의
안하는게
##만한데
##맞냐
##앞에서
할텐데
##라며
이거지
야야
유포
말아라
##진출
ㅇㅇㅇ
짠내
감정이
괜춘
ㅋㅋㅋㄱ
끝났어
상체
홍선영
우나
##때메
##건다
##돈벌
##시도
##어른
올리는
한두번
보고있나
##트콤
결혼한다
집유
##데모
같어
개사
##할래
르블랑
같은데요
남규리
##한잔
중고
욕먹을
먼지
트루
##하긴함
애네
일만
##언플
폐지가
아리아
박하나
악의
프레임
10만
##충격
##기사를
높아
오영주
##수없
라이언
어쩌고
사수
맴버
##뚜룹
든다
##쓰자
잘어울리네
이동국
탈주
기강
꼬마
돈까스
흐뭇
재밌네요
##타이어
벗어
조덕제
각이다
종원
##준다고
yeggun
39
##드라마는
구준
쉬어
##이는거
##방법
젤다
모임
장애인
내면
다녀오
##가는데
##JOA
난또
어설
지막
누누
율희
남상
##주의자
천명훈
클립
당연하지
이럴때
동의
바론
수퍼
페어
성형을
잘할
##맛있
정화
##파는
트위
했지만
요약
에어
bts
##님한테
##egg
##왜저래
도로
선녀
자존심
안나가
##방종
##옵니다
##으로만
##목구
웃는거
카라
기대할께요
전드
##민정
자야
태국
##려구
고준희
##저게
나피디
100점
##못하
하하하
아버지가
아니구만
상태가
##같던데
시킨
##ub
하스스톤
##기간
골리앗
##제이스
기레
##기물
뇌정지
유해진
법이
##꺼에요
##론즈
아니었음
##지냐
##샤인
스타가
잘살아라
유튭각
언제쯤
ㅁㅇ
대응
영국
매력있어
건지
잡혀
##해야겠다
신영
##바바
이상한거
별로네
찾자
##당했네
##재밌게
박나
집행유예
겜이
##니는
끝났다
구해
##됐지
반박
왔어
타령
##칠때
##왜이래
부러워서
woohanOh
안부
황치열
##해졌네
예쁘당
닉값
wakDpr
짱이다
누가보면
##불안
가해자
건강이
코믹
마지막회
##ner01
오예
키도
##윤호
꼴도
바르
죽지
희철
##일단
구독권
뻔뻔한
##하는줄
안볼란다
보인
죽어야
130
체급
##거같애
뇌사
##수있지
모드
옆에서
옹호
전파
##온이
##보여서
##히고
생각도
기대되
##해야되
##00원
ptil
##것들은
##미래
##기나
##시당
안갔
##ovel
문죄인
두근
쓰러
##아이유
글씨
##루태
ㄹㅇㅋㅋㅋ
저러면
##네여
포스
mbti
##하는거냐
링크
##갑자기
제목에
요룰
##펙트
바닥에
목이
썸네
경찰이
케빈
부캐
전여친
좌좀
##눈빛
10번
미용
##가든
##확정
www
##60
##기사는
##하누
역겨워
##겠노
바란다
##질투
원더걸스
몰랏
부른
##거죠
fvin
쥬쥬
쫄깃
다양
단아
백배
은퇴해라
##고리
##좋더라
동숙
영재
왜해
##개웃기네
##연히
아껴
재앙이
드루
쇼핑
나왔어
그레이
##우기
거죠
났다
원피스
건드리
송종국
특혜
죽었어
기성용
육지담
##본인
##끝났
지름길
원정
손호준
##따라가
먹어도
아이는
##힘든
알려주
샷건
눈은
정신못차
완전체
김신영
주사
애기들
7등
작아
##예상
화이팅하세요
짝짝짝
멸치
누굴까
##빈아
이기고
죽고
##찌질
##새끼야
징글징글
동성애
불금
##사람을
나네요
나주
하지원
무서움
똑같은데
레임
말도안
##인사
사람이다
##러드
할아버
라오
##사기꾼
종특
품절
기사쓸
장군
##달달
건모형
까도
묘야님
부럽습니다
##어제
##메이크
##태규
전과
지환아
이장우
아군
어딧
##느데
마피아
##남자는
##할걸
다롱이
화보
삼가고인의명복을빕니다
##재원
이게다
트수들
두껍
열정
멋쪄
이청
자아
##두준
후덜덜
드러워
죽었는데
##동산
모르지
골빈
그모
##구낭
화사는
##오열
나은듯
이런식으로
빵터짐
상금
##이라는게
짜고치는
x2
##카페
##터널
배워라
팀이
아내의맛
김씨
##이노
보물
비위
아직은
삼시세끼
##otwo
##크리
아프지
무개념
언덕
보다는
견뎌
사부
##으셈
에게
잼있어요
귀가
니엘
싶지
불편한
3개월
dopa
댓글창
현실은
유관
말려
신드
입국
##ㅎㅇ
##혐의
못생겨서
때문이다
끝은
일등
착하네
##드라마가
KBS
그땐
빡빡
였네
캡틴
법칙
빙빙
##투비
벨트
##어찌
씨가
##길듯
이광수
##이하
##모르는
이긴다
잘못이지
깜짝이야
날이
카리스마
박재
##력은
마이크로닷
##나오지마
국방
네ㅋㅋㅋ
술은
##원툴
##십시요
바탕
시국에
##요들
love
매드
스터
디오
음색
풍년
##거기
##같고
이색
5명
존중
코로
된장
##야겠네
##레벨
신이야
필연
##다ㅋㅋ
##도발
##쉬세요
의상
##억울
전현
##드릴
##쇼핑
사랑을
허위
무명
치열
##평생
##할땐
##반도
짜리
##나쁘
##아니라고
강주
ai
조심히
##뿐인
착하다
##Aa
대박나세요
안했는데
없었음
##라니까
##추억
##잘어울림
##라이브
깔끔하게
루시
##보다더
PD
##했는지
##면가왕
소송
찌질이
##조카
송중기가
찍었
노안
숨기
이었
##으실
잘어울리는데
헬조선
빠졌네
점령
주니
흑흑
##이름이
##정리
##안봐
##어머
필드
##받음
질리언
##해지는
본격
파우
##미만
##la
제발좀
##예쁘네
갑자
도리
##려도
##투어
##욱이
이사람은
##같아도
못하지
##곸ㅋㅋㅋ
아니라서
별개
이름도
그날
be
명치
OOO들
##이뽀
0대
##장군
문제는
허지웅
갔으면
딱딱
스타워
##원희
##하자마자
##ㄱㄱㅋ
급하게
보이냐
##작용
##삼촌
##엿네
괜찮네
사랑의
##없네요
기사쓰
3일
점멸
더니
rul
침묵
늙었다
안되면
##세지
너무해
방송용
한다는
김영철
빠는
자이
##로드
파카님
##있었는데
계단
##아프다
##래미
안오
욕심이
##된듯
나보네
##으네
프레
티켓
턱이
##보이던데
안어울린다
안고
미만잡
##꼰대
##만데
오토바이
##앞으로
차승원
##할아버지
##괴롭
아자
우효
1인분
호동
##정보
##닮은듯
재미없는
비지니스
인구
##꺼같은데
승리랑
막상
모여
사회악
##잘사
##간질
비슷하네
못이김
kimegg
김현주
ptilda
생각함
티파니
##딸은
써도
살만
##분위기
오보
##셔츠
하나로
##죽여
jyp
##ER
나오게
알겠는데
올랐
보기좋은
못생겼네
쓰는거
크리미
##빠졌네
지은
끼가
신사
모르게
이번에는
누워
##으셨네
유승호
runner01
같은디
한갱
손은
드시
는거지
##rud
##끄덕
개독
##ㅅㅇ
나오니
되잖아
##무무
##놈이네
예뿌
나게
슈퍼맨
끼워
##됐어요
노가다
뚱땡
##상대
이혼은
합법
##빨라
대배우
##보검
서넹이
##앗음
안했으면
잭스
##아쉽다
별로야
##왔으면
##렌즈
미연
##인을
##네임
##하곤
쓰세요
##달고
##양심
관심없어
올릴
이틀
고려
입니
##있던
##데이트
##럽고
##기사에
될까
다좋은데
내요
병역
##당할
1만
아니구나
킬각
러너님
##팔자
부러우면
##으로써
부끄러운
##승이
2시간
기다렸어요
셋이
루피
좋구만
##대라
아니지만
놔두
봐주자
해놓고
##천원
##시키고
##풍이
##렸습니다
갚아
##용서
막자
##박아
아니여
##줄알았다
두배
1티어
엠씨몽
공략
작전
##끌어
배팅
##티나
당첨
##먼데
해체해라
##ie
기준
유희
멋있네요
##수네
닮은거
참여
##센트
불쌍타
무섭게
그새
##센터
마이클
##고싶냐
##서플
##똑똑
##없던데
한편
##장사
연애는
흐에
##수고
##하넹
있었으면
뽕쟁이
킹정
##Hi
트럼프
미가
자석
##세네
##여주
논란이
##의자
머라
##보미
라이온
소울
내비
##마드
이때다
귀신같이
##생겨
##ㄱㄴ
##시로
##플레
##반전
3인
신아
하시지
소간지
##소리야
나면
으으
패작
안현모
가치
귀칼
##렀다
말이야
파판
##가보다
관종이네
뜬금없이
닷지
진우
조개
지혜
서세
피흡
군바
의사가
그알
##안되네
조아요
얘네는
##남은
##임마
##잡았네
는거야
불행
##치않
승리도
밀어주
이진혁
도경수
근성
주영
의도
했어야지
##드림
##러움
김현중
써야지
없긴
##안했
버릇
##겟어
안됩니다
취미
듣보잡이
##Heartt
사는거
웨이
##꺼임
##용준
##급인데
##Rani
묻어
핵심
##빼자
##이긴함
모태
사진찍
무책임
우리의
##링이
왜저럼
##잘되
##쳐야
한거야
수미
##단말
##두리
##궁합
##tr
##인가보다
당신을
##박수
없더라
##이라구
박수를
사퇴
##요정
SBS
술을
차인
##이젠
성시
시간에
이가은
먹어야지
현지
##치는데
안해요
##즈니스
이라니
매운
남자를
잘할듯
혼혈
##나오나
동거
멍멍
싫으면
어렸
이크
재평가
##국가
##동갑
상승
행복하세용
##jalim
나무늘
메퇘지
검머
너를
야는
##ㅌㅋㅋ
##발진
무서워서
사업가
김지원
양이
어머님
개역
안보게
구지
유재석이
공황장애
로희
##POP
고소영
포지션
##마마
사실이
신가골매
즙짜
##아들이
##있을듯
##햌ㅋㅋㅋ
까는
낳아
##2는
떳떳
손연
했어야
##만보면
##녀는
죽메
무플
아저
역변
유찰
까방
리지
울었다
##비교
안보임
이종현
됐으면
무덤
##또깡
빅뱅은
사심
##아랑
말하
##Zerotwo
##풍기
4암
##도없고
##오버
나가서
##ep
##미투
##트라
##절한
##지겹다
##곡이
ㅎㅇㅌ
벌처
우냐
선즙필
곰보겜
##전현무
러워
따그모
##많고
몇달
않을까요
##90
##곳이
ost
##Lovel
납치
죽였
##프라이즈
기저
##마렵네
깐부
저기에
하해요
알겠네
##키워
호크
개패
바보야
꼴보기싫다
안해서
개같이부활
테일
##보겠다
셀프
wakDpl
개빠
개부럽
##죄냐
할짓
재미있다
구도
100만
##으신듯
잠수
저놈
주책
혼자서
하다니
심히
##찬성
##대고
가벼
맞은
##중인데
장문
히어로
전두
똥을
우욱
년들
입을
명불허
빈집
##나보지
##에비
그렇네
안이
책임감
릴리
##살은
던지
##cc
##냄새가
나가자
장제
머리를
##고마
역겨운
##리네요
##자임
##14
##8등
파괴
일베충
찌라시
귀엽게
오냐
##na
없을듯
##린다고
무식한
네네
##엿어
사랑스러운
##ㄴㅋ
##적이지
재미없던데
급식
##여전
헤카림
##산이
##받아서
적인
드릴
박갈
오줌
굴뚝에
##에버
최시원
##와와
믿보
##작작
모션
##중인
빅헤드가
놀다
##를왜
정신차려라
##하기엔
서비스
하스는
##도현
다된
해킹
허언
군지
원신
원하는
##더라고요
결제
원숭이
져야지
##고있음
극락
##룡이
돌아온
2분
##야하나
oktopcatOHH
##무라
꼬라
잘생겼는데
##갈아
##탈퇴
너무이쁘다
서효
한남충
래요
##후반
댓글알바
필요해
##맞죠
##먹냐
##년들이
찌질한
##못한다
##까고
터져
##네ㅋㅋㅋㅋ
##일기
교통
그라
##호야
AI
무례
벌받
miraclMirac
골반
##스파
##마귀
##꾸라지
##정신차
수다맨
6시간
##당당
##허다
1일
고연
절라도
터치
넘좋아
상대로
영업
배고파
리도
김요한
bjso
누르
##었나보네
에바야
거에요
은우
버림
님도
쉬워
##꺼라
왜이럼
베인이
있을때
##지라
##BC
##살차이
고치
화제
##um
정가
##원딜
##내서
마미손
찾아서
인성은
우월
위기
사교계
펑펑
유민상
부지
##한디
삼고
했잖아
옆집
vr
건강해
##같냐
되니까
아아아
##위한
미쳤나
##예쁘고
찾으면
러니
고아라
##이시네
##형도
##트에
1500
저지
##그만좀
여캠
##승우
##복은
##ㅋㅋㅋㄱ
없애라
김밥
지게
저장
##살차
##시는게
포상
답다
청와대
정겨운
7시
발광석
이기자
##인상
##메달
##보기좋아요
개잘해
리버
들어가면
##나가라
##을해
##급은
생각하는
##Gg
노콘
선우
##하려면
##쪽으로
드네
재미있어
언니는
##좌파
강성
##조씨
하이라
##을수있
기타
아홀로
##두개
##신부
5용병
##드럽게
##쟁이들
아시는분
이나라
뭔죄냐
얻어
죽인
호기
##총각
문재인이
2코
사지
진도
##하셔야
이딴거
너클
닌데
좋죠
##오른
성공적
##차나
우도환
##한거네
황금빛
성질
##스도
##눌러
##럭키
##깡패
연주
애국자
의지
빠졌
지진희
##한거봐
마이너스
존내
##있었음
길이
못찾
정면
##했다는
아프네요
김현우
흥미진진
##되니까
##구여
하도
##일어
##순실
보냐
잔뜩
##곀ㅋㅋㅋ
둘이서
돌아와요
노숙
##돼서
대박나자
반드시
터진다
##거의
##박나래
노처녀
파겜
##실화냐
묘하게
##세는
지역
연좌제
개쳐
복면가왕
기가막
장례
##민은
##맞춰
##이라는데
##려니
짱구
욕하지
##정치
조사해라
환생
##사장님
jinjalim
생각은
내려라
##선씨
##시계
이탈
잘하긴
##날에
작곡
농구
##17
##자매
go
이럴거면
거네
##디스
너무재미
부를
##전개
사진도
rulrud
이목구
시스
아내가
##각이네
##컷네
현빈은
잘살아
##박고
죽을때
예쁘더라
멋지세요
재미없어서
담당
웬지
##오르
엄마도
##해야죠
전라도는
##는데도
##하신듯
모텔
페미들
77
눈물나
모바일
에픽
아쉬운
특집
##드세요
중요하지
##린가
##재밌어요
##던대
김치년들
##수밖에
멍청한
전문가
잘못이
존재감
아줌마가
어떨까
꽃게
큰그림
##ok
튀어
파도
##안다
자전
엑박
##해가
결혼생활
##사업
브론즈
슬펐
신박
##보이냐
이쁠듯
찔러
망겜
뭘로
설리는
##이면서
못봄
아랫
10만원
비율이
##랑결혼
##스피
현아는
각도
손님
##만난
다음엔
지드래곤
##ㄴ데
##드신
보기싫어
##혜원
찬밥
##하셔요
##업자득
스가
인디
##Lovelove
쏘영이
##으로서
이건좀
kimdoeG
부가
영준이
4분
##주길
박은
토마토
대재석
##우자
숨어
드는
화이트
##변기
고은
##르코프
한타
광산
집합
할게요
##HE
김광
##머임
##ㅁㅈ
사탕
데이
있다는
##키타
사라져
사투리
브리
공동
##놈들이
##있으
추모
경규
##거리냐
##다야
당했네
에잇
알고보니
평화
노사연
쭉쭉
2가
그린
죽이네
데덴
징키
진실이
##셨구나
강하게
##잼나
##문화
왕자
주는거
##집중
##차선
좋겠어
##겨워
마약은
였음
일본에서
한명은
군대안
보상
우가
##해졌
##했어야
일본은
괜찮던데
에디
정작
악플다
졸잼
##망이
편의점
냉동
허락
임시
##조절
생각하고
치사
한사람
건다
맛있음
종족
상관없
##저래
변함
공포겜
기업
필요가
김유정
너두
##먹었네
##부럽네
bjsohe
오죽
##상이네
클레
1월
되죠
가능함
##말만
아니었어
##네는
가족은
여튼
커여
이런데
##배운
보는게
수금
영감
##블럭
##갓겜
얘넨
훌륭한
미국에서
##은거임
잘됬
시트콤
할거면
양성
와씨
잡네
##좀하지
져라
태진아
##하셧
##질않
만들면
##인간들
멋잇
##최악
끄고
니냐
떡볶이
살리
##3개
이쁘냐
각인데
만나는
들으면
##못한
##하셨네요
미네랄
오래못
새키
##영원
웃는게
자추
괜찬
##스턴
헤이
살찐게
스필
왔으면
젊어
아니땐
##코드
##걸린
해주파
김학의
쓰지마라
키보드
왜함
작정
큰데
마우스
비는
##단장
도와주
당근
있을거
##였군
##이용
##니들
##하십니다
##기획
##드나
까요
팬덤
##가만
##내기
##흥해라
##대를
최적
##시점
아이들이
다이브
##오지게
살벌
정체
##스를
전자발
벗겨
풍선
시메
에오
##있잖아
##릴때
느껴진다
뭐하고
뭐라도
만들지
구림
맛있지
##이긴한데
챌린
우승자
장원영
흥국
외계인
증강체
기독교
막라
가난
스엠
죄값
##좀하자
재수없는
보너스
##많이나
중년
##님과
##강간
궁금해서
빼야
사실이면
##크라
키우세요
##깜놀
안궁금해
인생드라마
안바
오오오
종우가
그걸로
뮤직
한국영화
김국진
##이후로
##합니까
누군지모르
읍읍
대단하네요
플레임한테
괜찮지
202
머해
##치냐
야함
##케인
이쁜얼굴
끊어
##ddu
ds
어르신
##모님
##가더
##거아님
##ㅋㅋㄱ
힘내자
새벽에
유학
##효리
세련
##해야할듯
##지는듯
##줄알았
##글이
색히
이다희
2억
짱이
##말아
자수
##80
살빼도
고의
수듄
##무빙
##선비
이것들아
바꿨
그런지
저러니
##먹어도
##mi
##취소
당당하게
쿵쾅이들이
싸울
덫발
누군진
코미디
핑와
되었
구하라가
조심하세요
##너무잘
안봐서
##상실
##n9
술취
##병헌
으이그
제압
##을못
현아가
남주혁
비둘
빌어요
##할거같은데
글로벌
##정돈
댓글들이
피아노
##복무
##번은
##했고
결혼하지
ㅈㄴ웃기네
견찰
재밋어
wakCu
트리플
우는거
해볼
##대도
##빨로
##나왓
미첼
건너
콧구멍
언젠가
하려
배웠
정려원
삼각
잼있음
조혜
공명
수리
차이나
각본
5돌
기사거리가
##씨를
장난아니
매력있다
##였냐
##일거
알콜
문슬람
##권은
마더
##문제가
g42H
##nuu
##일지
##러브
좋아합니다
아닌것
강소라
맘충
##ㅌㅋㅌㅋ
##안티
##치나
##태준
##칼리
드라군
##일반인
만해
av
캔디
##질러
딴사람
위에서
팔로우
##문이
울림
가관
복잡
##팀은
세이
연정훈
##빠짐
물은
아는형님
##할지도
없나보네
##HD
먹고싶
아닌지
기어나
때부터
추해
히드라
##왜이
##긋다
있는거지
좋은곳으로
새해
##장판
ㄱㄴ
##안들
무게
밑밥
지석
##대중
요즘도
##인거같은데
##미소
##메갈
넣어야
##만족
##확률
머여
키는
##잇지
##직원
인제
칸미
경제
##틀리
죄는
##보스
같냐
##주작
시도
안읽
시나리오
거면
까불이
##이상형
즐겁게
손을
좋았어
##모를
겼네
기록
이트
##성비
##중임
러시아
살어
여잔
하락
담궈
많어
샤워
팝송
##16
##ls
좋겠당
맛없
뭉클
브루
##던뎅
블리츠
##지루
##1인
결혼하네
시청률이
그딴
정준영이
##자들이
간다고
지림
##하긴하네
저럼
##답네
벨류
유저
어딘가
끝판왕
베트
상영
의견
내일은
##손실
비정상
##있는게
##수준이
그만나와라
힘들듯
됐음
걸리면
중국에서
공속
스밍
##화이
##끝나고
이형은
주세
배가본드
허접
##치지마
떨어졌
돌리면
저씨
강지환
##안보
사진보고
아까운데
##잘했다
안나와서
##망함
AP
감빵
##둥절
팬인데
달라고
일기
잘한거
##먹어야
##았어야지
아뇨
우한
트수가
##햇지
장난하냐
네티즌
다했다
비키니
팔면
빵떡이
씁쓸
토크
프로필
##동물
개쎄
학력
43
웃을때
해봐라
##머냐
깡통
##피곤
연금
오졌다
돌고
학원
##르트
독일
았는데
의혹
viichanRani
장영란
##메인
하시네요
시술
입으로
기다릴게
모냐
##믿어
까고
안나왔음
반일
##오바
군인
##가정
잘못한거
판결
##도잘
민주당
2일
거봐
메뉴
FD
비즈니스
재미있음
##무섭네
모범
자랑이냐
미치겠다
어두
이재석
안보고싶다
이동건
##뎅이
##줄알았네
위험해
디지
명불허전
3사교
기지
팍팍
잘먹고
식이
sh
내기
밝혀라
##아까워
류수영
##더냐
머리숱
약물
##지말아라
##늦게
기래기
마저
기안은
예전부터
##간듯
라프
예요
##넘들
대부
표본
##고요
##비로
축하드립
니깐
##하오
##신도
사람이네
백스
했구만
종미나
##야되는데
##하기는
도면
흥하자
치타
신천지
애좀
##증이
소속사에서
##되겠다
본인은
##할께
##번에
재밋게
이브
개털
x2ly
썩은
국산
시는
점화
공통
노는
##올림
써서
소시
스위
강경헌
라가
상식
프롬
이유를
2의
##바나
kimddu
코디
##상에
상품
파멸
##비싸
헬기
굴러
오늘의
느껴짐
서수
##차는
바람피
어젠
##것처럼
##더라면
큰거온다
고우
##들좀
##법칙
있는지
진거
##야스
##자격
##밥에
띵작
##전설
##줄알고
g42O
굉장히
잘뽑
패턴
기서
YG는
최종훈
좋은일만
양준혁
ㅊㅊㅊ
어가
##학과
거참
미친련
잡아야
지크
##애슬론
##모로
##쩔어
##때리
##도박
##전부
개부럽다
오리아
유노윤호
이겼네
배아파
몰입이
놀이터
##살면
##길바래요
##버렷
##생각나네
불타는
명예훼
보잡
##먹는다
##그립
야근
사탄
##이쁠
교수가
저렴
##테크
하고는
몬가
유도
##올라가
두분이
나경
##리긴
##송혜교
당연한거
워웍
개쩐다
불타
경우
완죤
##내자
도란
러가
ㅋㅋㅋㅋㅋ
대천사
박자
안붙
호스팅
슴가
가기
고스톱
내사랑
한정
그러나
현명한
병건
않네요
쉽네
압승
4대
코치
치감
자본
인은
지숙
치킨렌치
차트인
당한
나지
맞았네
한마리
였는데
잼있다
##넣으면
##놔라
검머외
안좋다
일부
##담배
마의
##하진
고현정이
5렙
늑대
피임
볼베
이기지
기준이
##좋아서
있었지
##치곤
언니들
##스크림
찍는
섹시해
남았네
가다
머머리
전성기
##들다
댓글은
서태지
5병
거같은데
딜레이
리타이어
잘됐음
렌즈
글을
헬스
백두
##아빠가
공구
최지우
##모임
본능
애호
연기력이
##긋네
레전드다
만들어서
yodelayZerotwo
라이온킹
##스쿨
##커서
저때
##틀어
##한데요
받아야지
10개
야해
사귀지
델루나
##축구
거름
신분
자업자득
##열애
딱인데
야랄
##본거
파리
이름을
날카
당해
리야
##속의
간거
##승준
추카해요
ㅇㄱ
유세윤
##보니깐
##종자
##저그
##떠네
또라
보창
쌩얼
##원탑
##아니에요
모으
몰랐음
갚아라
잠재
회전
플라
잘됐다
아재들
김해
니지
첨엔
##버렸어
짠하다
잘지내
##조는
몰입감
상근
##안하네
드라마로
2는
여장
쩝쩝
##다구
##학자
##떨어짐
##low
문근영
##했더니
##탄다
이아줌마
누구죠
지배
##감정
viichanHh
정진
난이도
이유리
김연아
##모든
배부른
별게다
##나만
빤스런
초아
##잘가
ㅈ밥
뜨거
##비리
보죠
##혐오
htt
세종
드라마다
금손
정상인
##어딨
jtbc
청산
##누나가
연기짱
정도로
타격감
페이스
##힐링
프로가
어려움
몰빵
보람
##ㅇㅋ
##안하나
##행님
24시간
배역
보지마
##미야
##어떤
##보도
##없나요
##시끄
##벗고
##사귄
##대리
##ype
어렵네
러운
애기는
숨막
존똑
##달이
동물의
gd
누구인지
##만큼은
##up
고개
박주
것들이
되겠
본적
##했죠
##맞으면
##보여줘
존맛
줄여
##전라도
아니요
아가씨
##너프
##갔음
생겻
##노출
정지훈
성비
##벙글
곰표
동급
사는데
댓글도
아구야
공개연애
개더
짧다
##주세여
로다
리콜
##칭찬
남자분
송유
오또
차돌짬뽕
##맛에
##도소
머하는
##하시오
47
기엽
쁘게
##지않았
재원
조지
동원
라지
흡연
##천국
좋앙
얌전
##들이냐
상징
티난다
##거가
이구
베이가
체험
새봄추
##의힘
스타워즈
퀄리티
##해ㅋㅋ
##쉴드
걱정은
시전
##터리
##수있어
살인마가
mdgdMoveR
보도
양씨
노네
닌텐
신우
스타일이
걱정이
동정
딜교
잊을
지오
랄로
##무기
미안하지만
아버님
유럽
##예약
##원에
걸크
선넘네
ㄱㅋ
그랬냐
##한겨
##교체
논리
##기회
##겼다
##프리
해주지
강주은
밸런스
커플이
riringLovelove
실종
##ack
노이해
##하가
스톰
연관
끝물
##해야겠네
ㄲㅈ
걸릴
올림
##광이
##갔지
잘생겼어요
벼슬
##줄래
보검이
1층
만능
죄송한데
41
개잘하네
##보험
재밌긴
원인
배필
유튜브에
영입
화끈
##할수가
하노
좋당
##지말라고
어쨋든
개약
거꾸로
쓰는게
##갔나
##kd
##송이
##흐흐
장지환
있나보네
진짜개
실컷
박나래는
장난하나
중딩
돌리네
비아이
사연
엔젤
##봐야겠다
개조
끌려
빛이
쌍둥
웃참
##자신
김래
진짠
오랑캐
희대의
##적인데
손석희
공항
센세
장승
##잌ㅋㅋㅋ
재수없다
la
찌찌
무겁
발목
##골드
귀욤
유상무
##하던가
죄지
##할라고
나이먹고
꺼억
##삭제
##채아
소신발언
신민아
음반
나오길
##나보네요
전이
##해보이네
누나는
깜짝놀
보기만
##생각이
x2lyn9
2성이
사과해라
았어
날로
##섭외
##부심
잼남
##파워
오이
조타
넷플릭스
들린다
만났네
백지
통제
##발라
이이경
이남자
##는요
누구니
##게임이
축하해용
빨개
##갔냐
이혁
끄덕끄덕
빡종
구슬
대포
바쁜
예언
토닥
##리타
##바른
이지은
##만보고
##라는데
##할까요
기사네
연습생
##없는게
##다닐
전령
흥해
##이네ㅋ
##로남
##좋았는데
나같아도
슬프네요
뒤통수
쟁이
##왔나
신이다
그들만의
제왑
##듯한
##는거아님
런거
절반
##고싶음
경험치
누군지는
아무거나
핫도그
홍상수
##if
템포
예쁘기만
오랫만에
상처받
스노우볼
강아
##엿음
할리퀸
몸조리
어리고
군대에서
조현재
아바타
차가리
강두
당함
##해줘서
조윤희
##구니
느긋
악녀
##가죠
##취향
여자다
당했다
##라는게
##빠른
지상파
ㅏㅏㅏ
아이네
잘들
느낀
먹는다
어디야
들어와
##유발
멈추
##잇나
##주년
##라이더
유흥
##스에
때마다
사소
배우들이
갈라
강다
급발진
될거
실내
하셈
##지옥
##종현
##뭐라고
##퇴근
##꽃길만
못쓰
##없구나
##앗어
방송인
##습니당
##알았
있어야지
걸고
##넘은
박준석
##ㅇㅂ
이기야
##었잖아
꼭지
벙커
선이
와요
곽도
마찬
먹어라
멋있고
권혁
하라구
##주는게
아니였나
주인공이
황후
아기는
##피가
공지
싫어서
##내면
##방송에서
넹이
##삼식
군대를
유치원
들도
아찔
매니저가
바빠
##선배
##무죄
##빨고
pp
충청
하품
혜자
##짓거리
여친이
숨겨
돌리고
장우
##함을
다행입니다
되는건가
신애
##늙어
죄야
ㅎㄷㄷㄷ
수제비
이드
예능감
AS
ㅇㅈㄹㅋㅋㅋ
반란
##이사
##핸드
피자집
ㅆㅂ
혜나가
##수칸
##있죠
홍진영이
할아
##환자
ydcS
극한의
##예쁘게
ㅌㅋㅋㅋ
스택
착한척
몰아가
생각해서
아쉬워서
이구나
찍으면
성범죄자
이홍기
대회의
시크
##선미
충전
황보라
##Love
##드아
녹두
그래두
크긴
##일이야
아이오
##밑에
하는짓이
##최고다
엉엉
윤두준
참신
박기
##뭐여
빠질
##일지도
##기술
##나와요
아닌거같은데
유료
##나야
망했어
적용
##맞는데
##변태
##각을
강요
##설마
##말랑
이린
너무이뻐
단즈
혼란
진실을
게이야
박경림
검정
첫방
진실은
나감
열심
일루
청년
##사로
플레임은
비슷하게
##랰ㅋㅋㅋ
##ed
한지혜
죽이지
홀로
극혐이다
노미
오마
사람인데
GTA
팀킬
아쉬워
까방권
악어
기사꺼
##안쓰
198
##인줄알았네
조선시대
끼고
바꾸자
스티브
바퀴
뒷담
못생겼어
인과
침투
감독님
골든
##너도
악플들
이란
##발로
##승부
마냥
##것은
사진에
20분
보급
루아님
##곳에서
##햇나
짐캐리
응원할께
갔는데
있어라
못하나
자랑이라고
안봐요
우리나
송혜
ㅅㅍ
맞습니다
백만
복받
안하지
##kr
다라이
볼때
이창
악플좀
gilyouHnuu
애정
##그릇
좋겠습니다
몸매도
##하겠어
##시리즈
아무말
막창
잘사는
정주행
트렌
품격
##것인가
남자의
빛나는
자랑스럽다
르는
고취
추리
##환장
포함
누구냐고
짜증나네
##닼ㅋㅋ
경호대
엉덩
##잘하세요
##갈까
##멘탈
매트
##넘이
##차원
비유
##마누
##효린
행복하자
그르
되네요
류화
받아서
##시던데
호흡
##뜨네
진아
최명
##겼네
##김태
더럽네
어야지
엘리트
한화
했을
##이이이
##ighting
진세연
이녀석
##비밀
알아봤다
전자발찌
요구
##가득
##애비
정상수
봉태규
##2년
독점
##일까요
에로
자탄
##커플이
알려줘
재능이
맞긴해
타고난
프로듀
은혜
##시구
##키키
르너
##태어
##다지
##징그
##나잇
##ㅊㅇ
##최강
진짜ㅋㅋㅋ
쓰리
군필
악뮤
짜장
스브스
페이
임산
##세븐
##하기를
##편히
갈듯
홀리
강하다
풍형이
##커엽
업소
이누
힘내고
사랑스런
있었구나
한마디로
듬직
얘들은
왕자님
조선일보
나플라
##쪽에
연기만
##없는듯
푹쉬
머리좀
촛불
커플은
##는안
##열면
이쁜사랑하세요
르르
바스
얘네가
##하드라
##외국
아메
믿음이
관심없는데
하고싶은
##할매
##표현
##될까
내려치기
적어도
쉬고
인간은
홍탁집
게요
전환
##슬프
##었나봐
필요한
풍월량님
도우
스릴
불편러들
벤이
비스
태희
난리났네
구현
이랬
정일
좋아할
스타트
애엄마
##부를
변요한
트롯
손톱
##태양
못생겼는데
버릴
이에요
만화책
##본적
##걷자
##중기
##렀네
규칙
상은
##밉상
젠장
##미국
싶음
##걸어
100만원
고세구
한거지
##만났
##민폐
##갈리오
##진행
저랬
이뻐지
납득
3코
분장
장신영
해봐야
##주죠
좋아용
완젼
구역질
감싸
생긴건
3000
##ks
##짱깨
나오는건
차세찌
지들끼리
메카
제목을
과몰입
##한건지
살게
멘탈이
사내
##게도
정치인
안가네
##기계
##승기
문채원
##사망
본업
##oa
팀전
##지않고
떨어질
속옷
##놈들은
##주인
나이트
어떠냐
살구
##없을듯
##설렘
맛있는데
찍자
##오리
매니져
꽈뚜룹
##ick
##고싶어서
매력넘
신호등치킨
많으
신현준
영화를
영비
쓰지마
아무래도
나온다고
취급
##어디감
##볼수있
##디는
##거려
걱정마
잼있어
저랑
##병은
원주
정신과
##ore
개막장
테스트
##혔다
##나왔다
나무위키
지지합니다
##업소
이다해
김구
대형
도데
박원
사나이
군대도
정인선
크스
##어이
남음
##TI
사귄다
##지리네
생각했는데
황미나
##맞춤
설리야
##근님
##냅니다
들어봐야
로드호그
김호중
##매치
이런프로
파우더
기대된
##되세요
해줘야
아플
저긴
성형이
##이형이
##나비
카피
##유출
신비
찾아가
좋아한다
히로
##분도
볼륨
용암
##럭스
지금부터
1패
미지
##하셔서
박하
##줄이야
이게왜
낳아라
##여배우
##범은
서동
동료
난나
결혼하자
돌리기
하와이
들어간
반응이
보기싫음
다크소울
##호강
##빠들
ㅋㅋㄱ
##나왔음
##아구
##재야
##왔냐
뜨고
##보는게
##위전
아닐듯
투입
##두근
받으
사람만
스튜디오
아니였어
서폿은
한입
자원
##공장
##했으
##스킬
하라야
속궁합
어떻게든
플래시
오창석
좋을텐데
완전히
무서운데
잼있게
킹깐
투명
어머나
알잘
키드
##까라
##만세
##리들
##해용
it
잘하자
트타
##에휴
##이동
수학
슬픔
준다
##어떡
이선균
##IP
롤은
##있었네
발리
우마이
쁜데
이론
체크
##이지ㅋㅋ
전개가
정법
##아아아ㅏ
가시나
기야
포즈
##반성
##만나면
무관탈출
이재명
이무
하는건가
##같은디
줌마들
수영복
방제
##호텔
순서
반갑다
ㅇㅎ
자작
헐리
뿌리
양키
중요한
##모레
바꾼
우리나라는
롱런
소고기
예원
11시
개짜증
럽네
##한가보네
첨보는
키야
##들이다
##복동
서준이
않지
언어
참으로
##태웅
승률
총각
띵곡
모아서
##hh
찌모
##아까움
안드
탈콥
할꺼
빠따
얼릉
##으셨어요
가겠네
궁이
호랑
서효림
인생의
되긴
##트럭
##하시나
저런건
##위는
##넣자
알았어요
꼬인
달지
##덕이
올려라
##yu
##써도
##쉽게
보기만해도
주소
##그제
##좋겠네요
##아나운서
2만
냉장고
누른
예스
왜요
지뢰
##넘나
도가
노랑
건강을
피는
조센징
##상처
##ello
##찍은
놀리
##신경쓰
##ㅗㅜㅑ
기대되네
방해
##한테만
리스트
살아서
오져
##징역
##ec
기저귀
하잖아
##결국
##역대
가짜뉴스
냥꾼
했더니
한병
##미쳤다
##부끄
아줌마는
트로트
##왜자꾸
##영자
##현경
쯧쯧쯧
##하기도
##소희
싸구려
##걸그룹
##디다
##모아
##주는데
저새끼
##UNG
##벌어
아카데미
##구마구
##선마
##부러워
##말해
##사진을
성시경
##려다
woohanS2
개불쌍
빠짐
호기심
##해지네
샤넬
##걸림
##져야지
000
##나올듯
잡는
##보인
##파악
##앗나
올렸
구설
하쿠는
안믿어
김재환
그레
##해설
##예지
##ream
##답이다
싶은거
##없다고
보기가
헤어지고
악당
안이뻐
##버리는
하나가
하이라이트
데뷔하자
후덕
김지석
성깔
##스카
럽게
##쪽은
한남이
##금은
2탄
신입
자만
최신
##버릴
등신
##중간
##점에
친목
##말고는
그래픽은
김하늘
##출동
가봐
막을
##강이
쯔쯔
아인
안테
하는거임
솔라리
기자도
##연기잘
잘하심
지대로
니미
아치
루태가
스웩
##ㅎㄷㄷ
아가야
먹고살
죽인거
김민준
출격
오잉
지는거
##낳냐
그랫
의무
##겠다고
못보겠다
캐릭터가
##나가네
대회에서
행복해보여요
46
딱대
할수도
가능해
눈치가
반갑네요
##들에게
부동산
이딴걸
로맨틱
ㅎㄷ
능력이
##공이
mdgdMoveL
하체
##시간이
복권
##AL
어울리네요
##못하고
##돌리기
##날까
##방지
##생겼어
광희는
##아줌
마트
잘도
##찬밥
내용은
어지럽
어둠의
쓸모
##은무슨
##잘생겼다
참내
행사
옹성우
기능
되는구나
안습
##사이다
이쁜커플
oktopcatOHHJOA
청자
댈런지
뭐이리
리에링
4인
안하나요
이선빈
##젝트
매국
노잼인데
##엿는데
겹다
과감
판정
웃겨서
허무
영화도
솔찍
호감형
맞춤법
메이비
스낳대
제외
힙찔이
마치
바위
받으면
방밀
안씀
근데왜
잘생겨서
기모
심한데
##도사
노트
인어
자너
wakA
##머가
out
##맞은
케미가
화유기
맞게
전용
하던가
##초반
ㅋㄱㅋ
##야ㅋㅋㅋ
##맞을
##잡기
부러움
장례식
##사는게
##하믄
##마인드
##보수
상해
정국이
진기
터졌
##두면
권오
브실
스탠
개씹
유가
##징크스
##카콜라
##회는
##이형은
뿌듯
##는겨
항상응원합니다
신서유
알아요
지환
##특집
소오름
김원준
##이되
heart2P
재밌었어
프랑스
멕시
벤츠
따라와
오픈월드
나잇
##하내
##보려고
최근에
##빼곤
##리랑
쌍발
##심하네
롤체는
전부다
##강두
군데
전인
했는
##다오
##HI
브래
그랜
갈수
돈독
##지에
##에몽
##밀어
이상우
ㅁㅈㅎ
개듣보
어림도
드럽다
##콜릿
건들지마
말해도
저세상
##대결
##페이스
##돈은
3억
거식
도피
##마을
##샛기
초고
머시
##백이
##사이에
매력있는
공무원
로그
문자
복사가
장님
인의
강제로
교복
수익
##란트
##쿠하
진짜다
아홀로틀
느무
외로
필구
뒤지게
드림
은지
설레발
꼬우면
##력을
##티는
##피언
##먼트
시고
아시아
TS
비와이
지말고
위대한
##진희
국적
##여러
조절
##반가
유혹
아직까지
잘하네요
문닫
워킹
##최고의
스티븐
ㅈㅇ
백종
나오는구나
수상해
대해
##하트
2만원
워너비
개쩌
##타민
신의한수
추가요
서윗
은도
허각
10시
낳으면
기다릴게요
안돌
죽인다
##였습니다
넘겨
잡자
##테니까
##진데
##열폭
##와야
##프터
사장이
철판
##같노
멋진데
같고
왜하필
##시퍼
고쳤
최순실
##라던데
안효
##꺼예요
고백부부
꼴지
백일
##걸려
##더나
##햇으면
##맹이
이상순
빛송
안끝
##지않는
##모르고
할인
날빌
올리고
잡아라
##가이
ㄴㄷ
보더
잡았다
오늘이
하시고
##보건
##유재석
누고
아앗
마술사
쎄다
퍼커
##ㅈㅈ
많을
##저도
이태란
민수형
살은
##멋있어
까먹
바나
##에용
돈버
석탄
얼어
기괴
스2
입꼬리
##말에
##뱅이
강화술사
애플
장현승
한석
##맘대로
예쁘면
스토커
없었으면
얘네들
이현
홍윤화
##세월
도균
유툽
##버려라
안했어
##사면
##소개
##부장
##미도
사이에
잊고
줄서
류지
악성
##hi
이병헌은
##생겨서
##갈래
##cm
아마존
박서준이
윤상현
##문제지
날아가
미쳣다
썸네일
는중
대만
놔둬라
사람이야
구요
버는
악플을
살았네
하리수
##울까
##뜬다
700
가을
성능
아빠를
필러
답답해
지상렬
남자만
없던
진격
언리얼5
업보
##art
##개꿀
여시
스마게
##초가스
모르겠어
가창력
##까는
##em
아쉬워요
테이블
깝치
##필요가
박고
신상
듣보잡들
빌보드
타깝
##플레임
다롱
궁금한데
##했었
자랑이다
예전엔
제정신이
##긴했네
##날뻔
운데
##인가봄
둘째는
아닥
현타
##무룩
##33
한혜진씨
##하기전에
그래니
재밌을듯
남았다
##국수
크러쉬
##스틱
MZ
미련
보이나
##신청
와이프가
우스
조우
찾기
아니오
##다니깐
멀리서
복어
수면
섹시하다
5번
차별
보여주는
개는
된거지
앙상
요즘엔
##임신이
즐거운
섭섭
들어가서
아픈데
5인
숙제
미쳤냐
펜타
떨어진다
이효리는
VS
낳으세요
냠냠
##hae
너므
크기
##너무좋다
수작
풍신은
똑똑한
육성재
빙의
랑해
막걸
타곤
##성한
러너형
타는
##지않나요
빽이
유통
레인
않았다
##ver
노동
##초딩
신났
달게
좋겠음
슬리피
자진
졸리
##말투
##좀봐
보고싶은데
수고하셨습니다
포에버
##연아
주말에
안떠
##크게
good
##좋겠
느낌은
3성작
존예다
스럽
에도
##슬슬
박세
벽에
봉합
서은
Hype
신과함께
상을
##같은게
##주셈
##어버린
##포장
사과는
##안하는
##24
방송도
살아가
천하
##안된
어쩌라구
개떡
쁘고
임지
저승
##끄고
마지막까지
넣어라
르네
입덕
##두부
아이스크림
못살
##온나
팔차선
##밝혀
로우
석천
##잭슨
동반
얘랑
인수
느낌인데
반성해라
신아영
나혼자산
짧아
유죄
할려고
##로이
##유도
##터져
결혼했으면
끝내라
##그나
머리도
##에에에
##기자야
19금
##어준
조성모
남겨
예은
원이
안나올
이겨라
간절
볼만한
큐베
이간질
모피
수달
영전
치워라
##빼도
별풍
져요
T1
##귀여워요
동방신기
방향
##알못
시우
##만이네
되니
##식상
##TV
##예술
영면
해병
##받으면
훈훈한
##나감
망한다
잡을
붉은
그전에
믿기
##구독
나오는지
여전하네
추천합니다
정글의
거같
소희
데덴찌
ㄱㅅ
##내세요
88
오류
##마비
넘치
보니깐
안타까운
브로
##있는지
##지말길
하차해
장식
전남편
정복
##도있
양학
주워
까불이는
안되서
답없다
많던데
살았다
무혐의
빼지
쭈욱
##시는거
##언급
돌연변이
이사람이
ADHD
망삘
##악마
자연스러운
전재산
어쩌다가
외모도
않게
야무지게
##곳은
콩콩이
국어
잘풀
자라고
첨에
트라
장미희
넣어주
##할거야
##이모
##yg
막말
묘얀
사생
##국밥
발가락
##자료
알리는
##보고싶네요
##라니깐
##강의
게르
스텝
좋구나
멋있게
##버리자
##ㅣㅣㅣ
현아야
##우냐
##냨ㅋㅋㅋ
이병헌이
차려
##은진짜
전두환
HF
시바
여기서도
제시카
##시집
##될거
페미니스트
5억
버터
엉망
##질질
조용필
타이틀
멋찌
윤서
구독자
초등학생
최단
##불어
##찐따
쏘맘
##착한
##월향
너무좋아요
우리형
왕이
##식아
나오니까
채널돌
디펜스
얘기는
울면
쌍방
##망겜
##하지마요
알았지
##해보이는데
씨게
can
먹이
무당
홈쇼핑
##UT
정부가
##배치
##ld
김동현
##좀안
넘어서
이겻
인벤
있겠다
##스케
##카이사
다정
몇번째
본진
아도
##데리고
heart2H
##ㅂㅅ
##당해
##볶음
트라이애슬론
트래퍼
그립습니다
고라니
##군이
아펠
##시그널
##보컬
남친이
마왕
짓을
카서스
##잘해라
감스트
##줄도
나오는게
대학생
아팠
##커플은
기대되는
##진화
##욕먹
그만좀해라
적극
##끼들
##커스
어린데
켠왕
15분
판박이네
레이드
##미네
##후회
##아닙니다
단순
내세
에그
있다면
서세원
터진
##대냐
지금처럼
구본
음란
##변신
설탕
진최
##명을
지적
컨셉이
민이
팔뚝
물어보
##도의
##세기
##가해
##하겠냐
##도로
짜장면
죽기
하마
었나
시댁
##뒤로
아르거스
박종
방사
온거
죽검
##뭐하냐
혼인
저따
##어차
##봐ㅋㅋㅋ
기간
바꾸면
징크스가
해준
이유비
돌아왔
##렸냐
cg
##막아
부모님이
이기적인
구혜
##하네ㅋ
자식들
중앙
##ree
어이없다
회장님
##만더
무려
##쓴거
저두
##문철
안했음
양다리
##줄께
플토
##one
떨어진
##딱지
스럽다
눈으로
ㄴㅇㅅ
네다음
쓰레기는
삽니다
##수없는
##게이트
3시간
4발
##귀여움
자다
하현우
콘돔
방탄소년단지민
그대로네
##왜이리
개좋음
롤토
담배피
74
##라임
##긴했지
##백종원
ㅅㅅㅅ
응원합니당
귀여워라
##씩이나
들어온
당일
음소
키스신
요한
왜가
잔디
아쉬움
리니
##이뻤
##준표
김래원
사막
엌ㅋㅋㅋ
##소문
기다립니다
miraclMiracle
##이쁘당
녹화
면역
화사가
##입에
##하드
ㅡㅡㅋ
국주
##거짓말
##맛집
아파서
돈이면
이에
맛은
##재능
친척
마닷은
장롱
##관왕
어울릴
버리는
##줍쇼
##얼굴도
왜지
져서
치아라
직박
##도없는
##나해라
개고수
디패
브랜드
허언증
전패
##회가
행복하고
##실타
100개
파란색
이로
새끼가
피부가
구찌
버지
##티콘
고생했다
제이쓴
##미씨
파는
##읍시다
겠는데
##수없다
벌칙
ge
원딜이
남길
소스
##에다가
##느니
좋아여
##을거다
박소담
로밍
##알리
울려
자희님
##사진이
시그널
##사각
##oon
##시키는
김세
##것이다
거절
##란게
밥을
수고했어요
김강
https
com
##슬아
인스타에
##200
거는
##로남불
고모
##EN
##다니네
글이
연극
##박은
셀럽
안효섭
씨야
##존경
##점수
##살인마
유리가
강수지
효리네
##팬티
##보다도
광역
조권
넘치는
받을만
거두
##관련
멋지심
건강하
엔터
##장가
손잡고
그럴수
준표쿤
됐어요
##요네
##늙은
##딱이
깊은
객관안
안가는
엄앵
열대
가능하지
였다
##받자
전남친
##잘사세요
##ㅡㅡㅡㅡ
##머신
보고싶은
감이
상도
재웅
sc
테이저건
장근
##스님
##and
먹기
##일어나
##하는건데
어찌됐
들지
민심
밀리
##보여주
말투가
##았구나
##바퀴
##후원
티비조선
구옌
못났다
켜라
휘인
##rr
못들어
알어
궁을
니면
물러
##지수
고생하셨어요
성소
##스러워요
임현주
해줬
##지길
##서준
##대박나
입술이
갠적으로
용준형
riringT
다치
필요하다
낳은
##아니죠
재는
##데가
##수기
압살
없었는데
잘키우
##하고있
몇일
영애
다녔
이방
##ㄹㅇㅋㅋ
기묘
삼류
출시
축하드려용
매력있어요
누드
없나보다
파카가
남을
닉네임
받자
발끈
미소가
##잘하는데
##진도
##써야
51
사도
##갬성
졌음
립니다
심상
##SS
스크림
한물간
농락
호날두
##놈의
눈물난다
KPOP
que
##Ap
클래식
약함
##나해
##빠는
bjsoheHeartt
정정
잘되는
극단
다비
스무
##댄스
이상화가
2인
돈많이
진수야
천우
이겼는데
##됐으면
체인
##대면
##보호
##승전
웃기는
진짜야
사라짐
ppl
가시죠
##종교
##옛날
##감사합니다
대다나다
살뺀
보고있
이영자가
고전
##중ㅋㅋㅋ
ㅋㅋㅋㅋㅋㅋㅋㅋㅋㅋㅋ
안타깝습니다
그립읍니다
##비씨
지섭
주말드라마
98
짜증나게
스펠
##테러
##ro
##연예인들
강등
한은정
Sns
##먹고싶다
선풍기
##죽는줄
##츠비
##훈아
모자라
이쁘다고
##루션
뜨네
##이뿌다
빵터
##파리
근본이지
더한
순수한
스캡
되시길
##ㄴㅋㅋㅋ
송가인이
바꿀
안구
짤라
태리
즐겜
##유라
사주
##질은
##겹네
##틀린
##토닥
##대노
##쳐먹고
거식증
버틸
사칭
##가드
##하려나
어제도
##닮았네요
될텐데
기여워
동수칸
오상
##콘서트
시작부터
라인이
올리면
##일베
도도
옳은
##만하고
##ㅇㅈㄹ
오고
해줘라
걸렸네
riringGg
쌍욕
차예
##무비
##지않아요
송중기는
조이서
##ㅁㅊ
우야
##당했
성적
##였다면
반항
##폭망
김종민은
돼지가
갈때
커뮤
흐음
모르냐
그의
##면에
되야
##블린
이게임
##구연
##Oba
댓글보니
오랜만이다
골로
화났
##이좀
##속으로
가상
현정
##테란
un
##라는거
걸림
리자
발치
노란색
양현
직전
##잇는데
##뭔지
주기
살아야지
##두기
땅콩
빛나
엄마를
폐지해
도찐
ㅈㅂ
##색기
사랑꾼
##마당
##이야ㅋㅋㅋ
성관계
겁니다
잘하시네
##박살
##킬러
##엔터
##고싶은데
왁굳형
식사
심하
##다해
ydcAa
못이기지
민족
##화를
그림자
10년전
람들
##속사
##고있어요
##하시다
방가
수애
##빨아
ㄹㅇㅋ
##나와주세요
내인생
반찬
1차
개노답
랜치
아이폰
행복하게사세요
현상
##완벽
가입
고문
##쵸티
넘기
상대는
구동
참석
##그만해라
뮤탈
들어왔
벤은
세명
본체
##생겻
##주부
##보셈
아으
콩밥
##www
민국
별일
낮은
찬열
##먹었다
##힘들어
세상을
##봐봐
잘생겻
##se
잘맞
##하나도
0년
집도
비둘기
노리
손으로
왕대륙
운지
좋겠는데
내지
소림
워마드
유하
증거가
상민
##방위
깬다
블리자
웬디
##우씨
아니래
무슨일이
법적대응
##되시길
사유리
##uv
##모르게
진짴
##랑도
##uya
이승기는
##ㅇㅇㅇ
at
가락
뜨는
도르
저기도
##놓으면
##비비
죽자
테슬
존야
클로
안본지
돈받고
보쌈
나고
있다니
##였고
##조기
##가는게
죠낸
##맛을
구구단
좋지만
처음으로
축제
둬라
손패
에는
##리즘
##했다가
기사까지
##수의
케이블
덮을려고
사위
양악
화를
##았네요
좋아해요
아구는
이그
##대생
##털기
어지간
##히게
노잼임
연두부
나날
카카오
##센세
다녀오세요
##전혀
바탕화면
경량
디어
죽을듯
여자한테
도데체
##월에
디자인
맴찢
심장이
##사야
공혐
근처
차례
##시킬
##청소
자중
적어
조명
##충재
mi
##혔네
몇번을
1원
약점
##미쳤네
병이
선행
##오빠가
##엇지
못속
##An
##똑같네
##끼야
cf
데미
열면
##을거야
전세계
##하나봐
아빠와
##뜯어
무서워요
orhae
꼴갑
예리
차화
##시름
##King
이수지
엑소가
잘다녀와
방생
잡은
몰락
존나게
##ㅔㅔㅔ
느므
##은근
구매
이드라마는
김선아
문제인
##누리
몬헌
##구들
30살
선비
남편도
박지훈
기냥
렌치
집을
찬양
김명민
서프라이즈
저만
##중에서
부엉
스쿼
듣보잡인데
니들도
##맞어
##평범
##출발
박효신
비현실
아빠닮
지나면
재미만
멀쩡한
ㄱㅐ
은듯
파일
##무한
##빨간
여자네
나홀로집에
입담
늦었
##보여주세요
아구식
미필
발동
##박종우
##사람만
아내분
도미
국이
타로
##나낭
범인이
그러고보니
##겁니까
낄끼
그릇
돈자랑
람은
다니는
나봐
잇지
엽다
이돌
##야타
##13
연기력은
##귀엽고
북산
우성
잘알
절대안
송유빈
내스타일
했으니
##ㅅㅌㅊ
여자로
하늘이
2점
정소민
##괴물
페미는
##배워
##자리가
정말로
말던가
복이
자살은
##힘내라
안궁금한데
가셨
안찍
고인의명복을빕니다
군요
##잔다
듣보잡은
다릴
제주
##대학
온라인
타르코프
이분들
동생은
감기
용히
##덕분에
##엑스
크루
##들리
##분량
마구마구
지갑
##들었
##욱아
없구만
##kk
테크데모
트바
패널
##던말던
최태준
##매일
설계
씻고
##똑같은
탈진을
나라도
아이다
있겠네
아프면
##할까봐
극딜
힘드네
잘살길
혼절
웃음벨
물려
봐줘
들리
##알아서
디비
내주
아ㅏ
##구경
배우로
##그러냐
##해줘야
권오중
카르마
엄태웅
##가진
##어디서
##000원
상어
탈덕
##취급
백종원은
강해
##았던
떨어지는
잘지
방울
벅벅
아ㅋㅋ
죽이는
##마담
기어나오
인피니트
죄인
돌진
시간순삭
여주인공
잘됐네
조문
판매
오뱅알
단추
##단독
아름다워요
기적의
전주
고만해라
보긴
안하는데
조장
##게장
##어쩌라고
되세요
##집행
떠나라
##못해서
##붕어
성형한
봐봐
정모
##짓은
열라
주호
##도대체
##당하네
충재씨
네즈
빅히트
주도
최선을
무스
조니
때도
막장드라마
허경환
싱글벙글
대도
메시
##더럽게
나오겠지
위대
##존재
##속도로
먹먹
쳤다
##안좋
도망쳐
클레드
기럭지
씩씩
##수빈
사이드
국룰이지
안됐다
매니저님
##버드
정가은
##워너
송은
일인가
포탑
##해줌
스탯
##노네
##개같이멸망
지려
나라로
마무
러블리즈
이십
택배
할머
하시나요
##폐지해라
##천만원
##내일
광기
조빈
쪼개
##ion
감동적
밝고
잘한듯
##해명
아니니까
검거
여자분이
오리아나
족발
못봐주
미키
앞길
즐기는
시진
있겠
조승우
훔쳐
차인표
##모른다
생길
오영
공허
그사람
김지민
고있
버리네
불쌍함
##ake
첫사랑
ju1050D
성은
편한
##멈춰
축하합
##러기
##빌런
니달
독하다
##내리
부서
월세
있었어요
장만
죽는줄
이혜영
가세
##후보
##다고요
징그럽
왕국
제작진이
없게
##필립
리오
플순신
항상응원
노라
바비
스즈
수는
손예진은
때는
해본
##을하네
쳐내고
수목
##이자너
아니자나
준이
##하다는
##고싶네요
아들도
시청자들
##진실
##하하하하
어나
재발견
##납니다
최고로
##ook
##찾기
##속에서
ㄷㄱ
메트릭스
않았음
##대모
기차
##했어도
배울
스는
요양
쎄게
좌약
800
골카
리와
ㅋㅋㅋㅋㅋㅋㅋ
드로우
실례
##당하고
##ㅡㅡㅋ
gilyouCheer
뜬금포
러브라인
xx
만들었
박수칠때
구야
러면
위하여
사람임
욕할
##기까지
잡았네
##노래는
놀래라
선즙필승
서풍
불만
오짐
요샌
재슥
해봤
##재인
글러
메탈
##안되는데
들었는데
##언스
##브금
마찬가지
판도
##안좋아
재밌냐
악마의
혜정
##자면
아닌걸로
부르는
씹어
운세
##ㅕㅕ
##난나
술먹
##잇는
52
다알
셨네
영광
##j2
##겠다는
최명길
##한거아님
쓰는데
##방어
##톡스
se
받음
##지성
##th
노잼이다
쿠소
슈퍼비
수아
옮겨
응원하겠습니다
파악
##서요
군대가자
정글이
갈통
벤치
보여줄
돌렸다
튀김
개맛
##스라이팅
##즈리얼
사라져라
남잔데
송송커플
나무늘보
대출
선제
내일이
당선
려원
부대
안올
호빵
그만나와
##진짜ㅋㅋㅋ
머도기
##늘어
##충분
이쁘니
드물
유정이
##나오니
눈사람
##큰데
매력적이
극한직업
초기화
유닛
##ent
##Sh
고맙습니다
후에
헤어짐
wakOba
송해
이전
쾌차하시길
소쌍
줄줄
##께서
##하는건지
좋기만
데미지
젊고
보이고
거라
##잡음
##ㅠㅠㅜ
부작용
##졸업
무료화
손연재
다오
##데드
##패션
다시한번
노인네
##런트
##당시
##연예인이
##심장
##웃고
##물을
욕먹는
설거지
싸지
다모
맞잖아
문이
쉬는
이친구
##아이들
##전화
##데로
##면허
그럴수도있지
다잉
망친
잡아서
방템
##썼네
들어갈
결국엔
박정민
이양반
퀘스트
##있으니까
##일꾼
브실골
고닉
##해준
##하겟
##ia
그쪽
이프
##재미가
신부가
##하더
플래그
신세경
사세
##NA
##Crying
살빼고
순식
찌그러
##시켜야
느꼈
##굳이
귀화
유라
재미있는
##안아
더럽고
단톡
하늘에서
뭔소리야
성유
유소
리메이크
##상승
##은숙
저나이에
##트페
##조화
##보고있어요
그렇구나
No
날려
않는데
재밌기만
아까부터
실력은
ㄴㄱ
넘잼
##갱이
얼방
말라고
##진짜잘
이러니까
삐딱
세젤
##트임
이거보고
중력
##엄마는
현이
##애들도
##알았네
##끄네
거상
명절
야식
피관리
살아있네
죄를
ㅗㅜ
감사해요
나같으면
제왕
합체
보조
셔틀
후드
##인거임
##터트
5대
오디션
인민
공범
구가
야미
틱톡
개많
그분들
도랏
이태리
냄비
정상적인
매직박
그정도면
코드
디스패
간미연
ㅂㄹ
##3년
##오는거
##왕국
들어옴
갈아타
서서
##언니가
옛날엔
가오갤
음지
죽지마
##크가
예능에
##서비스
남자로
##부정
관종이
돌릴
용감
푸른
한두
한몫
듀얼
##시즌2
##넣어라
장실
잘살아요
오지마라
쯔위
8년
안풀
시청자가
축구공
잘하는게
##랄까
##예쁜데
코지마
모르겟
그러지마
에오엠
장이
딱이네
감정이입
모유
##HA
팩트는
##찌개
든든하다
데드풀
고성
떳다
날개
하더만
##베이
##이나해
비추
주름
소리하고
신작
이의
##시호
##좋겟다
똑똑하고
예뻤는데
##상품
박유
알보
##사서
##대세
##너가
드디
임창
이런걸로
지랄들
##사탕
##년이네
BJ
##MR
##비벼
최후의
최적화
##오구
공산당
장전
싸우는
초보
아이돌이
lu
개처럼
끝이네
##소드
죗값
헤헤
##했군
연애만
구투
얄미
##재미없어
##나겠다
##렁이
##리는중
돌아간다
비밀의
##훈훈
아비터
##일걸
쓰레기야
##갓네
집사부일체
에디킴
가붕이
도란이
##사다
고요
##민수
##그건
스캔들
도는
앞으
원해요
아이도
일까
재밌어서
왜나옴
죽겠다
타노스
##범인
이뿌당
그와
봤네요
##거래
잘어울리네요
에라
호빠
쇼미더
아케인
##사리
##범죄자
빠지고
하나더
##탈진
##냈다
##해보세요
15년
입다
믿고거르는
효자
필요없고
밥먹고
젤리
다행이
슈퍼스타
민경훈
자전거
돌파
못나
무효
의미없다
개노
박사님
##질라
아까비
2019
잡음
포지
종합
ㅈ간
코는
##어디가
##불렀
##결정
##명이서
빠루
##욕이
노래로
##입니당
5성
##조각
##32
##KI
낄낄
뱃사람
욕도
대단함
확실하네
##끝남
##지않은데
척척
##법이
아이를
안간
##나온거
##지현
##죽는다
내로남불
이제서야
웃겼다
영정
##우르
들어갔
##르륵
괜찮을듯
디가
##바르
구냐
뒷모습
이열
텅텅
트레이서
슬퍼요
만든거
보험왕
##긴했음
##쁘다
디트
사춘
치가
기다렸
정우성이
약하다
체력이
무능
##줬다
##이런거
##비트
매치
그래봐야
대마초
강남은
스트리
3초
##그지
ㄱㄹ
시참
긴장감
템은
팩폭
양아치네
준희야
##현진
##어휴
이쁜부부
그런걸
연수
##튼데
비서
심슨
싸우면
영이
##니코
프리시즌
##공익
안갈
##판이네
##하고도
##mc
청률
##게스트
##벌이
밴시
유재석도
##코스프레
이라는
##시장
##주리
##왕자
##크면
로망
배드
우르줄
무야
##질까
하드려요
친구는
박력
했나요
스테이지
호크아이
하수
##방터
##위선
##재미없다
빌어
##일인데
##키면
이뽀요
B급
10대
##리지말고
보이던데
맞자
##쓸모
김주영
1대1
룰렛
##지는구나
adhd
만월
정웅
##걸고
세번
테러
##털어
날씨
선포
##상태가
##한판
아닌게
잇어
클린
보기좋아
얼핏
하기엔
나간다
동전
##상이다
갑옷
적으로
조신
##부담
##게이머
##딩이
지랄도
GD
##인성이
##ear
자식은
가죽
개밥
나을
재방송
##고는
##해지면
오늘따라
게시
울면서
요새는
빠빠
돈복사
브레
주라
##성별
##맴버
잘하셨어요
아름다워
미성년자
dl
나누
먹어요
미는
코에
##윤정
##아주네
있더라
##10년
강소
짬통
아닐텐데
##오프
##았다고
하셔
연봉
대는
50원
맞다고
세무
##주야
이상하
방심
수입
미스코리아
nn
배트맨
비통
양예원
다하고
##기도하고
행복하다
이말년
응급
연기나
분명히
보러가
##써야지
##짜고
군대가라
조혜련
리수형
임원희
##아ㅏㅏㅏ
이미숙
닌텐도
허준호
장난아니네
##시키면
데려와
##있긴
로켓
연기의
배두
소소
퍼포
##위해서
##개나
##크기
생선
##AD
기세
소문이
베트남
니모
라칸
##들임
망나니
잇네
지웅
캐서
##델라
뚜껑
##unz
피디가
칼퇴
개많네
##쳤는데
##년들아
##맘에
##으신분
08
같이가
##개찐
##으려면
실망이네
죽는거
흑역사
##오이
##미향
몰려온다
보네요
튜브
하심
옛다
중반
##어진
##됬다
나와야지
나에게
있니
흰색
##용으로
##볼때
##멍청
걱정된다
할지
자격이
동맹
##이었습니다
10살
개이
##박ㅋㅋㅋ
굿즈
박찬
##남들
김도균
언젠간
피드백
##졸귀
##움직
부모는
미래가
##잘생긴
감수
쇼윈
##스레
어이가없네
스크린
ㅔㅔ
물고기
수습
조진
일본어
녹음
평범하게
시구
화난
##접대
정신을
처음엔
yg는
감귤
##탔네
교통사고
거대
관종인가
쾌유를
믿고있
있지만
##잡는
yo
력이
엊그제
한명이
##새봄
장지수
잠재적
계정
##지좀
##수염
##스트리머
교도소
부실
##자루
안쓰럽다
짝이
##이겠네
눈도
이겨야
나라냐
김보라
##민족
아이돌은
미스트
코어
히오
##티브
지지자
선배님
기대했는데
해야겠다
날듯
##못생김
##함은
좋은소식
ㄱㅈ
##솔로
서우
수신
씨잼
이단
##한여자
##겜이네
무전
##수있나
김용건
소통
##뜬금
뜬다
심신
##방송에
들어서
##를안
##류탄
##내놔
##살어
##쪽팔
마렵다
황카
어린애
시죠
어딜봐서
하해
생각나는
철구
##언냐
##해주세
무도가
맘충들
##대서
##적이라
##하셨으면
번째
세다
이죠
선거
안뽑
핫소스
##없었음
백반
서도
는줄
뱀파이어
저기가
##법사
##다이어트
##지뭐
30초
최저
가까이
##대여
##fhd
백인
부쉬
##맞아요
##팔아서
몸도
아녔
##스테
##부작
기적이
##죽네
보기좋네
##그런거
공간
재섭
는건가
스몰
##이라니까
##좋겠네
만나세요
세상은
마는
올만에
##해결
어렵지
현무야
검은머리
바르게
##는게임
이쁜척
고생했어요
브루노
##여사
이민우
변경
소매
템을
##지말던지
진최컨
쓰다
##론가
이세영
##할꺼면
##수련
어처
##줄듯
##딸도
많은거
쏟아
##이였나
안나오나
미개한
of
##셨습니다
축하합니
손동
케릭
##남주
진짜루
개유치
실형
##나음
##뭐라
##하는걸
##얼굴로
##연수
##이였지
##되었
못하냐
##고야
##좋았다
주영훈
##음주
##소니
##비도
##못할
똑똑해
##겜은
신뢰가
예지
김민규
111
해조디아
요번
쫀득
참치
개이쁨
라운드
궁금해요
시대가
양식
##전에서
##주먹
##아야함
짜증남
모른척
오십
인권
터키
##로그
##했자나
##폭탄
나다
배용준
우리동네
과대
잇는
##얘기는
난쟁이
야인
낚였네
백상
써요
아드
##미애
##미들
##중입니다
##콩콩
로리
##떨어져
탱템
하구
##동원
##왜이렇게
나대네
삶을
장모
짐캐
여자만
뒤져
못입
성광
##ung
어묵
##미터
##꺼져라
##지창
베르
볼까
에반
창렬
2번째
육수
##아픔
##방도
##때문이다
##이심
##TF
##꼴보기
백종원님
줜나
지렸
##구현
진혁
##인스타
##구간
보여주자
커여워
통일
##부부는
전혜
크툰
하나하나
해야됨
비투비
빤스
##코코
보장
수근
##AC
카이사가
##브리
하나뿐인
##어ㅋㅋㅋ
##급으로
바이럴
##텔라
낮네
한거임
##와이스
갑분싸
서치
유독
##손이
이혼을
바꾸고
리면
홍기
##말곤
열쇠
1등이
태어난
이천
##글라스
5초
배송
직장
##없잖아
빛을
유정
##노ㅋㅋㅋ
그만들
##해야된다
작다
##없죠
##ㅁㅁ
여자애
렸다
##눈치
##껴서
먹는게
##좀비
뽀나
이라도
일하는
잼잼이
죄송해요
온갖
어이구
##래프트
귀욥
모녀
빼곤
이상엽
대타
##후배
##아아ㅏ
안될듯
키운
##들어서
##터진다
안좋음
사요나라
미투가
식샤
차라
과일
머가리
고발
##부터는
합리
궁금함
##가는줄
인마
못하는거
신데
특수
##고있냐
##으셔야
중단
어떡하냐
##나혼자
##린스
약을
어린이
눈감
타일
##끝내
그래픽임
같더라
것은
##진지
##YG
못생겻
연애를
시네요
가수는
무슨죄냐
##못참지
내다
텔레
사랑스럽
그럴줄
음소거
메이크
복하게
문재인은
이말이야
싸고
##리는듯
깨워
나발
가질
시뮬
갈까
머하냐
쓰래기
비틱
안가고
논란은
##민석
숫자
정성
충성
보이콧
크로스
거북이
말할
##쓰레
행복하시
프로불편
##연기력
임신이
##다님
##잇냐
저기요
출연자
려나
롤도
##사태
시즈
진구
##손에
##먹여
##소시
형아
교련
네오
말년
비슷해
울었
빈스데이
##셨군요
6개
망해서
물로
##먹어야지
개이쁘다
버렸
##지니까
##빵빵
##그렇고
고자
만나라
썩어
워크
##고백
##유저
바람둥이
1은
무새
활약
##범근
##싸워
데프
못생기
해야해
그시절
##멘트
중요해
싶으면
94
##상대로
비주얼이
ob
##불견
말든지
자면
벤틀리
말고는
엄앵란
##년들은
유진초
최고입니다
관객
재밋음
왜그러냐
##wa3
덕에
##상해
미투운동
66
은행
재조합
추측
##우려
라이머
3성은
늦은
##수있는
viichanRani2
뭐만하면
##패배
##꼭질
구하라는
정확히
라디
햇네
##멀티
재미없어요
새끼야
이하이
중2병
명이
##보로
##울때
내조
퐉스
처음보는
먹으면서
았음
노잼이
박보검이
부처
빈이
안닮
잘된
장비
쳤네
##지은
##한표
##1억
##타네
기대를
제목보고
뉴이스트
여보
나보
쓰나
업글
##있었으면
##돌아오
##먼스
우습
##Ks
##하긴하다
이모랑
이겨내세요
##파괴
섹시함
찐게
4성
그가
세기
다솜
백프로
의료
화력
이태곤
안재현은
말한
짭구
현장
안될까요
지팡이
##자숙
소년단
##LOL
줄줄이
##슬쩍
하시면
로보
##조타
##약국
어필
왜나오
##다닥
##희망
모르는거
신인상
버텼
음이
시아
##한결
##날라
거지같은
극찬
이연복
끝이다
레니가
##하래
나오던데
잘한다고
화목
나쁜남자
꽁냥
설정이
이노
잇테
주님
참교육
##니스
##태환
포로리
웃음이
챌린저
선을
아다
좋긴한데
##졋어
좋겟
##LC
라라
라리
잡지
저분은
##을뿐
3번째
못봤는데
이쁘구만
좋아보여요
김장
드릅
피시
##하당
hawa
당히
인종
##ㅋㄷ
##볼때마다
##해보이고
어쩔수없지
뭔들
동시에
롤을
주는게
중세
##눈에
##말이야
쓰레기통
빕니
첨들어
승준
레넥
반려
##죄다
초록색
3점
구씨
깔아
버리자
일일
주목
지하철
구울
##고침
##안볼
op
밤마다
##으셨네요
월량
##기냐
##중계
그니깐
상당히
파산게임
ㄱㅈㅇ
결혼하고싶다
##위조
김기덕
인과응
엑소는
행복하세여
고무장갑
정직
##많냐
살도
쪽빠
띠동갑
사람죽
야옹
##만드는
##봤지
혼술
존잘이네
30년
중국은
있다는게
상습
##했을때
니어
##댘ㅋㅋㅋ
모습으로
박제
##까도
##드레스
##개뿔
때매
만한
3040
할머니가
생기면
놀이
한국사람
모르겠어요
여준님
그것만
채우
##스택
못하던데
부셔
##괜히
##수지가
아니던데
##기자님
##손님
헤어져라
개쩌네
뭡니까
안희
미역
손잡이
휴지
사진보니
##반복
막내딸
##신혜
##금방
##빠르네
##터지네
다ㅋ
밌어
제모
해설진
##사건은
##때랑
나쁘다
그루
미라클
##할라
##까리
쌈디는
4천
구석
더잘
미사
##싱어
##도다
yodelayCrying
미쿡
야외
##긴했는데
양념
주죠
##안재현
##코기
목소리는
닮앗
이상해요
유이는
##검은
모델이
순산하시길
##잘생겼네
##가보
양띵님
마시길
창문
Tv
렸네
리링
카레
##카나
솔라
##들ㅋㅋㅋ
CC
wa
감상
몇십
으니까
##재혼
박지성
rip
달래
수십
얼평
##지리
##싸이
발이
울리
양세찬
방시
##들이여
##Apfhd
얍교수
이버
##잘어울려
난이
비판
##덮으려고
히트곡
이년아
안보는데
보라고
봤나
생리
언더
굽네
사귐
어서와
고름
근디
##ain
부지런
뒤가
면허
되는거지
못따라
잔치
제니가
##스터콜
거기에
##는사람
##변경
넣지
##Le
때린
##의금
김재원이
훈훈하다
형이랑
##해줬
생님
마려
황보
나가지
줄어
병이다
사미
##한국당
걸어요
못했다
##남녀
##채로
##누구임
낙태
##도없다
##몰이
이뻐용
사무실
돈가스
안되고
나래가
싸이코패스
눈알
있자나
작살
혈압
살림남
민기
전성
조낸
##마인
스카치
나라는
봉인
재판
대세는
롯데리아
킹정이지
치와와
어깨가
자세히
##뮤직
##덱이
##현정
poongL
##바라기
빈지노
잼없다
##심각
##분간
##Kinga
다ㅋㅋ
왜하냐
자도
재탕
##얼른
##엿다
##벤져스
상대도
안테나
종료
얍교수님
심함
잘모르
##지ㅋ
##ice
알잘딱
흑마
박보검은
##들하네
해주면
갈끄
섹쉬
소양
에피
도티
##못가
크라니쉬가
이석
전부터
곳이
스펙
주머니
##소설
##왔어요
결혼축하드려요
인기많
장담
예쁜커플
패드립
고퀄
마구
말아요
미카
합쳐
##희진
##귀염
기본이
실력으로
백대표
작년에
##너는
에릭남
고용
색이
##안한다
##챔프
허전
복하
##상자
##비디오
방송사
일반인도
가식적인
드려
##너무좋아요
답답하다
뻔뻔하다
색기
찾고
##탈락
오윤아
##까지가
남자애
싶냐
캐미
##찍었
드럽
아임
신선하고
건전
뺏어
짜오
##gule
ps
패러
예쁜부부
##안녕
##았습니다
생각나네요
류화영
첫회
##겠따
키우는
##둥이들
##찬다
ㄱㄷ
고졸
유동근
##라다
##싱크
2편
비리
티셔츠
국제
이누나
현피
아프지말고
엄정화
까발
병규
알아라
##끼네
##내네
고소미
##멤버들
고지용
이미지세탁
할것
##나오겠네
##열이
딸을
##닼ㅋ
내자
잘안
은섬
##좋은거
삼가고인
vo
유시민
잇몸
징하다
##너지가
##키네
##기사로
썸머
##무사
##직전
##뎈ㅋㅋ
수지보다
고스트
분들이
무리뉴
##인지도
##칠듯
4쌍
초콜릿
##좋을듯
윤균
크림아
##해로
엄마의
실망입니다
임시완
그타
화환
매력있네
이선생
너클즈
동상
쟤들
포샵
##겨울
##엇으면
85
방장님
성덕
##재판
##몰라도
되는게
손녀
##영화는
##시키네
ㅌㅋ
##가시
##사는데
##못보
##이제일
이정현
씨는
멤버가
똘똘
일에
##시너지
##먹는게
구조
꽃보다
소람
제사
##었을때
##우니까
##줌마들
박진수
미쳣네
##카스
너무좋음
보내고
##여기서
6병
쪄도
##해야하나
포스터
지드
창조
할께요
##올랐
##지가않
거기가
##스완
겁나게
기부나
부탁드려요
받네
식상해
마리텔
가스라이팅
빵꾸
상담
##클라
주인공은
똑같애
효도
재미짐
왜저렇게
2020
드셔
사과를
주변에
물에
##맛이지
##exy
땜시
##당신
##피해자
##일인가
##노는
##연기를
언럭키
하꾸라지
##건은
##을땐
##ㅋㅋㄱㅋ
마음의
##나올때
데려가
잘해주
군대갔다
##경험
뚱뚱한
나뿐인가
##살다
고지
도라이
1등은
모두들
사랑스러워요
업그
팬들은
만나지
##잇어요
바하
있길
##보살
##슴다
운동선수
ㅋㄷ
안취
살고싶다
죽이기
찍어주
##만듬
##걱정은
##만명
##운영
예능으로
구해줘
##가장
viichanM
응원하는
멋진사람
되었네
팔아서
화영
##배우는
po
슨배
원픽
일본이
좋긴해
혁신가
없어짐
터지네
##과장
im
하리
듣고싶다
절라
김하
노총각
술사
해주는
많은듯
##바가지
좋았을텐데
말안
그만하세요
3이
ㅈ나
망하는
900
리수
##고도
##있을까
안가냐
##31
##학원
##보기좋
달달하다
금메달
##버텨
잘못은
인정한다
접어
##없어도
어디갓
국회의원
거예요
긴또깡
##못하면
나왔어요
##어때서
문세윤
자녀
잠만
추성훈
##더블
##급임
혼자만
빅토르가
겟다
##살고
고르곤
말거나
묻히
버러지
쓴거
##들보다
zzamN
낮아
타투
휴식
##내미
웃긴데
발정난
아동
유령
##배럭
##머리는
mmr
세번째
전프로
이탈리아
가불
한건가
##누굴
진정성
김동욱
소리지
다면
먹죠
자리가
계시
구리다
남동생
뭔소
소리야
광고주
1절
더빼
민낯
욕이
저러지
정신좀
옥상
##떠나
힘들면
관심받
##호흡
다른게
고소당
그만하
##예쁘네요
스필반
남에
민효린
주둥이
출현
구준엽
불안해
##Rr
카사
##진우
좋아하는거
봉투
서언
예쁜사랑하세요
공기
상장
소용
컷네
##들짝
##밖에안
깜방
가사가
대작
듣보는
안시
##없으니까
##된게
##웠나
기레기들아
보란
이순
자서
##버리면
피해자가
리나
시커
##그래요
던가
빠수
##짝이
느낌이네
god
못하겠
봄이
앞뒤
##어그로
##방구
##없었
어지럽다
게으
내놓
##뿐이다
180
Cheer1
##으응
##받는다
찌질하다
와도
##찍으면
##AR
사람이냐
##가는듯
##아악
어쩌구
시키자
2승
대수
철저
##하면되지
남잔
육중
홍철
##못생겼
##순산
연애도
어려운데
보낸
후리스
##2번
자기도
다음주에
MBTI
##개그맨
Sm
가시길
둘의
킹재원
##죄송
##멜로
현무가
물을
##치는게
고음
야도
##싸가지
##컨텐츠
##롭네
##친구가
살빼니까
리를
법정
예능이
고생했어
장승조
##적으
##65
태사자
나레이션
헤일로
##하는건가요
신경쓰지
고친
##밸류
공감하실듯
그네
봐줘라
일본으로
다라
빠지는
알겠지
집구석
한문철
길만
들의
비어
##무관
빨강
강하
라클
스태
##대야
##패턴
##pg
##인데ㅋㅋㅋ
재미없는데
##ori
민폐다
응답
포방터
##몰라서
라이프
##주름
이쁜여자
안먹어
이를
##언론
##근성
##악한
불태
한우
##파트
한국이
무관이
은신
추접
##고고
##의성
##Zz
5등
못됐다
후추가
차예련
덕질
키고
##바뀐
##꽃뱀
슬프네
갔냐
업을
연아
##대는거
##킬로
바이오
두유
##것보다
옵치가
##Angry
뭥미
보시
##늙었네
##짱짱
오히려좋아
복근
##내나
에너지
##받아야지
##노래가
스트레
##자만
##었어야지
나올까
##겠는
돌리는
술상
진기주
이겼음
신기해
러너야
두산
베베
##말종
##화국
제발요
##궁금하다
시우민
스텟
있는건
치마
##고구마
플레증강
제목부터
정해인이
ydcJj2
하위
이승기가
딸래미
사야지
팔근
##나중에
##노ㅋㅋ
나이차가
초등학교
아니라면
인간아
본다고
##인으로
아니였음
기죽
##되죠
연기파
2위
높이
대검
##마린
##됐나
##언제나
터졌다
##털이
댓글수준
##웠지
##새기들
두달
리기
싸게
얄밉
엄기준
##힙합
덩어리
240
나연
내이상형
만지
못나가
울었어요
##못생긴
##으시고
아니지않나
금융
김무
밝아
오자
착하
최고였어요
ydcH
목에
군대가면
정도껏
엄지척
##던분
##심해
##70
##떨어진다
인기도
잘보
폐지하자
##을껄
##괜찮아
길을
사람의
저리가
##벡스
희한
그분이
화장이
##하겠는데
##점프
##복도
다음날
기승전
웰케
##지야
##피트
소비
조졌
태후
기상
보영
##이아
##절친
하늬
##하긴한데
wakKinga
##미만잡
넣어서
등판
안되겠다
생겼네요
100억
이새긴
곽도원
윤아가
전함
최대한
##라네
##떡상
##들여
##달래
내는
만듬
앜ㅋㅋㅋ
룰루가
발라드
했나보네
가볍게
무쳤다
열받네
기사야
것들은
태산
투기
홍종현
낄끼빠빠
자괴
4점
은이
코난
##해질
##줘잉
##당했다
기억에
듀엣
영탁
조롱
허영
##재성
압박
##내냐
##지않네
##라이언
아미가
##안되지
woohanG
ㅈ으로
가고싶다
떠네
줄이
다니네
눈부
여운
##꺼지
2턴
있구만
##어야해
안쓰럽
성현아
오리지
##역전
시작이네
어디갔냐
김어준
라구
을때
하겠습니다
##poong
##사이트
멀미
미침
부친
없었나
##캬캬
그때는
신은경
보낼
잇음
있는거야
먹칠
먹는데
양육
승기야
##큰일
달라지
독재
롤이
안보인다
친다
##니도
퇴출시켜라
윤호
중학생
신류
##올때
짜증나는
개악질
최현석
##미인이
##인데ㅋㅋ
사진좀
지코는
##안타깝다
더나
방사능
셰프
##길어
레이저
아조씨
##설리
축구선수
준희양
돌리자
연구
##똑바로
관종들
부끄럽다
둘만
먹으러
건물주
이언
##감을
hawawa3
웃길
시간을
테일즈
칸도
##성장
예능에서
##지말라
##hee
후임
##있어라
##되도
김지영
귀환
단물
보겸
비빔
솔루션
##발연기
##지말구
##잡이
##프네
gegule
##마녀
난리냐
데프콘
현석
겠어
안한거
##피부
시원시원
군복무
굿바이
빨랑
하더
두근두근
엠버
오직
##봤나
미야
분석
##환영
##클립
사랑과
김완
##까네
머선
었어요
자랑스럽
봐야겠네
미코
잘한거야
차분
거를
이씨
##미치
##살이면
어딜가나
욕은
누군가요
this
그건가
틀니
##불매
##청춘
##뜨고
박서준은
##훈수
##웨딩
느리
비욘
오는거
##안간다
지금이나
##ㅌㅌㅋ
혼전임신이
조상
태극
##장으로
짱이야
##신선
바랍
아몰
지환이
풍상
하셔야
1호
어디다
##노트
나이들수록
보셈
임재
사람한테
어떤가요
##ome
병아리
튀어나
##약한
오락
우마
##나오세요
유투버
##넘좋아
물쥐가
3트
늙었어
몸은
우디
츤데레
고독
종국이
##하우스
##쳐요
5점
물어봐
속사
##손예진
은혁
##글자
##아니잖아
세찌
##빅토르
노력하는
##놔서
##큰거
얼굴이네
걸스데이
스틸
##도있네
##슬이
ㅂㅈ
니나
재밌나
귀엽더라
한끼줍쇼
럭스가
크지
##2가
##닼ㅋㅋㅋㅋ
##방송은
로제
미루
하합니다
##나와도
##미선
##언니는
이길듯
고는
신파
##냐고ㅋㅋㅋ
까만
쌍베
필리
##공포
다잡
마세
우상
태세
2018
둘이결혼
타입
진짜너무
방송으로
어색해
ww
문과
제는
##구혜선
##메디
아니니
그지같은
하셨네
##쳤어
이승훈
양희
##탄생
##심하다
##어야했는데
bye
얘기가
##클릭
이쁘시다
기아
싶을까
##이만
##맞나요
##Light
확실한
부끄러워
태교
##마크
좋은분
집행자
##ㄹㅋㄹ
사회생활
찐찐
불쌍하
랜뽑
망토
결혼함
나왔냐
돌려서
정기
주나
웃기지
##이여서
놀면
##와의
##풀어
안나와도
접어라
스페이스
돈다
웃다가
치아
##행복하시길
##지간
##사랑하세요
전파낭비
물갈이
임이
##머지
##부름
진짜면
그리워
칸무무
대단합니다
##해줘야지
##안될
##건드
##시키지
경수진
##매력이
##예전
##또라이
국위선
연령
##이긴하지
걸스
축가
한놈
##긴했
##뿜뿜
세리
저사진
##바가
년단
못했
조은
##학년
떡밥
베리
증인
##선에서
제로투
머바
정식
디유
무가
이더
이니까
##동영상
슬기
##제한
여자라서
엄청나
이해안감
옥냥이가
다함
찍을
##할때도
롤체를
##그닥
##재밌는데
##어차피
살렸다
지퍼
##죄가
현실이
##하신다
##하지말지
던이
밥줘
십년
미쳤음
집안이
##스파이크
##차차
##건강하게
담주도
리치
##비안
화남
##볼게요
어렸을때
돌아오세요
친추
팔어
모모랜드
흔들어
##매너
해야죠
별루다
두리
기대할게
잃은
추석
그나물에
김아
모르가나
##문제다
추억팔이
아부
소리하네
설사
옳다
친근
스타필드
재밋다
보드
상의
##깜짝
##쾌유
불편하다
##지나면
더만
##되는게
유명하지
선호
몸으로
병력
##회로
##6년
미치겠네
라비
만이
쥐어
허벅
##잘했네
글래
충신
##시상식
간단
킹갓
영화관
구본승
청주
수비
##소환
최고였음
##마법사
개고생
##팬인데
##수도있
Pri
리아
정승
정경호
아니근데
번에
생얼
있으신
##나이가
##eo
방관
##마블
poongB
xkwhdApfhd
가라고
먹으
밖에서
1이
##돌파
##힌거
가실
성재
참가
해쉬
열일하네
페이크
성훈이
계집들
스페인
##착해
가즈아ㅏㅏㅏ
단체로
방에
애쓰
이규
연기하는
도타
수박
않았어
##아자
영화에서
주지훈
끼는
년이
이혼남
로아온
자이언
##햇냐
김치녀들
요네는
광규
자림
토나옴
장기하
남자야
##나라에서
자동차
방방
스멜
절벽
켈투
##터는
보복
##개꿀잼
려라
다됐네
보면볼수록
##기대됨
단계
박선영
점마
##망상
마인드가
호주
##이다ㅋㅋㅋ
우승은
옷도
안나온
이기사를
기념
##Sad
신나게
출세
혜정이
##뽑아
한번은
미연시
귀에
멧돼지
우익
힘내서
사기임
##abi
독이
오옹
##가인
이혼한
선정
스물
따봉
##좋으면
##싸우
6발
이케
전담
보는듯
라이벌
조금씩
나머지는
했습니다
##이긴하네
양아치들
시스템
공평
##오타
비켜
##퍼가
보고있어요
하쿠야
해주네
이청아
추행
##이던
##씨의
##암살
오타쿠
등극
##이지ㅋㅋㅋ
어디냐
다녀와요
연예계는
안빠
망쳐
이산
##히히
##시켜주세요
##좋다고
할말은
빅토리아
APM
2렙
펩시
푸짐
##빈다
생각좀
##마누라
남기
봉사
최고에요
비싼거
됐냐
##문제야
##는걸까
사냥꾼
##po
안되는거
에미
잘컸
평양
##하거나
너무예뻐요
말뚝
해맑
매출
패딩
##Eun
유비
##부모님
뿌린
없자나
##ame
유머
##사이즈
비챤님
속은
처먹
말아주세요
체가
##두자
제거
라오어
돈잘
여신이
엄마아빠
궁민
꾸며
##잃어
음악은
안낳
미용실
랜턴
##빅뱅
김광규
##슬아슬
뒷라인
또시작
비아
박탈
시진핑
오래가
피박이
아니구
저년
찾아야지
피닉스
뚱땡이
리트
맛없어
##가면서
아니라는데
내숭
샤오
성동
##놨어
이혼하면
ydcKs
반민정
했네요
##의대
##새요
먹었다
##설현
##볼듯
아프네
9년
##희라
##감이다
##김밥
##헤헤
##unzin
3위
맞아서
쇼츠
오ㅓ
##표절
다음생
2022
김사부
##Vkf
위험한
교미
봤지
옥수수
말에
캐롤
오타가
후반에
거만
근접
어땠
찾는
한국어
##것들아
관심병
##이였어요
떨어지네
수준하고는
3성이
돔황
보였
##캔디
거세
##어택
##갖다
##Hug
결혼축하
나라에서
여자들도
당시
안좋네
##대충
##비션
행복했으면
78
##야된다
##보라고
##하는군
비슷함
##나가서
오래도
스타쉽
눈코
우네
##고양이
##설명
##uck
나가네
mc몽
모하
##났나
섹시한
불매운동
없었어
##찬이
5살
ㄴㅋ
개쌔
된듯
##고루
해외에서
##속성
기삿거리
서넹은
몸통
##긴가
##ink
눈꽃이
1부
생이
쓸게
쌍으로
씹련아
안됐네
터졌네
##줄까
##하신거
말랑말랑
같긴
팬은
##처먹
나낭
려서
남편을
##야할
##겄지
유빈
##니아
##짧은
임신은
업데이트
##까기
##랜턴
##끼리끼리
엘베
하객
##세에
##쓰는게
##혜경
##견제
도찐개찐
갈리
말길
자님
##스타가
광우
다스
신세계
좋아보이
나오지마세요
개돼
##이였구나
어이없
아크
인류
초시계
틀린말은
초상
여자지만
프로다
연하남
또래
긴함
자힐
##물로
강다니
늙은이
##찍자
AV
놔둬
맞짱
##블츠
##bu
인간미
미나가
믿냐
북미
행복하면
ㅠㅡㅠ
싫타
##나는거
빨리좀
좋았지
돈벌기
나불
##만날
##신데요
방송켜
##들어오
안쓰고
도저히
##겟냐
##비하
1렙롤
말이지
##학번
##떤다
ㅋㅋㅋ이
leel
뿌리기
##지키
득남
##안가네
##마셔
결혼한줄
돈받
너무예뻐
빨간색
발치몽
감염
대유
번개
##봤습니다
매력은
편집자
습니
##연옌
사거리
쌍꺼
소미야
##방으로
##탈세
세븐틴
막히
어뜨
##별로다
##돌아간다
배신자
1순위
송형준
오자마자
차범근
양심도
룩오라
부스
요들이
##역이
실험
##우세요
행복했어요
남자네
우리팀
자라렴
57
뭐예요
##판사
안일
##사생활
대물
먹었는데
최민환
##노력
스타를
명예훼손
회사가
인생작
실화임
반지의
겜을
동참
##잘해서
스타킹
머함
있다가
##아인
이뻐졌네
son
이상은
왜저러냐
ㅈㄷ
김미화
나인
누구한테
빙고
직진
충실
안식
해리
##대대
##겠던데
모델링
개소
저남자
너무이뻐요
반인
##님ㅋㅋㅋ
기억상실
김지수
ㅇㄹ
끼리끼
상황이
구마
차를
##거리는거
숨은
##구하라
##중이네
##까지도
오메가
꼴이
압수
영상이
##격이
##죽이고
부탁해요
테란이
정일우
쉔이
##해드
강타가
고릴라
보해
부천
회사에서
금수
목사
원해
룡님
##이당
그런말
못참아
만델라
있을텐데
보고싶지
##해보여요
안그래도
이러냐
용이
종현이
호강
##다던데
##색깔
##귀여운
높음
혀가
##인뎅
됬네
##AM
##프로는
예뻐라
못생긴게
##메이킹
ㅇㅁ
건조
밥이
오너
어린나이에
보여주나
전라디언
개같은
##1B
전신
##러운데
보여주기
토닥토닥
예절
##드랍
동양인
모험
답네
몬스터
빠져서
##거도
##지말아요
박태환
실타
오로
태풍
필승
##차네
##뽀뽀
혈액
##라기
##우니
er
개열
김종국이
게이트
좋을때
이즈는
##그만해
빼고는
환영합니다
손주
롤체가
왔나
##유의
6살
안입
일로
클램
포킹
영향력
있었던
어째서
국인
하나보네
##행위
억울한
기특
##강타
좋아보임
여러모로
my
뭐든지
암만
정한
토리
가르쳐
4시간
육덕
거미줄
읽고
##유포
앙상블
죽이면
##있을때
##왔음
세계정
봣는데
##소미
쾌차하세요
것만
민박
반칙
아악
이였
##강사
해야할듯
사운드
##다와
나니
수류탄
좋을까
##적폐
그랬는데
어딨냐
3킬
막장이
##겜임
국자
원숭
알함
결혼축하해요
##JAM
##너무좋
안나온다
뺴고
세개
자운
뭐야ㅋㅋㅋ
ㅈ댔
구간
길막
빨고
않으면
##했나봐
호감도
땅을
러다
보고싶당
로운
##인연
##가여
##낚시
것을
들켰
자요
기에
사유
##엌ㅋ
먹었네
##할때는
마이클잭슨
##술이
얼굴값
갈고리
##해져
##것같네요
공주님
말좀
##니야
##DD
장나라가
터지는
아직안
생존마
상점
세게
조으다
##정령
##하시는분
빼세요
풀템
후레
##났으면
##퍼센트
##돌리네
치과
##성태
아니었으면
##인가보
##아줌마들
##ㄱㅋㄱㅋㄱㅋ
학창
##도도
##이십니다
구혜선은
말하는게
##호환
##온듯
이쁘시네요
교수님이
로이킴은
돈버는
동그라
떨고
시안
오케
##값이
전라도가
외노
##되긴
생긴것도
담주에
마오카이
따위
솔킬
##가아니라
예쁘니까
재미있었어요
커엽네
포르노
오세
희생양
겨드
뒷통수
양동이
##휴가
##싸개
그럴듯
썩을
##등이
뉴스에
이길수
늙다리
미팅
##박자
배아
돌아왔다
볼게요
##과거
CG
당했
슈주
##하자너
백종원씨
살려내
솔찍히
되었다
##1은
12살
얍얍이
##판박
##컷다
음모
##유행
소리를
김해숙
배아픈
플님
##사마
##비상
##ㅇㅣ
성격은
준수
##합방
생존자
컨디션
##로봇
확률이
##응원해
더이뻐
##인줄ㅋㅋ
하는것
파트너
##지심
푼수
##레스트
##판매
고생하셨습니다
일반인들
부끄러
##이따
##억이
##동은
##누나는
한석규
귀티
##몰려
##으로가
제이홉
대상이
때릴
역주행
지영
##설이
##강남
이것들
최악이다
같습니다
관전
##들면
하차하고
오나미
땡큐
약은
9살
강찬밥
여자보는
tvn
아만보
안어
##체크
##Sul
로봇이
장우혁
교배
망한거
##드디어
##수없지
열혈사제
닥쳐
유언
장첸
햇어
##파라
내돈
##순수
##아닌거
저래도
백두산
넣을
임성
##안대
##편하게
그런거지
##한태
##우유
김성수
걸려서
잘했지
##과학
구먼
##맨ㅋㅋㅋ
장신
##다는줄
아쉽지만
음악으로
전혜빈
이본
평안
##뿌리기
애들만
깜빡
무현
젖꼭지
권혁수
솔랭
##OOP
매력적임
대사가
뭐하는짓
양보
##도됨
##할예정
##아주세요
##혜미
안재현씨
하늘을
이채연
은도링
안좋은데
##이라더니
김강우
구미
범도
퇴원
##구이
##코는
집사
쿨하게
##회장님
도깨
##존스
기대돼요
슬플
동생도
여러가지
결승전
##회에
노땅
선빵
##하겟네
##기능
##르셋
윤석
윤진이
첫판
##구자
순풍
옆모습
조졌다
123
꼴불견
줘서
##ine
지디가
카타르
도대
포피셜
야구선수
ing
##48
##최고야
민영
##내지
##비에
집중이
프로포즈
기들
딴건
변화
SG
만삭
안되니
친구를
120
##잘어울린다
분노의
조리돌림
양도
##을거에요
너모
얘들이
##이지요
불쌍해서
##서플서플
##가나요
보내라
같으면
##그리고
##품이
클라쓰
공짜로
당분간
갔나
코리아
허수아
##웃기다
걸리네
귀한
##고쳐
##잘만
##행복하
##ㅇㄷ
##현민
##멸의
관심없고
##수있어요
나가고
미안해요
몇분
##인걸로
대딸
무쌍
비공감
에메
편이
당당한
김부선
꼬시다
##들지
##똥꾸
이번시즌
담턴
차리
riringR
과하다
체스
##걸러
##한적
풍형은
개많이
구강
연이
이소
##한건가요
됐다고
중기야
##임ㅋ
죽을때까지
밴드
3층
ㅇㅏ
닉쿤
##집도
본적이
부리
자를
##본사람
절로
후라이
##걸렸
아닌데요
살인미
동일
받지
포도
##났지
##라구요
##다는데
이렇게까지
돌이
메니
안옴
예쁜거
##떨어지
##이나해라
개존잘
##천만
재수없게
##병신
##보고싶네
제육
##당연
격하게
수님
##누르
잘못한
경력
위아래
아재요
전장은
Kbs
답은
이어서
즙산
##낀다
너무이쁜
까라
성룡
해보고
##마세요
기분좋아
조음
어셈
우블리
황티
누구보다
맞말
애만
##자제
관심을
그걸왜
준영이
##주사
##명의
이쁘긴한데
고연포
놀고있네
농장
때리고
##어플
기다림
만들었네
승무원
##할수도있지
##발은
##to
겠어요
댕댕이
번쩍
러너도
걷길
죠죠
##실에서
저런데
괴롭혀
팬이예요
##내보내
그다음
##ㅋㄱㅋ
##표정이
이기는데
지루해
천지
스토브
담엔
##빨이
어쩌려고
롤모델
배에
응팔
부정형인간
무적권
좌우
##되기
##마조
##메랑
##뻔했네
한혜연
손목
막판에
0원
##입갤
##골라
나오자
구속수사
말라서
멋진배우
못했네
장민호
##하셔도
##빼고는
둥이
소연
원서치
잘되면
무기징역
정진운
않았는데
다ㅋㅋㅋ
심이
##많으면
자연인
##연예인은
개소름
른다
##조직
##Ouya
설득
이과
절레
후기
##아트
##햇어요
환희
##조국
왔습니다
##맛은
욕하
유익
은나낭
기래
##억지
어울릴듯
##레이터
##당한다
기대돼
nnabi
바디
질리
##각도
##느냐
인트
##물은
보여주고
악질이네
충청도
보더랜드
묘얀미
왁갈통
기레기들이
##30대
손승연
옆으로
주병
##집합
AOA
내게
##재다
##ㄴㄷ
은근슬쩍
zzz
최우수상
leelat
어유
극혐이네
지긋지긋하다
그야
엄복동
##가는중
안마방
강은비
질듯
##타워
##깽이
2마리
##거북
거나
인체
나경원
9투
루저
죽어요
하성
##학대
##여전히
Pride
뚝배기
##밤에
##들어도
34위전
말도안돼
DLC
지용
칼렉
##게임은
##기대합니다
##우우우
2달
고속도로
##변호사
혜교씨
##역대급
슬로우
##없더라
est
편견
##넘으면
##안되냐
그랬지
우주선
챔피언
현제
##김씨
마누라가
국위선양
보던
안나오나요
축복합니다
##모니
##신발
##억은
씹노잼
##소는
해주세
사기네
질려
대박나라
는거임
샐러드
##웃긴
##빡겜
대단하세요
새드
야한
카지노
##도없는데
##게해
##빠지면
##캡쳐
백일섭
어카
저희가
축하는
##워크
##깃네
브금이
임팩트
아까워요
옷은
##주차
그럴거면
수고했다
의학
##있었다
##먹는데
자러가
찍어야
##나겠네
##공사
오정세
꿀잠
만취
##오는데
##계획
사람인가
##죽는
##낰ㅋㅋㅋ
뢴트게늄
틀린말
##쭈쭈
ydcW
##돌아와
이정진
##ㅌㅌㅌ
본명
주냐
중심
생겼음
##에게는
##미안해
진짜이쁘다
전직
##고있는거
##애플
##하겠군
고만좀
박해미씨
중독성
금액
##달라는
##ano
독박
졌으면
##넘어가
##남의
많이컸네
거의다
이새키
맞췄
세호
잘해야
저걸로
투샷
##됫네
아니예요
##정해인
##처가
##사람한테
노잼이라
잡혔
리즈시절
##지않게
##전용
3골
